#version: 0.2 - Trained by `huggingface/tokenizers`
a n
i n
e r
Ġ t
o n
h e
e s
o r
Ġ a
e d
i s
Ġ in
a t
an d
Ġ c
Ġ o
e n
a r
Ġ and
a l
Ġ s
Ġt he
i t
a s
i c
o m
Ġ b
Ġ f
Ġ w
Ġ p
i on
Ġo f
in g
r o
r e
Ġ is
Ġ C
Ġ m
Ġ S
e l
Ġ T
Ġ A
Ġ I
en t
u n
om p
u s
i l
c t
omp an
Ġ l
Ġ M
at ion
Ġ d
ompan y
u r
Ġ B
i r
e t
Ġc ompany
Ġ 1
t er
o l
a d
Ġw as
Ġ P
a m
u t
Ġt o
i d
ĠT he
c h
Ġ h
Ġp ro
Ġ (
Ġ L
Ġ G
Ġ R
l e
0 0
Ġ F
er s
un d
es t
Ġ 2
Ġ re
Ġb y
s t
Ġf or
i v
l y
ĠI n
Ġ N
Ġ1 9
Ġ E
Ġ n
Ġ D
Ġa s
e m
a b
i g
e c
t r
i a
Ġ on
p er
Ġ H
Ġt h
Ġ g
ĠI t
Ġ an
u b
o w
o c
as ed
Ġ U
c e
i m
i es
d u
o t
Ġ it
p or
Ġ W
o und
e v
a g
it h
q u
Ġs t
i al
es s
m ent
m er
Ġw ith
a in
Ġ J
er v
u p
Ġ K
Ġ r
t h
u l
o p
at ed
in e
Ġpro du
ound ed
or d
Ġm an
ĠS t
Ġ2 00
u d
Ġc on
Ġ O
a y
a ct
i an
Ġ he
Ġb ased
it y
at e
Ġo per
' s
erv ic
is h
Ġ e
Ġw h
Ġf ounded
ar t
Ġ v
a c
o s
e w
r an
a p
Ġa l
Ġit s
Ġp r
t s
Ġth at
i p
Ġs ervic
v er
at es
ub l
it ed
u m
ic h
Ġ V
i f
e p
or k
e ct
w n
o d
o g
ar ter
Ġh as
el l
ĠU n
ation al
i z
ation s
o b
ar e
il l
Ġprodu ct
ter n
u f
r om
ar g
u g
ar k
ow n
an k
f t
i b
ro up
ĠC h
am e
i o
Ġhe ad
is t
ar y
uf act
a k
Ġ or
Ġo wn
Ġin d
Ġf rom
l d
iv e
en d
Ġc h
p l
Ġman ufact
or e
Ġf ir
e ar
qu arter
a v
us tr
Ġp ubl
Ġb e
ev el
Ġa re
ar d
c l
Ġ19 9
id e
Ġmanufact ur
s o
Ġ2 0
ab el
Ġpro v
mer ic
por t
or por
an g
Ġhead quarter
Ġof f
o un
ĠA meric
ig h
Ġwh ich
Ġservic es
Ġl abel
Ġ k
Ġs p
a il
ĠA ir
o ut
Ġd evel
Ġre c
Ġb us
Ġl oc
Ġl arg
Ġa c
Ġa ir
al l
Ġ20 1
Ġc om
r a
l and
on g
he d
ĠUn ited
l ine
b er
Ġprov id
ĠIn c
o k
cl ud
ic al
ark et
u re
ol d
m an
e ch
Ġin clud
ĠN ew
ĠE n
Ġe x
e b
ĠG roup
p r
o st
as t
Ġt r
Ġa t
ĠIn d
Ġal so
f or
n own
ion s
Ġd is
in ess
o v
or ld
Ġdevel op
ig n
ug h
an t
e g
in es
Ġrec ord
tern ational
Ġlarg est
ĠAmeric an
et w
Ġs h
Ġs ub
Ġ Y
Ġown ed
ĠB r
w are
â Ģ
Ġk nown
ul t
i re
us t
Ġ en
ab l
Ġp l
o ft
ran s
Ġon e
on d
orpor ation
ec ial
is hed
o ur
Ġheadquarter ed
em ent
ĠC ompany
e x
ol og
an c
or s
Ġbus iness
Ġproduct s
ĠR ec
Ġprodu c
e y
o y
Ġc omp
Ġm arket
ech n
y st
as s
ĠRec ord
us ic
Ġ est
Ġsp ecial
Ġc l
r ic
Ġp art
Ġ us
r and
T he
th er
Ġsub s
er e
or t
ĠSt ates
er g
il e
oft ware
yst em
Ġ &
o od
Ġ19 8
or n
Ġoff ic
ĠA l
g an
i k
Ġman ag
ĠRecord s
Ġb ank
ib ut
Ġo ver
Ġw orld
tr ibut
ĠN or
is ion
Ġs u
ep end
ac k
Ġloc ated
abl ished
echn olog
ĠC an
o us
en s
Ġfir st
a ch
epend ent
ion al
Ġpr iv
it al
Ġr es
Ġfir m
r u
f f
id i
Ġmanufactur er
ĠA r
el y
Ġa d
ic s
m un
t ain
ĠA s
Ġsubs idi
er y
t o
Ġa r
oc k
Ġind ependent
Ġn ame
Ġd es
Ġ 3
Ġb rand
) .
ĠC orporation
u al
Ġa p
ro ugh
ĠCan ad
b ased
il m
an ce
ĠA n
o ver
Ġcon s
Ġpubl ish
Ġair line
at er
Ġm ain
ompan ies
ag e
etw ork
Ġoper ates
Ġdis tribut
Ġs oftware
at ing
it e
Ġ und
Ġest ablished
ill ion
p e
ĠC al
ã ĥ
o ok
out h
am es
c ess
er al
Ġ un
t on
r on
Ġ em
Ġservic e
Ġin v
im ited
in t
Ġind ustr
t d
om e
ĠC o
t y
ic ations
it ies
Ġth rough
Ġo ther
ĠS h
ab le
Ġre g
Ġc ompanies
ĠIt s
s h
Ġ ro
for m
ĠL td
Ġsubsidi ary
el ect
em ber
ang e
c he
Ġdes ign
il d
a w
ĠA ustr
e e
Ġ y
u e
Ġthe ir
ing s
en c
Ġm usic
i e
Ġund er
ed ia
Ġfor m
Ġc oun
igh t
Ġ j
Ġ Z
ĠIn ternational
a ce
Ġc re
w ay
Ġ ent
on s
ĠP ro
ĠT h
Ġproduct ion
Ġinclud ing
Ġt el
ĠCal if
Ġt rans
in a
ĠCalif orn
p ro
echnolog y
ĠCaliforn ia
l es
ent s
Ġ19 7
er man
ur r
ot h
Ġcon t
u c
en ce
in ce
e ad
ĠB ank
Ġch ain
a i
ĠL imited
Ġ1 8
ĠAustr al
u ro
in al
Ġw ell
Ġre t
il y
re e
as h
as e
ĠY ork
ob ile
Ġs ystem
ap an
ĠBr it
e al
ĠE x
Ġm ore
he n
a j
Ġspecial iz
Ġc o
ĠJ apan
ĠP r
Ġ elect
Ġ 5
Ġpubl ic
Ġprovid es
Ġa g
Ġs up
r y
Ġre le
oc i
a z
Ġn etwork
Ġg roup
Ġcoun tr
Ġmanag ement
urr ent
Ġen g
iv ers
Ġo ut
ĠU S
ĠS outh
at ely
Ġtr ad
r ed
on e
Ġf ilm
is e
ide o
g e
pl oy
ĠBrit ish
ra ft
is s
Ġst or
ĠG erman
an s
Ġret ail
ĠE uro
re w
Ġal l
ct ion
Ġdevelop ment
Ġem ploy
Ġw ere
r i
Ġb u
at or
ic t
Ġinv est
Ġor gan
an n
ro s
ĠS p
Ġw ork
Ġfor mer
Ġas s
Ġth an
c ial
ĠC ity
ĠC om
ĠM ar
ĠEn g
o per
a h
f ter
el s
l l
in anc
Ġin ternational
Ġheadquarter s
ond on
l ob
Ġsu ch
ĠCanad a
e at
in d
er ing
Ġf l
av e
ĠL ondon
âĢ Ļ
Ġn ew
Ġ 4
Ġac qu
ol l
c o
tain ment
ĠEuro pe
ig inal
e en
ĠNor th
Ġoper ated
Ġv ideo
ĠAir port
Ġw eb
Ġst art
Ġc urrent
ow er
oc us
Ġy ear
mer cial
Ġst ud
ĠF ran
Ġoffic es
Ġa ut
Ġbe en
Ġc ar
io us
c raft
Ġt w
t is
ear ch
ĠT r
Ã ©
et s
a ir
Ġg ame
ar m
i x
Ġh ad
ic e
at ive
Ġ19 6
Ġp h
Ġe qu
Ġpriv ate
or y
ĠU K
ã Ĥ
Ġ im
lob al
Ġf ocus
ol ut
inanc ial
f er
Ġt echnology
r en
ĠS w
ĠP h
ro und
ĠM an
over n
ir ed
im e
ic k
Ġo p
aj or
ĠInd ia
ĠO n
Ġm illion
00 0
st ru
ust om
Ġm ost
ĠK ing
en n
Ġcom mercial
Ġon line
in n
ĠC ar
c om
le ct
ous e
Ġoper ating
mun ications
Ġm ult
us s
Ġstor es
ad e
Ġm ajor
Ġent er
Ġa b
Ġb ec
ĠS c
overn ment
o h
Ġs erv
Ġ Q
ĠC on
Ġb ro
es e
Ġs ec
it ion
Ġoper ations
u ter
Ġd e
ĠC ol
ĠEn ter
Ġl ist
Ġtw o
e ed
r am
Ġc ustom
ĠT rans
Ġa ct
i er
ros s
Ġc ent
Ġg ames
Ġform ed
Ġa fter
ĠB l
j ect
ĠC ent
Ġwh o
at a
w ide
Ġb ook
ch ange
Ġs m
iz ation
ev ision
Ġn ot
Ġd iv
i el
Ġprovid er
Ġl ead
etw een
Ġor iginal
h er
Ġin to
Ġinclud e
Ġm obile
al e
Ġf am
d om
ĠT el
Ġg en
Ġin t
Ġpr im
Ġp er
v i
Ġp re
er n
if ic
ment s
Ġeng ine
en g
Ġstart ed
Ġ200 7
s on
ĠCh ina
ĠI s
et y
ire ct
ĠC l
Ġh ave
st it
ap ital
Ġb etween
Ġcountr ies
ĠAustral ia
S E
Ġs ince
ĠF ounded
o u
he s
Ġv ar
Ġindustr y
por ts
Ġacqu ired
et ro
Ġb ut
Ġair craft
s ur
ĠKing dom
ar ly
olut ions
Ġ up
om ot
ĠAmeric a
er t
ĠF l
Ġmanufactur ing
Ġap pl
Ġcurrent ly
Ġpriv ately
Ġs ev
Ġ 6
Ġs ell
Ġ201 0
I n
ur es
Ġ19 5
erg y
Ġm erg
ĠS an
ur al
Ġpublish ing
am p
o ugh
Ġin ter
Ġf inancial
ec om
Ġs c
Ġ200 8
enc y
e h
ur ing
Ġsystem s
du ct
al es
Ġn ow
i um
Ġg lobal
igh ts
Ġ201 2
ĠA d
em b
p h
it s
ur g
Ġ200 6
a ur
Ġm edia
Ġa m
h ip
ĠP l
ak e
Ġ201 1
Ġ 7
Ġsm all
ĠG re
ip p
ur n
ig ital
Ġpublish er
t il
ĠS ervic
Ġh igh
Ġ200 9
ip ment
er ies
a un
o int
ing ton
Ġre l
y l
Ġf ound
ĠB ro
os e
tern et
t e
ĠSt ock
id ent
i ed
e op
y s
Ġh is
in k
Ġlist ed
um b
Ġ ev
Ġr est
e es
l ines
sur ance
n ers
r es
ĠIt al
ĠS ystem
iel d
Ġac ross
Ġ $
ard s
ĠEnter tainment
le y
Ġcre ated
ĠThe y
Ġelect ron
am ed
Ġ201 3
ur y
ĠF or
p t
Ġtel evision
r ap
ĠA t
ĠO r
ĠGerman y
Ġbu ild
Ġpro f
Ġequ ipment
Ġoffic e
ĠUn ivers
ĠM usic
ĠEx change
Ġst ate
Ġtrans port
eop le
Ġch arter
a x
m on
Ġa round
Ġdistribut ion
a f
Ġus ed
l ed
ines e
ĠA f
y n
Ġh old
Ġproduc es
Ġst ore
Ġ 8
Ġs old
ĠJ oh
Ġp ur
Ġn on
ĠJapan ese
Ġdevel oper
an ts
Ġop en
Ġweb s
Ġdiv ision
il ity
iz ed
ul l
Ġ ed
Ġ200 5
stit ut
Ġworld wide
form ation
is tr
un e
ĠC oun
in o
ĠM on
Ġproduc ed
ul ar
Ġb oth
ĠA m
Ġg overnment
ĠCanad ian
Ġinvest ment
1 9
Ġw hen
o ol
ĠW est
Ġcomp uter
r it
Ġsev eral
an ia
Ġs olutions
Ġfam ily
n er
is es
um ber
Ġr un
Ġc orporation
Ġhe ld
Ġman y
Ġ19 4
ubl ic
at form
Ġin c
stru ction
own ed
ren ch
ter s
c ed
g ram
ĠA ut
ot or
Ġun til
en e
ĠAf ric
Ġf ac
Ġs tr
Ġyear s
ĠT ex
Ġlead ing
Ġl aun
Ġb illion
Ġpro ject
ro w
tr act
Ġemploy ees
a u
Ġf ood
Ġ19 2
tis ts
Ġwh ol
Ġ200 0
Ġoff ers
ar ily
ĠW orld
ĠInd ian
c hed
ĠN ational
Ġe arly
Ġstud io
ĠR uss
Ġthe y
Ġ âĢ
ent ure
ay s
Ġbec ame
as es
Ġcom mun
Ġmarket s
us h
Ġoper ator
in c
u mer
s e
v en
r al
n e
t en
Ġres earch
ĠUS A
Ġc all
Ġn eed
Ġformer ly
ĠG e
ran ch
ĠAir lines
ĠEng land
ĠInd ustr
Ġth ree
Ġ Ð
Ġan n
Ġ200 4
L C
ĠW ar
Ġproduc er
ĠE lect
Ġprim arily
ĠJoh n
uc k
ĠB e
ĠP ar
am b
Ġ19 3
al th
Ġp ower
Ġpr es
ik e
in s
i ence
Ġloc al
Ġr ange
i ent
Ġd irect
Ġthrough out
rap h
o x
Ġc ol
n ect
ĠR es
Ġad d
ĠH old
Ġn ational
ĠTex as
Ġm od
Ġd igital
Ġorgan ization
5 0
Ġrest aur
c k
er m
Ġc orpor
Ġpl atform
Ġbe gan
Ġ1 00
mer ly
ĠE ast
ĠM edia
ic ation
ĠN ov
Ġrele ased
ĠAustral ian
ĠF rench
Ġn umber
oc ial
Ġspecializ es
i qu
ot t
f it
che s
c es
Ġm ed
Ġcustom ers
Ġm ov
Ġpro gram
Ġex p
Ġpro cess
Ġar t
and s
Ġl aw
Ġd r
os p
Ġar tists
Ġhe alth
ers on
ĠAs s
Ġp eople
Ġspecializ ing
Ġf und
i os
Ġwebs ite
Ġl ic
ess ional
th ers
il le
r id
ad io
Ġmanufactur es
is ter
Ġb rew
Ġab out
Ġap pro
l o
ĠPh il
eh ic
emb ers
on es
Ġm ak
ĠD ec
Ġaut om
y d
if e
Ġd ata
Ġac cess
Ġare a
ĠG u
ĠSt ud
Ġbro ad
ĠJ an
Ġindustr ial
i am
Ġsec ond
Ġoriginal ly
A S
Ġg as
Ġmarket ing
Ġ 9
Ġm in
Ġ199 9
ĠM id
Ġ200 1
land s
ev er
it ation
c ast
ĠB el
Ġsup pl
Ġb est
Ġown s
ail way
Ġon ly
Ġtel ecom
Ġh ome
orpor ated
s p
¤ ¾
Ġpro per
ĠIn ternet
Ġs eries
Ġd om
ĠB us
ib le
Ġo il
Å į
Ġl ater
Ġcon struction
u es
echnolog ies
ĠV ir
ep art
Ġp ass
on y
Ġre al
p ly
Ġf our
Ġlarg e
Ġp op
ic es
Ġcons ult
Ġcont ro
Ġs ect
Ġs ales
ic ro
ĠAn g
Ġbank ing
ĠM ay
Ġreg ional
iv es
ĠK ong
Ġengine ering
I t
ic o
ol v
for merly
Ġin formation
u x
or ies
Ġp ar
Ġag ency
Ġpur ch
e am
Ġ200 2
Ġprovid ing
red it
ĠQ u
Ġ -
Ġm embers
et t
Ġbook s
Ġs ocial
Ġm et
Ġprof essional
t ar
Ġloc ations
eg r
at h
Ġc ity
Ð ¾
ĠR ep
pr ise
ĠM al
ĠAs ia
Ġ200 3
Ġcall ed
ial ly
ĠServic es
e as
ĠG en
Ġlaun ched
ĠH ar
Ġt it
ĠD is
Ð °
Ġ X
ĠM ich
pro fit
m b
ow s
ĠH ong
Ġad v
ç ¤¾
Ġf eat
Ġv ehic
ob er
Ġlic ens
o ot
ĠP ol
ĠP ort
ĠD e
Ġm on
o ul
oun t
u ct
arg o
Ġdevelop ed
r as
ä ¼
Ġres p
Ġc apital
Ġs im
Ġn ear
n ey
id a
ĠUnivers ity
es tern
Ġcountr y
Ġo ld
Ġb ase
ĠE d
ĠAl l
ĠSystem s
Ġvar ious
ĠPro duct
Ġp ort
g l
k a
e el
Ġs ign
ĠS ch
ĠW ash
ag az
Ġneed ed
ĠJ u
Ġcorpor ate
ar s
il ities
w ard
ª å
b urg
Ġh ouse
g in
v ious
r is
Ġac c
Ġs che
ĠCh inese
ä¼ ļ
ĠWash ington
Ġbe ing
l et
Ġdevelop s
ag es
ar ies
ĠL e
Ġfilm s
ĠAfric a
æ ł
er ed
ĠA c
ä¼ļ ç¤¾
Ġen ergy
an a
Ġ199 7
Ġ199 8
Ġus e
Ġelect ric
epart ment
Ġpass eng
Ġv enture
Ġsh are
ood s
i ents
ĠN etwork
if ied
ĠCoun ty
ĠP ubl
Ġfl ights
ĠMan ag
et her
c itation
he m
ĠFl or
at t
¼ ı
Ġn amed
Ġenter tainment
ªå ¼ı
æł ªå¼ı
im ately
Ġhold ing
ag o
Ġbusiness es
Ġro ut
Ġin surance
Ġd el
Ġcon tract
æłªå¼ı ä¼ļç¤¾
Ġ1 2
ĠM ex
ĠO ct
iss ion
Ġwhol ly
Ġd o
Ġm ade
u ary
ĠB ar
le x
is ed
ĠM in
ir on
ĠT V
ish a
Ġpart ners
Ġ199 0
vi ation
Ġsell s
Ġ qu
ĠFran ce
el f
g a
c y
it ional
ver tis
Ġretail er
sh ire
ĠL LC
Ġsu c
is ts
ĠD r
Ġhe l
oci ation
ĠItal ian
t a
ĠGe or
Ġm ember
ĠJan uary
Ġsche du
ĠS u
ep h
ĠMar ch
Ġappro x
E O
f ord
ĠS oftware
Ġd ev
ir d
ĠP art
Ġsup port
ĠDec ember
Ġin f
ĠK ore
ĠVir gin
o ard
av el
Ġappl ications
ĠFlor ida
Ġcons umer
ĠSw ed
Ġb l
Ġed uc
ra z
ur b
ik i
h or
it es
v ille
in ational
Ġl ine
ĠF ilm
eal th
ur ity
Ġwith in
ep t
Ġcont ent
h am
m arket
a ul
is co
Ġam ong
Ġj oint
Ġmult inational
ĠOct ober
ĠRep ublic
ĠP enn
pr ess
in ery
ĠS oci
ĠA p
Ġelectron ic
ut ical
way s
Ġin it
Ġs ing
re g
ĠM ass
ĠIn ter
u ild
re et
ĠFran c
at ors
ĠV al
Ġbrand s
Ġap p
Ġapprox imately
r ain
l ess
ĠS ing
i j
ĠT or
Ġ199 6
Ġsuc cess
ĠE st
ĠD el
ent al
il t
Ġ1 0
an e
Ġt ime
Ġpr omot
c le
ĠPr ess
b um
Ġint egr
ĠW h
Ġass ets
e an
Ġ199 5
c on
Ġst ock
i et
Ġthe n
Ġ5 0
Ø §
an ish
iv er
Ġmain ly
Ġschedu led
ĠA pr
Ġ198 0
Ġin stitut
un g
Ġpubl ished
ĠM c
ĠJ une
vious ly
est ic
at s
c r
Ġad vertis
Ð ¸
ab ush
Ð ½
Ġm id
ĠR ob
ĠApr il
Ġs ite
ĠS k
oth ing
Ġgen er
u k
Ġa ud
ĠR eg
it t
Ġs ome
ĠC or
Ġal bum
ĠD av
Ġcont in
ĠC omp
Ġ19 1
oll ow
ĠH e
Ġopen ed
ĠAng el
ĠP er
ĠE l
ate g
Ġbuild ing
ĠJu ly
B C
l ing
v est
eal and
ĠHold ings
Ġpl c
ĠZ ealand
al s
Ġb ack
ĠCh ic
omot ive
ĠS e
Ġre fer
Ġ19 0
ater ial
arm ace
yl v
ĠA g
Ġh and
at ural
ĠR e
Ġex per
ex t
a por
Ġtrad ing
Ġf ranch
ĠE m
Ġth is
b y
armace utical
Ġh ot
Ġmerg er
Ġexp and
ĠK abush
ish ing
ĠA b
ĠA er
ĠI ll
Ġfocus ed
Ġresp ons
ĠC apital
Ġh ist
ĠG r
ab or
Ġr en
Ġsh op
ĠAn d
Ġmerg ed
Ġrel ated
Ġtelecom munications
ĠChic ago
Ġd uring
Ġus ing
y o
ĠS m
Ġ i
ual ly
ĠEurope an
ĠNov ember
Ġproduc ing
ylv ania
Ġto p
Ġest ate
Ġtransport ation
ĠFranc isco
C h
l in
ĠL os
ĠTrans port
ĠPenn s
ic a
Ġto ol
ec ut
Ġpasseng er
ĠS ept
Ġl e
ĠB rew
et ts
tar io
i or
Ġdistribut or
ĠPenns ylvania
d le
Ġd ec
Ġan al
C A
is c
Ġf ull
ip al
Ġ199 4
Ġc are
n g
Ë Ī
or th
ĠOn tario
Ġd if
oun ced
ical ly
Ġc argo
ach us
Ġfac ilities
Ġdom estic
ĠSept ember
it z
achus etts
Ġ end
og raph
ĠMass achusetts
a ff
Ġsh ort
Ġcl ients
Ġ '
ĠA G
os ed
re am
pr es
Ġtit les
Ġre m
t ies
Ġm agaz
Ġcl othing
ĠManag ement
Ġb ran
ers ey
l er
Ġprov ide
Ã ¼
Ġm il
Ġinclud es
a per
r ist
ĠA ug
iv ed
k er
on a
ĠT ok
Ġthe m
Ġan im
Ġcar ri
Ġserv es
ĠTrans it
raz il
ĠAngel es
D A
à ®
Ġl ate
ot a
Ġdis c
Ġenter prise
ĠC EO
Ġm aterial
Ġl ong
ĠB er
Ġold est
l ish
om er
Ġsu per
sh ip
ee k
C O
Ġa v
mon ly
apor e
f ore
is ing
ĠM ac
ino is
ĠA v
ĠKabush iki
re land
ĠEn ergy
ĠEng lish
ĠIll inois
ĠB razil
ce pt
ĠW ill
ant a
Ġ1 7
Ġdistribut ed
Ġreg ion
al t
Ġr adio
Ð µ
ĠI reland
Ġh ard
00 00
Ġvar i
Ġpop ular
am a
Ġre ven
Ġproper ty
m in
olv ed
ĠM er
ĠSt ate
Ġpar ent
ĠAug ust
Ġp erson
evel op
Ġdesign s
Ġrele ase
Ġemploy s
Ġt y
ĠG ames
Ġ3 0
Ġpurch ased
uct ure
Ġrout es
p le
act ive
Ġinc orporated
. [
o ud
v iron
ic on
ĠP et
Ġcomp et
ĠSing apore
Ġbran ches
Ñ Ģ
ĠT ur
ĠI T
à ¤
ig an
Ġact iv
Ã ¡
Ġus ers
Ġact ive
Ġ1 5
ĠO h
u el
Ġc an
ĠCh ar
Ġtr ain
ĠCol umb
Ġrestaur ant
Ġf ollow
ict ion
o e
ĠF ir
ent ly
Ġd own
Ġbrew ery
T A
ĠJ ersey
à ¸
Ġ199 3
Ġcom m
ook s
t al
ĠP ark
ĠR ed
Ġconsult ing
Ġs ch
Ġsh ar
o or
ĠThe ir
S A
w eg
Ġ1 3
Ġde f
is hes
Ġ1 1
il i
Ġ1 6
ĠR o
Ġch ang
Ġvari ety
d ay
Ġf act
âĢ ĵ
ĠCent ral
Ġproject s
ĠT echnology
Ġsubsidi aries
Ġadvertis ing
Ġm ach
Ġm otor
ĠM or
Ġcon nect
Ġindustr ies
Ġbu ilt
ĠStud ios
Ġn atural
ag ed
a im
h old
it or
Ġare as
k e
ĠMex ico
f ul
Ġs ports
ĠCom munications
oper ative
Ġwork s
Ġs et
Ġp ol
ĠUn ion
ĠAir ways
ĠTh is
Ġmed ical
Ġdevelop ing
y le
Ġ1 4
Ġg row
Ġ199 2
f ield
ĠF ort
Ġelectron ics
ĠTok yo
r ess
w an
ĠM il
ĠIn vest
Ġg ro
Ġwh ere
Ġal ong
v ers
ĠF eb
ĠO s
Ġpubl ishes
Ġs ol
so ur
w ood
Ġsec urity
Ġdif fer
o on
Ġl og
Ġrele ases
Ġcommun ity
weg ian
c ent
u ch
y a
ĠL at
ĠG overnment
ip s
ru ary
ĠOh io
on to
ĠS ince
ister ed
om in
iqu e
ĠT echnologies
Ġdesign ed
ras tr
ĠFeb ruary
Ġvehic les
ĠD evelop
ĠMich igan
uild ing
n ing
Ġre pres
Ġserv ing
Ġa ff
Ġs ur
ĠS un
ĠI m
ĠG l
gl omer
ian ce
iz e
our ces
r ad
ĠS ec
ĠM otor
im es
Ġst ates
Ġcon glomer
Ġprim ary
Ġf ree
os s
Ġd eal
Ġinter est
ĠL a
ther n
Ġ5 00
Ġnew s
ĠAss ociation
ĠM ed
ĠP aul
Ġcl ass
Ġt eam
us e
s ide
ĠTor onto
Ġrespons ible
o f
ĠSt reet
osp ital
b re
Ġb i
Ġoper ation
ĠAt l
Ġequ ity
ĠDav id
Ġdiffer ent
v e
ĠRuss ia
Ġhel p
rastr ucture
c are
ĠD es
ĠElect ric
ĠM ot
ĠH ealth
. )
ar a
Ġf ive
Ġth ird
Ġpl ay
d er
it ary
ut ch
ff ic
k i
ĠNor way
Ġpre viously
T V
ĠBel g
ĠColumb ia
Ġl it
al so
Ġf ield
ĠP ower
Ġr ank
Ġcontro l
ough t
ĠBro ad
hem ical
ĠM icro
Ġg u
ag ing
ĠIndustr ies
Ã ³
ect ion
ĠProduct ions
ĠS a
ĠD en
viron ment
Ġ ut
ĠM arket
ĠCh rist
Ġoff ering
ict ures
ĠPart ners
Ġav ail
Ġc redit
as ter
ĠP re
ang u
ire less
ĠItal y
ĠH ol
er ry
Ġ2 5
Ġ18 9
az z
Ġaccess ories
er b
ap e
ĠCar ol
Ã Ń
enc es
in ed
om b
Ġpublic ly
re at
Ġl ike
ĠG lobal
ĠW estern
ber g
ĠServic e
ĠKore a
I C
M A
S t
ĠH ead
pr int
Ġ197 0
is ation
Ġf re
ĠH o
ac ific
Ġdev ices
ĠSoci ety
ĠB ang
ork s
Ġro ck
Ġtrad ed
w ear
ĠG old
Ġ199 1
Ġbank s
ild ren
Ġrefer red
Ġexpand ed
ĠFir st
it ions
ĠM el
Ġd epartment
ĠR ich
Ġr ailway
ĠNor wegian
Ġsch ool
is m
Ġh ost
as tern
Ġw ide
Ġinclud ed
ipp ing
Ġc ities
Ġbe fore
ĠBl ack
hor ity
at ch
Ġl ow
Ġl eg
ad o
iv ely
Ġoper ate
Ġgen eral
mb H
u ed
ig g
Ġown er
Ġcom monly
ecut ive
ĠTur k
Ġavail able
r up
Ġw ater
ĠS A
ĠM etro
Ġc ap
ĠM inn
Ġto tal
Ġtr avel
ĠAr ab
ann el
ĠPar is
ĠP C
ĠF inancial
Ġcom munications
ĠRuss ian
cast ing
Ġintegr ated
Ġaud io
Ġtool s
ĠDevelop ment
b or
z a
Ġv is
Ġfound er
k s
Ġp ay
ad es
ether lands
ot s
ĠVirgin ia
Ġconglomer ate
w ards
Ġo thers
om et
ĠG mbH
Ġown ers
Ġperson al
o o
Ġ [
ĠF in
Ġ198 9
Ġfirm s
ĠWill iam
iv id
Ġpr int
for man
h ouse
er land
Ġt erm
ie f
Ġfocus es
Ġmin ing
c el
Ġfl ag
Ġacqu is
ĠPhil ipp
æ ľ
Ġc oll
Ġaut omotive
ĠMon t
n ow
at al
ĠI r
Ġbec ome
Ġsect or
y t
Ù Ħ
on om
ĠN etherlands
Ġreg istered
m ark
Ġre f
ian s
ist an
our ce
ĠBus iness
Ġsing le
u ent
ur ed
Ġorgan iz
ĠPubl ishing
ĠGeor g
h ol
ĠO reg
Ġcom b
Ġsup ply
ĠOreg on
un k
Ġann ounced
Ġchang ed
m e
ĠR ailway
Ġpart ic
ĠEng ine
Ġrestaur ants
ĠS tr
ill s
Ġpart s
Ġfollow ing
ĠCarol ina
b our
s ter
ĠSt ar
t le
Ġmanufactur ed
Ġtrad e
Ġcar s
ĠCent er
t he
ãĥ ¼
in em
Ġst ations
Ġmanufactur ers
Ġspecializ ed
Ġb ought
Ġf le
ĠL ou
Ġind ivid
Ġlabel s
Ġinf rastructure
e a
al ly
Ġpl ant
ash ion
2 0
e k
k rain
m ed
Ñ ģ
ĠA viation
ĠIn surance
Ġst eel
Ġmanag ed
ix ed
ĠH ouse
av ing
ra el
min istr
Ġp ost
ĠS he
ĠR oy
Ġprovid ed
Ġex ist
ĠSu per
p ing
ĠP ictures
est in
ĠOn e
eph one
m ing
å ħ
ic y
ak ing
inn ing
Ġmod el
Ġp at
ad a
Ġre ce
Ġreg ul
Ġph armaceutical
ĠTel ecom
Ġpartners hip
forman ce
Ġis s
Ġmult i
Ñ Ĥ
å ı
Ġl ight
Ġinv olved
Ġph ot
ĠSc ot
Ġmak ing
ĠMal ays
m ission
Ã ¸
ed eral
Ġp ack
ĠSp ain
ĠIs rael
ĠRes earch
Ġdel iv
Ġhist ory
ĠâĢ ĵ
Ġindivid ual
t ed
ĠM et
ĠM ad
ĠD o
Ġbus es
ĠVal ley
m s
Ġin st
ar i
ĠS il
Ġpro t
ĠH ot
ĠGen eral
ga isha
Ġs ix
ĠInd ex
ĠEx press
iginal ly
S C
n a
Ð º
Ġc over
Ġd ivers
quarter ed
as ing
Ġ2 4
ĠIn stitut
Ġop t
Ġsuppl ier
Ġalbum s
Ġin ternet
al f
it ect
âĢ Ŀ
Ġ198 6
Ġar ch
Ġeduc ation
ion e
Ġtrad itional
ĠAd v
ĠCor p
Ġl imited
ĠF ound
Ġcol lect
Ġadd ition
rid ge
n ov
at ure
ĠS am
ĠG o
so ft
Ġex pl
cr ib
Ġsuper market
Ġ ec
ĠC ons
Ġv al
Ġmagaz ine
Ġmil itary
ĠIn t
Ġmanufact ure
a id
b and
Ġs earch
it an
Ġb and
le ar
od e
v el
Ġf ast
Ġch ildren
ens e
Ġstr ateg
ĠMid dle
y r
ad em
Ġcomp on
ĠIs land
Ġlicens ed
Ġelectric ity
Ġ Â
er a
Ġt urn
om en
ĠR om
Ġn o
og n
oun g
Ch inese
e et
h i
ĠT ai
un ct
ĠP al
ĠP acific
Ġprodu ce
ĠElect ron
itz erland
ĠS im
Ġch ar
pr ises
Ġen vironment
B S
er r
ĠCon nect
Ġin stru
al ity
Ġr ail
ĠSouth ern
Ġbu y
olut ion
Ð¾ Ð
or es
Ġa im
Ġst aff
ost on
ĠGre en
Ġaff ili
1 8
w est
Ġs outh
ord er
ak er
Ġsell ing
Ġs ame
Ġe ach
Ġappl ication
A r
f ol
y m
Ã ¶
Ġto ur
our n
at ell
ĠI I
ĠR ock
ig er
ult ural
ĠSw itzerland
Ġreven ue
Ġrepres ent
ĠLou is
A N
ĠD utch
Ġst and
Ġwh ile
Ġ18 8
Ġcarri er
Ġprocess ing
S P
Ġ et
Ġ198 7
Ġ4 0
ĠP ak
ĠD i
av y
Ġcl oud
T S
is ions
Ġs em
Ġf ashion
ĠC he
ĠSw iss
ident ial
A C
Ġat t
enc ies
ĠSwed en
ĠS l
Ġcol le
Ġmet al
ĠGeorg ia
p ol
r ing
Ġt echn
Ġm icro
olog y
ĠâĢ ľ
ĠTai wan
a el
Ġb ands
ĠM art
Ġst ill
ĠAir craft
Ġcre ate
Ġwork ing
Ġren amed
Ġt est
Ġt echnologies
am ing
ĠFran k
ĠCon t
ĠB oston
ĠF T
Ġv ia
Ġex t
Ġautom obile
rup t
c i
ic ated
ĠL ib
Ġ2 1
Ġrecord s
Ġcl osed
Ġactiv ities
Ġth ere
ĠW ind
hes ter
E C
ir t
ĠSp anish
ĠS ony
Ġd em
Ġd estin
ac ing
Ġpr ess
Ġus es
oul d
iv al
iv il
um an
ĠV er
Ġbe h
Ġcent ers
i ew
en a
Ġb ranch
ĠW ith
Ġsh ip
ãĥ ³
Ġnetwork s
ann ing
åħ ¬
2 00
at ic
ĠA S
ĠD ub
Ġg oods
ĠPr es
Ġmov ed
Ġrem ain
t own
Ġc as
Ġw ent
ĠC D
ĠC r
il es
ĠB ay
th ough
ac es
Ġ /
Ġa ward
ro p
ĠT w
ĠD irect
Ġann ual
Ġfranch ise
Ġw rit
Ġl ines
ĠM obile
Ġcomp let
ĠSc ott
angu age
I P
Ġf oot
mer ce
op h
Ġ198 8
ĠAut hority
M I
Ġm ot
ĠUnivers al
ĠSwed ish
t ing
ĠP ost
Ġto wn
Ġdistribut es
ĠTh om
Ġass oci
Ġmult ip
Ġorganiz ations
ĠB ooks
Ġh ous
oc u
ord ing
s k
ar l
ĠB ell
Ġ201 4
Ġex change
Ġnew sp
Ġ196 0
umb ai
ĠRob ert
Ġa er
al d
iv ing
ult ure
Ġart ist
Ġanim ation
T C
is on
ervic e
Ġpr inc
cl us
pr ene
Ġmain tain
Ġmotor cy
Ġfle et
prene ur
es p
re en
re preneur
ĠA ct
ĠM os
ĠW eb
cl es
Ġ198 4
Ġstud ents
air man
Ġacquis ition
Ġc able
Ġl ife
ĠM umbai
ĠR adio
Ġre p
ĠO p
Ġsuppl ies
ĠFilm s
Ġmaterial s
åı ¸
åħ¬ åı¸
ic an
re l
ĠV ict
Ġsh ipping
abl es
igg est
ĠPhilipp ines
ĠPak istan
ro du
ĠC redit
ĠN o
Ġwh ose
ĠEst ablished
r ical
é Ļ
Ġw ireless
ĠU krain
Ġhard ware
ĠMalays ia
Ġcon stit
ĠInd ones
Ġsuccess ful
t ime
as k
ĠC y
ĠM ag
Ġan y
ist ics
Ġ198 5
Ġcons um
Ġcontro ll
ĠLat in
ĠInstitut e
N A
O S
u z
Ġof ten
ĠC ro
ĠS olutions
eb ec
Ġtr uck
Ġpart ner
Ġim print
Ġab bre
ĠCol or
osp ace
o ice
ä ¸
Ġm ar
ĠB ased
ĠP ublic
anc ed
Ġ198 3
ten ance
b us
Ġc hemical
Ġl o
Ġpr act
ff ee
Ġcustom er
vi ated
istr y
Ġs ee
ĠS al
ĠB ur
od y
Ġev ent
ĠRoy al
Ġb iggest
ĠI P
ons in
isc onsin
h ai
an o
ĠC A
ree k
ĠTel evision
Ġhealth care
ĠHead quartered
Ġconstit uent
s c
and a
re ad
Ġd ep
ĠW isconsin
Ġspecial ty
Ġbank rupt
Ġfact ory
e in
al k
ĠA fter
un ic
Ġh ospital
Ġinit ially
L P
e ak
Ġc e
ĠM ain
Ġr ed
uf f
Ġ3 1
Ġsc ience
g y
Ġd ed
Ġits elf
ak a
end ed
Ġrecord ing
Ġres idential
ri end
ĠD on
Ġor ig
Ġim port
Ġty p
i ev
Ġh ub
ĠD an
ĠD igital
ap p
Ã ¤
in ing
ĠS ol
ĠJ ames
Ġsim ply
icon duct
Ġo b
ab ility
Ġst ation
Ġcon f
Ġmajor ity
Ġsect ors
Ġtrain ing
Ġcompon ents
m y
Ġw ine
ĠM ary
Ġoff er
ron t
Ġstor age
Ġvehic le
. .
e f
tr a
ac y
ĠFT SE
n y
ĠA B
Ġun ivers
Ġeng aged
DA Q
g ent
Ġw inery
ĠF re
Ġ18 7
Ġnot able
Ġprogram s
atell ite
e ign
Ð ²
in y
Ġm er
ĠB ig
ĠU t
all s
Ġprovid ers
Ġmost ly
vi ew
bour ne
Ġdestin ations
M S
T E
Ġ Ã
or ts
ro ad
ĠS yd
ĠW il
oun tain
Ġrec ogn
ĠAl ber
etro le
ĠQu ebec
i ers
Ġc atal
ĠS eat
Ġh aving
qu are
Ġcom ic
Ġ6 0
Ġev ents
AS DAQ
Ġshar es
etrole um
ar n
Ġs ound
Ġd er
ol f
ĠD epartment
ep ar
Ġ198 2
Ġeng ines
Ġcent er
Ġfac ility
Ġs ites
ĠPl ay
ux ury
Ġce ased
Ġded icated
es ota
it ors
Ġf ire
Ġw ill
Ġp ione
ro l
ĠM o
ĠB anc
Ġg o
tern ative
anc y
Ġj azz
Ġent repreneur
Ġnetwork ing
Ġproper ties
ĠGeor ge
unic ipal
1 0
R O
at o
Ġ2 3
Ġrank ed
ĠMinn esota
Ø ±
Ġb o
ĠB en
ĠNew s
Ġcl aim
ĠEngine ering
Ġw omen
Ġd eb
Ġg l
Ġspecial ising
ator y
ĠPort ug
ĠAc c
I T
m en
t t
Ġs epar
Ġf iction
ĠT om
ĠH er
Ġex clus
Ġar m
ĠBl ue
Ġqu ality
ĠVict or
ĠSyd ney
s s
ĠS ur
Ġd ocu
ĠP at
ĠL ine
Ġn ames
ĠK en
ack s
Ġmain tenance
ans as
Ġint rodu
Ġpres ent
Ġgener ation
I S
M E
i ences
ĠL aw
qu e
od ay
ĠHold ing
Ġec onom
ĠSeat tle
g es
m a
v ent
or ation
Ġp aper
Ġ195 0
Ġplatform s
ĠInter active
ĠMicro soft
6 0
Ù Ĭ
ĠM is
Ġ2 50
ĠO ff
os h
our s
Ġag encies
ĠDes ign
ĠDub ai
k nown
ad el
em s
ĠW ales
ĠO per
arg et
ak es
ĠTr ust
ĠAfric an
Ġcoll abor
Ġcatal og
Ġs ale
ĠD istr
ĠNor thern
Ġph one
Ġfam ous
ĠAut om
Ġfund s
b rand
s ervice
Ġc ell
Ġc ore
id es
du c
ĠSt ev
ov e
Ġpl ants
Ġcl ub
Ġ198 1
ĠAr t
Ġtrans it
Ġinvest ments
Ġorgan isation
ĠChar les
Ġarch itect
Ġmer ch
ĠS anta
ĠL ife
ĠR iver
im a
Ġloc ation
Ġj ust
ĠQ ue
ĠIndian a
Ġdirect or
ī éĻ
ĠB uilding
Ġto day
ĠN e
Ġbe er
Ġsp ec
Ġper formance
Ġeduc ational
a isha
Ġd ist
ol a
ol id
ĠIn f
ul ation
ant ic
ĠAr iz
b all
p s
ĠC ompanies
ĠMot ors
æľ īéĻ
æľīéĻ Ĳ
Ġf in
ĠT enn
ĠM ark
ĠB o
Ġ2 2
ain t
ĠPro v
oth er
Ġwork ed
ĠDis ney
ĠMich ael
Ġshare hold
ĠOs lo
Ġflag ship
ĠAriz ona
c c
w e
Ġs l
Ġh om
ĠF oods
Ġ197 8
Ġpres ident
ĠSk y
a us
à ¦
Ġthe se
Ġb as
Ġl uxury
Ġr ights
Ġall ows
Ġcent ury
Ġprinc ipal
w h
Ġs k
Ġf arm
ĠJ ack
Ġoper ators
arg est
a ut
Ġin nov
Ġcon tain
if t
pl ay
Ġ197 9
Ġev ery
ĠFort une
iconduct or
P S
m et
Ġf ul
Ġw ould
re a
Ġm ake
Ġl and
ĠW ater
Ġdesign er
Ġt ext
ic op
Ġf urn
ĠB ir
ĠE r
ĠOr iginally
ĠProduct s
O n
it ure
am il
ĠR el
Ġn ation
ĠH ome
Ġim pro
ĠMel bourne
pol itan
ĠColor ado
re al
ĠL ake
ud i
ust on
Ġcons ists
ific ation
Ġport fol
Ġhot el
ĠInvest ment
b ank
er ation
ĠS ports
Ġleg al
A R
Ġ el
Ġc amp
Ġs oci
ĠP an
ĠH ill
ess ee
Ġpr on
Ġdeliv ery
k t
o ff
Ġm en
et ter
ut ing
du l
Ġv irt
Ġtel ephone
burg h
ministr ation
P C
g en
Ġc ert
Ġw eek
ĠA lex
ig ation
ĠH ow
ĠK ent
ail y
âĢ İ
Ġspecial ises
eat h
Ġut ility
ĠDistr ict
oc ol
Ġv ol
ĠV anc
Ġsp ace
Ġrecord ings
Ġag ric
ĠMan ufact
Ġgro wn
ĠTenn essee
E S
M C
at ives
ic ut
ĠS pr
ur ities
Ġ2 6
Ġfor eign
ĠIn formation
ĠK h
ell ig
Ġ196 9
Ġcent ral
ou ver
ĠIndustr ial
Ġmak es
ĠNetwork s
ĠThom as
s ch
Ġ order
ĠB y
Ġn ov
ĠAr gent
ĠCom mun
Ġhot els
ĠRo ad
F ounded
É Ļ
ĠC ap
ĠC amb
Ġl ive
ĠF air
ĠH el
ag en
ĠJ e
Ġcon c
if f
ill ing
port ing
Ġsh ow
ust in
Ġpre m
Ġ8 0
Ġconsum ers
ĠVanc ouver
A s
Ġpr ed
Ġmanag es
Ġmon th
ĠSm ith
ĠFound ation
ĠConnect icut
l argest
on t
Ġd ay
ĠH igh
du ction
ĠW al
ff ect
Ġsign ed
ĠHo uston
ĠRich ard
Ġ Ø§
is k
Ġb el
Ġ2 8
ĠN ord
Ġass et
ph ia
Ġcommun ities
D S
Ä «
ur t
Ġto ok
ap ers
Ġres ult
ĠDis tribut
ĠPres ident
æľīéĻĲ åħ¬åı¸
ent ures
Ġl ast
ĠR eal
Ġun it
Ġfocus ing
ys is
ĠKore an
ĠBrew ing
iny in
y ard
Ġs w
ĠB oy
ĠG ame
iz za
Ġoff ered
ement s
Ġbro thers
ĠPhil adel
ĠBrew ery
Ġvis ual
Ġportfol io
Ð »
Ġc ard
ir c
ip t
ang hai
Ġsub urb
ĠTh ere
Ġdiv isions
lo ad
Ġgrow th
Ġlit er
ĠPhiladel phia
e qu
Ġto g
ĠL ong
end o
eg o
Ġ197 2
ann els
ĠCl ub
i us
he ad
it a
ĠF ood
Ġv ers
Ġrun s
Ġtog ether
c il
e i
v ey
it ch
om a
ĠL LP
Ġj o
ĠCom ics
Ġfeat ure
ĠBrazil ian
ĠScot land
ĠMis sour
Ġful ly
b ed
Ġf ixed
ĠI ran
Ġg raph
Ġwhol es
ades h
ĠMissour i
H K
Y SE
Ġ .
on n
he l
at ter
Ġc r
ĠM ah
ĠB ill
ol is
ĠF ox
ĠJ im
Ġ18 6
ĠPet er
ĠIndones ia
in i
Ġb ever
ĠL and
ĠG h
ĠH en
Ġpublish ers
ĠWar ner
ĠBroad casting
Ġindividual s
Ġabbre viated
I A
R uss
Ã ł
ĠM ill
ĠP eople
ĠR ail
Ġ2 7
Ġn e
Ġg round
Ġv ide
Ġoffic ial
ĠSh anghai
Ġshop ping
Ġdocu ment
Ġt reat
ar ian
Ġs o
ĠT op
ĠE qu
ĠO il
aw a
Ġinvest ors
Ġph ys
Ġcas ual
m ond
Ã ¨
al a
Ġc op
ĠT own
id er
ĠSt eel
ĠInc orporated
Ġdr ug
Ġprofessional s
ĠReg ional
ĠTurk ey
Ġvirt ual
n ess
Ġf il
ĠF und
im b
Ġex ecutive
ĠGre at
I N
à ¯
é Ľ
ĠCh annel
Ġbrand ed
Ġem erg
Ġro ll
Ġinit ial
ĠBer lin
Ġinst all
ĠUkrain e
1 2
c ing
u j
at her
Ġs atellite
ĠC op
ĠR et
ĠF ederal
ia g
ot e
Ġall ow
Ġcomputer s
d en
Ù Ĩ
Ġm ass
ĠA T
ol k
Ġal ternative
av ings
inem a
ourn al
Ġmultip le
Ġbankrupt cy
B M
ro ll
Ġm etro
ĠH y
ul arly
ric k
ãĤ ¹
ĠMont real
ci ation
he ast
Ġb icy
ĠM y
ĠE gy
Ġ197 4
Ġhold s
Ã³ n
S p
n et
Ġt arget
Ġc ost
ĠS E
Ġl anguage
Ġrele asing
Ġ7 0
Ġrel ations
yd ro
Ġassoci ated
R A
V D
b oard
n am
z ech
Ġp inyin
ĠB est
et er
id ed
Ġh uman
ĠN ev
ib b
ib r
ak en
ĠRecord ings
Ġun its
Ġ197 7
Ġserv ed
Ġlaun ch
ĠIndustr y
Ġgro c
Ä ģ
Ġs elect
ĠC le
Ġl ed
ĠO ut
Ġgroup s
Ġmach ines
ĠEgy pt
S M
d a
f ounded
l ets
Ġo vers
Ġre pl
st an
ĠO l
Ġbe g
Ġ3 5
over y
Ġcre ating
urrent ly
Ġass ociation
ĠStud io
Ġdivers ified
ĠMary land
i od
Ġs af
Ġan t
Ġit ems
Ġinstitut ions
Ġsoci ety
] )
Ġ â
Ġl iqu
ur a
ĠR h
Ġg aming
Ġr a
op e
Ġe ight
eg a
Ġproduc ers
ĠIs lands
Ġsev en
ient ific
ij ing
c ow
g er
Ġc ivil
as y
Ġf ew
il ar
am ic
ĠL o
ian a
Ġch annels
Ġac adem
Ġmarket ed
ĠBro thers
Ġacc ount
ograph y
ĠAtl anta
Ġcap ac
yt ics
Russ ian
c ar
u er
Å «
Ë Ĳ
ĠC as
ĠT oday
ĠF inn
iv ision
ĠN int
ĠE astern
ĠV ol
Ġinterest s
Ġgu it
Ġm e
um in
Ġpl anning
ĠBro ok
Ġmed ium
Ġlog istics
Ġfre ight
Ġorig in
f l
m ost
Ġc ards
ar es
Ġb re
ĠC hen
Ġm eas
un ciation
Ġl if
ĠM ax
ur ch
ĠG as
ell er
Ġk ey
Ġpl ans
Ġj ew
Ġ197 6
Ġelect rical
19 9
ĠAss oci
ĠPort land
ĠTransport ation
Ġexpl oration
er rit
Ġa viation
Ġs elf
ĠC zech
ĠI d
et te
ol e
ail and
ĠCo ast
Ġretail ers
ĠBe ijing
ĠMos cow
ĠUt ah
ĠVictor ia
Ġb oard
re y
ĠC re
Ġm ission
ĠB oard
ĠR og
Ġ2 9
Ġmanag ing
Ġro ad
ĠTr avel
Ġwebs ites
Ġpron unciation
e ap
ĠC am
ĠA rea
ĠB as
ĠD all
ĠK ansas
ĠTh ailand
Ġinternational ly
ĠCar l
ĠCent ury
Ġinter active
Ġfound ing
ĠOr gan
Ġpur p
Ġhist or
ĠFin land
ĠNint endo
b ury
i y
an z
Ġt en
Ġn orth
Ġe ffect
ĠAr ch
Ġ3 00
Ġco al
Ġout side
Ġ196 8
ific ant
Ġadd itional
Ġnear ly
ĠIr ish
3 0
b an
Ġcons ist
Ġro le
ann ed
Ġinc re
Ġfeat ures
d e
ĠT a
ĠM anc
ĠG ro
ĠG rand
ĠR os
ĠD ata
ĠH aw
ĠK n
end ing
Ġco ffee
stru ct
Ġcommun ication
Ġconsult ancy
Ġadv is
8 0
f ound
i h
Ġs yn
ĠS up
ĠM r
iv en
ĠW orks
ran t
Ġ197 3
hen s
Ġanal ysis
ĠChrist ian
Ġowners hip
Ġtechn ical
ĠManc hester
Ġw on
Ġp os
us ical
ĠB h
am s
ut s
ec e
um e
Ġtr ack
ĠEnter prise
ink s
Ġsign ificant
ĠComp uter
ĠÂ £
ĠAlber ta
ĠØ§ ÙĦ
c a
t ic
z en
Ġs on
ĠT im
et h
Ġco operative
Ġout lets
Ġlead er
Ġfeat ured
ĠPol and
ograph ic
ĠBelg ium
ĠBang l
Ġhost ing
Ġintrodu ced
N C
R C
i as
l oy
p re
r ia
ĠS ub
ĠM a
ĠF ly
ĠD J
ĠW ell
Ġrec ently
Ġdis tr
Ġdevelop ers
ĠCom m
Ġinstitut ion
ãĥ¼ ãĥ
Ġinstru ments
ĠDi ego
Ġsepar ate
Ġfurn iture
F C
T h
w ick
at i
Ġc he
Ġd et
id s
Ġhe avy
Ġal though
port ed
Ġco ach
res h
Ġbroad cast
Ġbroad band
urb an
cept ion
ĠDen mark
Ġcontroll ed
Ġfin ance
ĠDall as
A E
p ar
y mb
Ġb ar
ĠM its
ut ual
id ge
ĠL in
ĠL ines
ĠE v
im edia
ĠW e
ag ue
che n
enc ed
Ġ193 0
Ġapp ar
Ġsol ar
Ġvide os
R E
g ress
Ġ Ø
Ġs it
om ing
Ġw ord
ĠT y
un s
Ġy oung
Ġstud ios
uck y
ĠBe ach
Ġpres ence
ĠEm ir
Ã¼ r
ĠManufact uring
Ù Ī
ĠA ustin
ĠM ountain
ĠR ev
ian ces
Ġcons id
Ġ197 1
Ġ197 5
ĠCoun cil
Ġart ic
ĠDe f
Ġmagaz ines
ĠMart in
b ook
m ar
o en
r ay
ĠF rom
ĠD h
ĠD anish
ag on
act ion
ear ning
Ġk m
ecial ly
Ġbro ker
Åį ng
Ġi P
Ġdef unct
ĠElectron ics
E n
in ter
ar ia
Ġb r
Ġm unicipal
Ġd ue
Ġn umer
em ark
ĠAr ts
ĠPr iv
Ġmod ern
ĠMin istry
cr ipt
ĠWind ows
1 1
b o
k y
w er
Ġ z
ĠS on
ĠL og
ĠG ood
oc ated
Ġmotorcy cle
Ġcapac ity
5 00
b uilding
Ġf inanc
Ġf uel
ĠI ron
ĠM od
ĠK e
Ġr acing
ĠO k
ap s
ĠSc ience
Ġcolle ction
ĠDistribut ion
w a
Ġ ident
or m
ent ed
ĠM iss
ĠM ike
ĠF am
op s
um p
ĠV iet
ob iles
ech an
sh ore
air y
ĠCol le
Ġint ellig
ĠBro wn
ĠBelg ian
hol m
Ġaer ospace
rel ated
I M
Ĥ ¬
Ġt ax
Ġs eg
ĠT oy
ut e
âĢ Ķ
Ġcomp uting
Ġtrans l
Ġag re
ĠEnter prises
ĠCent re
Ġsim ilar
Ġenvironment al
esp ecially
Ġagric ultural
Ġnumer ous
i at
o es
Ġh er
ĠD VD
ib er
Ġent ire
Ġserv e
Ġper iod
Ġ192 0
Ġpromot e
Ġreven ues
Ġpol it
Ġrece ived
Ġsem iconductor
ĠSl ov
âĢİ )
o ch
u a
in ts
Ġf riend
ing er
Ġm ail
ĠA Ã©
ill age
Ġres ources
eat her
ĠWorld wide
Ġchar act
ĠOp en
M G
d oor
f ace
an i
Ġthe at
ĠS ev
Ġd at
ĠB u
Ġ1 000
iv a
ĠN av
ĠJ os
ĠSt an
Ġen c
Ġoffic ially
Ġfound ers
Ġmak er
Ġexper ience
ĠNev ada
S O
f ect
z e
Ġd aily
ĠB re
ĠThe se
ĠN iger
ub e
ĠV ideo
ak h
ard en
oun ts
Ġun ion
Ġmusic ians
Ġper form
Ġrun ning
amb urg
Ġbroad casting
Ġhel icop
omet imes
Ġclaim s
Ġacadem ic
S h
d am
Ã £
in ation
he im
and er
as on
ad ing
ĠL ab
ĠF act
ĠH al
ĠU r
Ġest abl
Ġtrans fer
arm s
Ġmod els
Ġgrow ing
brand ed
I ts
l a
v es
Ġp ark
Ġh ip
ĠF red
st on
em por
Ġth ose
ĠSt and
Ġcl os
ĠAs ian
Ġun ique
ĠCol omb
mon t
Ġmon itor
ĠMex ican
Ġpromot ion
con t
Ġty pe
E M
U S
y e
Ġs ong
ĠC it
ĠS ound
ec o
ĠK ar
Ġcon cept
Ġ18 5
Ġjo ined
Ġ å
Ġt aken
on ia
ĠM agaz
ĠP e
ĠG ar
ĠD C
Ġpr omin
man n
ast ic
Ġcomp lex
uc lear
Ġ4 00
Ġpurch ase
Ġconsid ered
c ore
i ro
Ġ especially
or ed
Ġc le
Ġl ibr
ĠL ee
ĠE duc
Ġg old
ot o
ĠW ork
Ġst at
ul a
ian t
ran ge
pl ace
% )
b on
or a
ĠM at
ĠF ar
Ġg rad
ow a
Ġpl ace
ĠPro duction
Ġaut hor
Ġact s
ĠRes ources
ĠWh ite
Ġdisc ount
Ġgroc ery
Ã£ o
u ated
w ell
á Ģ
ĠF ord
ug e
Ġsubs crib
ĠSch ool
ĠHot els
A T
Ġf r
ĠS and
ĠB ob
ab ly
ot echnology
erv e
ist ol
Ġsh ows
Ġus er
ru it
ĠAustr ia
Ġfl ight
Ġappl iances
ĠGre ater
Ġmid dle
ĠSe a
Ġval ue
Ġtyp es
ĠFinn ish
à °
Ġt ake
ĠH ung
Ġg r
Ġch airman
ov ers
Ġstart up
Ġenter prises
Ġfield s
Ġpartic ularly
ĠEmir ates
l an
or p
Ġin sp
Ġp unk
ĠT ru
ĠA ven
ir l
ĠG reek
Ġre qu
ot ed
ot ter
ĠSt ores
ĠO x
Ġar ts
ĠAn n
ĠPro per
ĠPro ject
Ġtrad emark
Ġass emb
ĠCom mercial
Ġgen res
Ġprogram ming
Ġgl ass
E T
I D
Ã §
en h
ar th
Ġb ody
ĠM un
est yle
ab ad
ec k
ĠU p
Ġcon ver
ish i
ĠSh op
ĠCl ass
ĠStock holm
Ġfour th
Ġadv anced
ĠAg ency
Ġlog o
Ġimport ant
empor ary
b it
g et
l ay
Ù ħ
Ġs il
Ġpro p
ĠL as
st r
Ġr ental
ĠO ak
Ġtr ust
Ġmanag er
Ġcre ative
ĠSp ace
ĠPol ish
ĠScott ish
Ġtreat ment
Ġappar el
C om
E R
Ġw ind
Ġp o
ĠC amp
ĠS erb
il a
Ġon ce
ĠCh ris
ens ive
Ġ196 2
Ġmaintain s
P I
y an
he el
Ġp ast
ĠS yn
ĠB an
ĠN et
Ġst ake
ĠO m
ac ed
ãĤ ¤
Ġcharter ed
Ġrout e
Ġprint ing
ĠQue ens
ĠCamb ridge
Ġpurp ose
A M
a S
b le
b ul
l as
ĠA k
ĠM ost
ĠB ul
ly wood
ay a
ok e
Ġcomp os
Ġus ually
ort g
Ġmanag e
ĠAn t
ĠOn line
Ġglobal ly
cent r
Ġtest ing
ymb ol
P G
Ġf erry
ĠS n
ĠB ah
ĠP uer
Ġh op
ĠE le
Ġg e
Ġchain s
ĠEx ecutive
Ġ194 6
Ġ9 0
itt le
Ġcontin ued
Ġle ft
ĠChar l
ĠSa udi
ĠDo ug
Ġnewsp apers
ĠCro at
ĠKent ucky
Ġsaf ety
ĠPuer to
E D
Ġc ateg
Ġs ister
Ġs ource
ĠS um
ĠS ons
ĠA ud
ĠM ach
ĠB ern
Ġh y
ĠH un
Ġr ap
Ġr ang
av a
Ġfund ing
ĠAll iance
Ġinf l
Ġanal ytics
ĠAtl antic
Ġtruck s
ĠHen ry
ibb ean
U n
Ġm usical
ĠB erg
ĠH a
Ġan other
Ġv ess
Ġcom ics
ĠAl ab
Ġindependent ly
Ġmov ie
O N
b ox
w orth
Ġt ick
Ġc ru
it ive
ĠC ast
Ġm at
ĠA z
Ġn or
ĠD ay
ĠK az
ud e
Ġal most
ug ar
Ġair lines
ĠY oung
ens ion
Ġdes crib
Ġdistribut ors
ĠCar ibbean
Ġ194 8
Ġtit le
Ġstrateg y
Ġnewsp aper
Ġme ans
ĠAven ue
1 3
N YSE
Ġw id
Ġw estern
st ein
ĠD em
ĠD own
Ġg rew
ĠW ood
ĠO ver
Ġind ie
av ia
pr iet
Ġag ain
ĠSp ecial
Ġass ist
Ġautom ation
ĠDel hi
ple ment
Ġne igh
Ġmetro politan
ĠAlab ama
4 0
B A
n d
w estern
Ð Ĳ
Ġc ame
ĠC urrently
ĠM iam
ĠM att
ĠG al
Ġcon centr
mun ication
ĠAn im
Ã© t
etro it
Ġstr uct
iam ond
ĠMer c
Ġterm s
ä¸ Ń
ĠPortug al
Ġexclus ively
ĠArgent ina
A l
a use
l or
å Ľ
Ġ Î
Ġt ra
Ġa dul
Ġw are
Ġp etroleum
re as
Ġl abor
ĠM e
st ar
ĠJ on
Ġoper ational
if y
ĠYork shire
Ġ196 7
ãĤ ¯
Ġlicens e
ĠSec urity
Ġpack aging
Ġmot ion
Ġrep air
Ġliqu id
Ġdat ab
C C
O R
b l
Ñ ĥ
Ġin ception
Ġo cc
Ġf eed
ĠS i
ĠM ult
ur s
Ġpro priet
Ġre v
ĠD etroit
ies el
ĠW i
Ġwh at
clud ing
ust ain
anc er
Ġph ones
ĠCon struction
ĠPer u
2 5
c ost
p art
É ª
Ġ æ
Ġf ederal
ro om
ĠC ru
ĠB ook
Ġcon duct
ubl in
ĠCh arter
Ġrecord ed
ĠPh oen
SE HK
Ġcorpor ations
Ġdo es
Ġdev ice
Ar ab
Ġcollabor ation
ĠJe ff
ĠBangl adesh
ĠMiam i
N ASDAQ
u i
É Ľ
Ġ ×
Ġs ymbol
re t
ĠT o
ĠM ob
ĠP it
ĠP ay
ĠR ay
ĠE ver
ab ric
ĠH ospital
ell ers
ĠCh ile
Ġprov ince
olog ical
ĠAr m
ĠCom mission
ĠGre ece
ĠJohn son
ĠPubl ications
Ġapp ear
ĠRom ania
Ġaffili ated
a ign
b e
s en
z h
ä º
er o
Ġc irc
Ġh alf
ĠU g
ac hes
Ġmult imedia
ĠSil ver
Ġprot ection
err ies
ĠKen ya
ĠRet ail
ĠPriv ate
ĠMagaz ine
ĠPhoen ix
h a
r ies
Ġc ulture
ĠC able
ĠS ant
ent ion
Ġ1 50
ĠP op
ĠL ight
ĠR est
ers hip
ĠN ort
ĠH am
ĠH amp
ĠJ ord
ĠK al
ul f
ap t
eb r
Ġsh ips
pe ed
Ġcre ation
ĠPubl ish
Ġmach inery
Ġbeh alf
ĠOff ice
ĠStev e
d ed
g ed
k o
u ese
Ġ urban
ĠC ong
ĠS aint
ent h
ĠM ir
ĠL eg
ĠN ash
ĠD a
ĠD ivision
Ġth ough
Ġcon struct
if th
Ġhead ed
Ġk it
Ġcl in
Ġ196 5
Ġper cent
Ġsmall er
Ġfund ed
ĠFam ily
Ġcle an
b ack
w ar
Ġc rit
ĠS ri
ĠM ic
ĠB alt
st ream
ĠD ublin
ĠH ard
ĠU l
Ġv iew
Ġpubl ications
ron ym
Ġtrans mission
ict ure
Ġ196 4
ĠAp pl
Ġdown town
sour cing
ĠElectron ic
Ġhous es
ocol ate
Ġâ Ĥ¬
Ġadvis ory
ĠViet nam
ĠFact ory
Ġestabl ish
Ġnor thern
p ut
u it
å ľ
is ure
ĠS out
ly n
ĠN ot
Ġcon tribut
ĠV an
ell ing
ak ers
ors e
Ġsubs equ
ik a
Ġcent re
ĠAp ple
ĠSec urities
ming ham
ĠDirect or
Ġfoot wear
ĠAcc ording
ĠBir mingham
7 0
P A
r est
Ġs e
Ġw ood
ĠS em
ĠA C
un n
ol es
ĠL ux
ĠR oc
Ġre view
ĠH all
ran ce
Ġch arg
ra w
ãĤ ¢
Ġnon profit
Ġintellig ence
E L
c an
w rit
Ð ¿
Ġ iron
Ġc am
ĠT imes
ĠL ank
ĠR and
ĠE ss
ag s
Ġst yle
ĠV entures
Ġind ex
Ġbe ers
Ġair ports
eg as
Ġcomp il
Ġcl ient
Ġ196 6
Ġprof it
Ġinstitut ional
ĠCons ult
Ġet c
Ġrecogn ized
ĠGh ana
Ġsit uated
T r
a ft
s y
an ian
Ġd u
Ġh ow
Ġre ad
Ġn ine
ĠH amburg
ub ishi
oc al
ĠO pt
ell ow
ber t
Ġad ministration
Ġcre ates
ick en
ient ed
eas ing
Ġpasseng ers
Ġcontin u
Ġexper im
Ġschool s
Ġeconom ic
Ġimpro v
Ġwholes ale
Ġpropriet ary
c ade
h an
Ø ©
Ġw atch
Ġm eet
ĠS af
ĠT ime
ĠF ed
ĠJ ose
ĠCh amp
Ġoff shore
Ġspecial ist
ĠPro f
Ġmov ies
Ġbi otechnology
ĠTurk ish
Ġpay ment
Ġiss ues
Ġpract ice
Arab ic
I L
b a
b orn
t el
w ich
Ð ¹
Ñ ı
Ġt e
Ġm o
ĠB ros
ĠW all
Ġv oice
iz z
Ġex ecut
Ġcomp r
ene z
Ġstr ong
ĠDis c
Ġresp ect
ĠGr up
cel and
Ġcomb ined
Ġsouth ern
à¯ į
Ġdistr ict
cript ion
ĠStand ard
d y
Ġc inema
Ġs ize
it er
Ġw ay
ĠS o
ĠM as
ĠP izza
ĠD ak
act ions
Ġv end
Ġrec ent
ant asy
Ġsh ut
Ġund erg
Ġro ster
Ġdirect ly
att an
Ġpartic ip
Ġliter ature
Ġsubscrib ers
S I
g reg
v is
en z
Ġp ip
ĠA ward
st one
tr y
Ġv ery
Ġsp ons
ort ium
Ġsup ports
Ġout door
ĠPh armaceutical
Ġ7 5
Ġ194 7
ĠMc C
ĠGold en
Ġlo ans
Ġvers ion
ĠAssoci ates
ĠQueens land
d ale
h od
o om
r um
al i
it i
Ġb ott
el d
ĠT amil
ĠP LC
ch iev
ĠY ou
ãĥ Ī
ĠMar c
lob e
Ġ4 5
Ġstud ent
Ġ196 1
ĠAut omotive
Ġhouse hold
Ġaffili ate
sc ale
ĠBanc o
Ġbas is
ĠSpr ing
1 5
F or
O C
g ing
l i
m es
w in
y cl
Ã ¦
Ġf ind
Ġp oint
ĠS at
ĠM em
ĠB ol
ĠR ico
ĠF ree
ĠE ll
ĠD ev
ĠD yn
ab i
ĠH or
Ġth er
ev a
ud get
ĠO range
ist a
end er
Ġ3 2
Ġj ournal
Ġemploy ed
ri ed
Ġ6 00
Ġ195 9
Ġsc ientific
Ġmon ey
Ġhand ling
Ġdef ense
ĠMed ical
now led
Ġchemical s
Ġmerch and
Ġbeg inning
ĠEduc ation
N S
g o
Ġ ide
Ġm ill
ent ial
ĠM ur
Ġd airy
Ġg ain
ĠK a
Ġpr ice
ĠV i
ey s
Ġspecial ised
Ġautom obiles
ĠÂ «
Ġstand ard
Ġevent ually
Ã©t Ã©
1 6
A meric
C D
u ction
Ã º
Ġ ice
Ġs he
Ġm ess
ĠI owa
il iz
Ġl evel
ĠL abor
iv ity
ĠE MI
ĠD ream
ĠH ills
ĠU s
ĠW in
ĠCh airman
Ġlarg er
Ġ195 7
Ġmar ine
Ġprem ium
b ro
n o
u ce
y ers
in ental
Ġf unct
ĠS ir
un ction
ĠF arm
ers t
ĠJ oe
Ġman ga
os met
ra f
Ġnot ed
Ġfeat uring
Ġdeb ut
Ġarchitect ure
Ġbicy cle
ĠØ§ÙĦ Ø
Ġvess els
k en
è ¡
al ore
Ġs avings
ĠS und
el ebr
ĠT er
us ed
Ġd ate
ĠR en
Ġn uclear
ĠSt ep
Ġcon d
Ġe arl
Ġal umin
Ġch ief
Ġmarket place
Ġcl ose
ik es
ĠAs h
ĠAn ton
Ġ195 6
Ġbrew ing
Ġinit i
Ġshop s
Ġclass ical
Ġsupermarket s
Ġbeh ind
Ġcomplet ed
Ġnov el
Ġpromin ent
B I
R I
i ot
u ation
w inning
ã ģ
æ Ĺ
Ġf ly
ĠC ross
ĠT ri
ĠM ov
Ġd ance
Ġn ext
Ġr ural
ĠV enez
Ġro ots
co hol
Ġcent res
ĠHar ris
ĠAc adem
ĠAnd rew
ĠArab ia
Ġiss ued
ĠColle ge
Ġmonitor ing
ĠPit ts
3 7
O L
Y O
Ġa chiev
ed y
Ġs oft
ĠR oll
ĠF er
ĠF ront
st ore
ig a
ĠH yd
ce an
ac o
end s
ĠBr istol
ĠAl as
ĠTr ade
Ġup on
Ġneed s
St ation
Ġturn over
Ġunivers ity
Ġbroker age
echan ical
fect ure
ĠMun ich
ĠUg anda
A L
a ware
j a
in cluding
Ġt al
ar ed
Ġs quare
om o
Ġp ut
ĠC ape
ĠI C
ent y
ur ther
ĠP etroleum
ut ure
ĠL es
est ival
ly m
ĠE con
ĠW at
ĠW alt
ain s
os ter
ĠV is
ĠInd ependent
Ġpublic ation
Ġ195 8
ĠAer o
Ġren ew
ĠBer k
Ġstrateg ic
Ġder ived
Ġlif estyle
ĠJos eph
ĠNiger ia
ĠJord an
1 4
p ect
Ġp an
ĠA st
ĠI celand
ĠL ev
ĠL ittle
ĠN ASDAQ
ĠK eral
Ġsp un
ure au
ĠBr and
ĠBr ad
our t
ĠMan h
Ġbl ues
ster dam
Ġexist ed
Ġinstru ment
Ġhom es
ĠBul g
ĠKeral a
1 00
f iction
j i
w s
y ear
è Ī
an es
Ġs al
Ġs olution
Ġb ring
ĠC orn
ĠC hemical
ĠS ar
ĠS ome
Ġl a
ĠB BC
ĠR ap
ĠE p
ĠH on
ess or
ĠO ld
Ġv eter
ĠCh urch
Ġac ronym
Ġreg ular
Ġent ity
Ġ18 4
com merce
Ġsm art
ĠTel ephone
Ġadd ed
gl ish
ĠIr v
Ġbuy out
Ġmotorcy cles
Ġra ised
ĠMits ubishi
ortg age
ĠPublish ers
A ir
i en
r un
Ġ #
at ar
Ġw est
il ly
ĠIn n
tr on
oc r
Ġwith out
Ġr an
Ġr isk
ian g
ure ment
Ġdis e
Ġj ob
Ġco oper
eed s
ĠAm sterdam
Ġ194 0
Ġbroad c
Ġmembers hip
eas on
Ġacc ording
Ð½ Ð¸
ĠMor gan
Ġrepres ents
Ġhospital s
ĠCommun ity
En glish
ĠNash ville
è¡ Į
ĠPitts burgh
ĠManh attan
] .
h ood
l ah
Ġ à¤
or f
Ġa wards
Ġp ot
Ġm em
ĠS quare
ĠT ob
Ġd eath
ĠB ut
ĠB oe
ĠF r
ĠF ace
Ġre ported
Ġst eam
ĠJ et
ĠK y
th let
port un
ĠBr ands
ru ct
ai ro
Ġag greg
ĠAut o
ĠNov a
Ġtelecom munication
Ġport al
ĠFin ance
Ġsharehold ers
Ġnation wide
Ġeffect s
ĠHaw ai
Ġwid ely
ĠVenez uel
A P
h ors
k ins
v t
Ñ ĸ
Ġt imes
Ġt errit
en ed
Ġs ustain
Ġb ox
ro id
ĠC O
Ġm ean
ĠS r
ĠB ad
ch er
Ġg ear
Ġcon fer
ĠO ther
ĠO ffic
Ġcomp l
ĠBrit ain
eng th
ĠIs l
Ġbuild ings
ĠDel aware
ĠSe oul
ĠMor ris
ĠMinn eap
ĠHot el
Ġdep os
Ġbever age
Ġrang ing
ĠLank a
ĠMinneap olis
1 7
B ank
E X
M W
g u
g ary
h ib
r or
Ð ŀ
Ġ ul
Ġc overs
Ġp eak
ĠT em
Ġl ever
ĠB and
et a
ol y
Ġh ydro
ĠF ire
st yl
st yle
ĠH ans
Ġst ream
Ġch annel
Ġsp in
Ġres ource
Ġinv olv
Ġenter ed
ipp on
Ġ194 9
Ġacc ounts
Ġcontract s
Ġdown load
Ġshar ing
Ġmach ine
Ġprot ect
ĠAutom obile
nowled ge
ĠAlas ka
ĠBoe ing
2 4
A t
T el
h one
k in
Ñ Į
ç Ķ
Ĭ Ģ
Ġa ction
Ġc or
al o
Ġs n
Ġb ases
ĠI BM
us p
ad u
ĠP ty
ĠF uj
und red
Ġg ar
ub le
ĠW ireless
ĠJ ac
Ġsp read
Ġcom mon
pr on
ĠBr idge
Ġdistribut e
ĠCal gary
Ġem ail
ĠSh ar
Ġfood s
Ġprocess es
Ġsing er
Ġcarri ers
use um
vel and
Ġdem and
Ġremain s
Ġob ject
Ġspec if
ĠMiss iss
Ġsubsequ ently
L ink
b u
b ane
n ai
w ork
y th
Ð ¼
à ¹
Ġin s
Ġw ife
ĠT anz
Ġl ess
ĠL i
ĠR ad
ac le
ak i
our g
ãĥ «
ĠSh ip
Ġtrans actions
ph ones
Ġann ually
Ġ9 00
Ġlicens es
Ġactiv ity
ĠMil an
ĠLouis iana
Ġweek ly
Ġguit ar
Ġpos ition
ĠOk lah
ĠAud io
ĠDak ota
P L
r ight
Ġ Å
Ġt ea
or ough
Ġc elebr
om ic
Ġb ene
ĠC all
ĠC argo
Ġm uch
el and
ĠT echn
ĠA ff
Ġl earning
ĠL uc
pl ified
av en
ang er
air s
ĠPl an
ett ing
ĠAer ospace
ĠBang alore
Ġterm inal
ĠRailway s
ĠMad rid
Ġdivers e
Ġstand ards
ĠPlay Station
Ġexclus ive
ĠCle veland
Ġovers eas
ĠOklah oma
W est
b rew
d r
s u
s el
à ¥
Ġt abl
Ġb etter
Ġf inal
Ġw ar
us ion
ir ing
et on
ut h
ĠR am
ĠD un
ow ers
Ġv ine
iz on
Ġac res
Ġcoun ty
ĠBank ing
Ġpre c
ĠJoh ann
Ġed itor
Ġsuccess or
ĠReg ion
Ġexper t
Ġfranch ises
ĠPre m
ĠTelecom munications
Ġcover ing
Ð¾Ð ¼
ĠJack son
Ġcamp aign
Ġbel ong
iag n
ĠBrook lyn
pron ounced
G M
c op
n es
y ards
Â »
ç ©
it ter
ĠC ost
ĠC ook
ĠS hen
ĠM en
ĠM ond
ch ang
ĠR ey
ĠF our
Ġn et
Ġn av
Ġan ime
ĠSt ore
ĠO S
ĠO wn
ect or
ob a
Ġdis s
ĠAr k
Ġ3 6
ĠSh in
Ġcont emporary
red ited
Ġemploy ee
com monly
ĠPl ant
Ġexist ing
ĠOx ford
ĠHamp shire
b ooks
s or
Ñ ĭ
in et
in yl
Ġb out
Ġw at
ĠT e
ĠB a
ir a
Ġto ys
ĠL ow
ĠH om
ĠJ ew
ĠJ ones
ĠV ision
ĠV egas
og an
ĠUn der
ĠCh ief
Ġk ind
Ġat tract
ov o
Ġad op
ĠSoci Ã©tÃ©
Ġclass ic
Ġteam s
ĠHol lywood
éĽ »
uts che
Ġneigh bor
Ġcompr ises
p ool
or gan
Ġf ifth
Ġf urther
ro zen
ĠC oll
ĠT ata
Ġd i
ol n
am ics
Ġh it
ĠL u
ĠL inc
ĠH an
Ġst yl
Ġpr ior
ĠV od
og le
pl it
Ġair port
Ġpl astic
ach i
ĠDel ta
ĠAb u
Ġplay ers
ĠMarket ing
Ġcomplet e
Ġhous ing
ĠPortug uese
ĠChen nai
ĠDoug las
Ġadul t
Ġexperim ental
E N
s im
Ã ¢
Ġ ä¸Ń
Ġs ide
as ters
ic he
Ġp icture
re ll
ĠS Ã£o
el lect
ĠM aster
ir es
ir ts
ĠP as
Ġh undred
ĠN ep
ĠN eb
ĠN ippon
ĠD ave
ĠJ o
ĠJ r
tern al
Ġdis p
Ġsub ject
ĠBr ian
Ġres id
Ġcons ortium
ãĥ ĥ
ĠSh ow
Ġreg ions
che m
ator ies
Ġim plement
Ġop portun
ĠCon c
ĠGre g
Ġfound ation
Ġbuild s
ĠMin ing
Ġregul ator
ĠIsrael i
ĠLib er
uz z
play ing
Ġcert ified
Ġartic le
Ġfinanc ing
ĠTanz ania
A n
D C
c ell
o z
r ich
v a
and y
Ġc ash
Ġf ar
Ġf abric
ĠC are
Ġm ix
Ġm ixed
ĠT ay
ĠI N
am ount
ĠN ik
ĠD omin
ab y
ĠH is
Ġg reat
por ter
ĠO d
ĠCh ap
ist ed
Ġch ange
Ġex press
ĠBr is
Ġen ables
Ġ3 3
Ġform s
Ġform at
Ġbec ause
ĠSc and
Ġrest ruct
af one
au k
Ġ192 9
Ġmet hod
ĠGl as
ĠPre fecture
Ñģ Ðº
ĠSol ar
Ġpione er
Ġgraph ic
Ġfil ed
Ġrelations hip
Ġbre ak
I G
O ne
R M
p ower
r ik
w orks
Û Į
in burgh
is er
Ġc er
Ġs ources
Ġs ometimes
ĠS ask
il it
Ġl ink
Ġwas te
ĠP en
Ġh olid
ĠG ulf
ĠE ric
Ġth ous
ĠW ay
ul d
Ġout sourcing
Ġstud ies
In d
Ġ195 5
Ġopen ing
Ġ194 5
Ġmed ic
Ġanim ated
Ġcolle ge
Ġship building
Ġremain ing
Ġaward ed
Ġinnov ative
Ġbever ages
Ġjew el
Ġhelicop ter
ĠSerb ia
Ġdatab ase
ellect ual
E x
R S
S L
S oft
s ized
v al
v ia
Ġ Ä
ĠC orpor
ĠA wards
ĠM ind
ĠM oon
Ġd id
ĠL ew
le g
ĠN ick
Ġ19 19
ĠD er
ce ed
Ġst reet
ĠK ir
ac hed
ac co
Ġch ocolate
ant ly
Ġinvest s
ãĤ ¸
ĠEd inburgh
Ġbl og
Ġbl ack
Ø§ Ø
Ġsur round
Ġfre qu
ĠWilliam s
Ġopt ical
ĠGo ogle
Ġfire arms
wh ich
Ġnov els
ĠRest aur
ĠSout heast
ĠLinc oln
ĠSask at
A D
R T
p a
p o
å ·
Ġc ross
Ġs ens
Ġb ak
Ġb ass
Ġis land
ĠC ustom
Ġm utual
ĠB at
ĠG SM
ĠD or
ĠEn d
for ce
ov a
Ġen able
ans ion
Ġph arm
Ġ195 4
ĠAd ministration
ĠWar s
ath an
ĠAp p
ĠInvest ments
Ġregul ated
Ġatt orn
ĠCy pr
ĠDh abi
Ġpolit ical
Ġtra ffic
Americ an
osmet ics
f urt
m aker
s a
Ã ¬
Ġ 0
Ġc ases
Ġs porting
it ing
Ġb ig
Ġw e
Ġw ealth
ing ham
ĠS port
ad or
ĠL P
ĠL ind
ĠG ra
ĠN Y
ĠK r
ĠV o
ant on
ĠAl though
sh op
ĠMar ine
Ġbec oming
Ġint ended
Ġ192 5
ĠâĢ Ķ
Ġmet als
Ġcomm uter
ĠPaul o
Ñģ ÑĤ
Ġpred omin
Ġground s
Ġaccount ing
Ġcharact er
æĹ ¥
Ġspecif ically
ĠBris bane
E A
G erman
O r
a ugh
g ow
h us
n i
r ade
is l
Ġc ult
Ġc ater
en ior
Ġs oon
ic ians
ĠC ard
ĠS y
ĠS om
ĠB ra
Ġh or
ĠL anc
ĠF resh
st ate
ĠH art
oc a
ot te
ag le
ĠK u
ich i
ĠEn erg
eb rew
Ġro om
Ġret urn
ĠMan it
Ġ195 3
Ġ192 8
Ġadd ress
Ġlaw yers
ĠAnd roid
Ġdec ided
Ġsol e
ĠHealth care
Ġgo al
Ġsharehold er
Ġimpro ve
Ġrenew able
ĠFace book
Ġmean ing
A A
T I
t ech
Ä ±
in er
Ġp orn
ĠC ivil
Ġm ay
Ġm ark
ĠA M
ĠP il
ĠP ear
ĠThe at
ĠN C
im ate
Ġr ad
th ur
ĠSt ag
ĠSt art
ian o
Ġproduct ions
ug g
Ġinv ent
Ġbro ther
Ġgen re
iqu es
ĠGu ang
Ġapp s
ĠElectric ity
Ġaim ed
Ġtown s
Ġorigin ated
pre viously
gress ive
Ġcru ise
F rench
N O
V A
l ington
Ġ é
Ġt urb
es ter
or ing
it ime
ĠS oft
ĠT ech
Ġd oll
st ock
ĠH ist
Ġv ac
Ġal cohol
Ġad ministr
ãĥ »
Ġcre am
ĠPro cess
ĠNorth west
enn a
Ġ6 5
Ġ195 1
Ġ195 2
Ġcontract or
ĠEst ate
itt ed
ĠSm art
med i
Ġopt im
Ġaim s
ĠMill er
imb ab
Ġagre ement
Ġlibr ary
Ġvend or
ĠNep al
ĠGlas gow
C o
P ro
b i
f for
l abel
he astern
Ġs eason
it ness
Ġf iber
Ġw ear
ro y
ĠS yr
ĠB i
ĠP etro
ĠL abel
ĠF ish
Ġre branded
ĠN am
Ġg reen
ĠJ am
Ġe astern
ob by
Ġem bed
ĠCo ffee
ah a
Ġstud y
Ġaut hors
ĠQ ual
Ġpre vious
emb ourg
Ġhigh ly
aun ched
Ġ8 00
ĠVir t
Ġlicens ing
ĠDe utsche
ĠEm p
Ġpol icy
Ġplay er
ĠSil icon
ĠAdv anced
Ġmicro brew
ĠTw o
Ġfoot ball
ĠHow ever
ĠCop enh
found er
ĠSlov ak
Q u
r d
Ð ´
è Ĥ
or iented
Ġc ancer
ar ash
Ġs um
as ts
Ġf ail
Ġp ul
ĠC ub
ut y
ĠL yn
ĠG all
ĠD uring
ag n
Ġcon ven
ĠO f
ib ility
tain ed
Ġ3 8
ĠZ h
ĠZ imbab
ĠPro t
ĠPr ince
Ġinvest or
Ġorgan ized
Ġ196 3
Ġsec urities
ĠBl oom
Ġfam il
Ġengine ers
Ġsc ene
Ġmin eral
Ġpromot ing
uk e
Ġcompet ition
Ġexist ence
Ġcover age
ĠFrank furt
Ġtext ile
Ġte ach
ĠGrup o
ĠManit oba
ĠCopenh agen
T T
l ived
o ffic
or g
at in
Ġs and
Ġs usp
Ġb ul
ĠS alt
el a
el ine
ĠT urn
ĠB ow
ĠD om
ĠW inery
ĠK l
ĠK it
od a
ell a
Ġreg ard
Ġco ast
Ġco uld
Ġengine er
ou ch
ph as
Ġdom ain
Ġintegr ation
Ġle isure
Ã¡ n
Ġunivers ities
éĽ Ĩ
Ġemerg ing
ĠKaz akh
ĠScand in
Ġjewel ry
2 2
D I
P M
S S
a o
i est
l ight
v ed
Î ¹
in son
Ġc ement
it ially
ĠA BC
Ġd iagn
ir it
ĠP oint
Ġto wards
ĠL ion
ĠF il
ĠN adu
ig o
ĠJ ean
ĠO tt
ĠV ine
ell ery
Ġcom es
Ġcomp osed
Ġcons olid
Ġorgan is
Ġstart ing
Ġaut hority
ĠCl ark
Ġdr inks
ĠWh ile
Ġwrit ten
ĠWil son
Ġphys ical
Ġtarget ed
ĠiP hone
otter y
Ġgain ed
ĠAcadem y
èĪ ª
Ġbout ique
ĠVod afone
ĠTay lor
Ġfamil ies
C B
N et
m od
Ġc ook
Ġc raft
Ġf rozen
ĠB urn
ĠP vt
id ers
ĠR io
ĠF iat
ot y
ĠW y
ĠW inn
Ġst ands
ĠK arl
Ġe ffor
ug u
ear s
ĠAl f
Ġpriv at
elect ric
Ġorgan ic
ĠSp ect
ĠMar vel
Ġcar ry
ĠAd d
Ġfound ry
Ġfact ories
Ġdeal s
ĠDen ver
ĠCont inental
ãĥ³ ãĤ
vent ion
ĠVol ks
Ġrap id
Ġmo du
Ġmerchand ise
ç© º
ĠZimbab we
F A
S ince
b uild
f ast
i ability
o a
p ed
Ã ´
Î ±
in ct
Ġa thlet
ed d
Ġc our
it able
Ġf olk
Ġp ain
ĠH D
im s
ith er
Ġst ar
Ġv an
abl ed
ous ly
Ġ18 3
ri x
ann er
Ã© n
ĠPh arm
Ġ7 00
ĠAt hens
au x
erm al
Ġmil es
Ġcomm od
Ġcollect ive
ĠCont rol
Ġrep ut
Ġdep loy
Ġconf used
Ġspec ific
Ġsl ogan
kt op
Ġconc ern
Ġroll ing
ĠColomb ia
ĠTru ck
Ġclin ical
ĠLux embourg
ĠStep hen
ĠLew is
2 000
B l
u h
ar at
Ġs plit
it age
as a
Ġf ig
Ġf antasy
ĠT ony
ĠA D
il omet
ĠB on
ĠB eng
ĠB ever
ĠG od
ĠR aj
ĠD ep
ig ious
ĠH els
ĠSt ation
art a
ĠV enture
iz es
ĠCh ang
ĠAmeric as
Ġar cade
Ġem phas
Ġpre par
omot ives
Ġsc ale
ipp i
Ġcharter s
19 8
Ġdom in
Ð¾ ÑĢ
Ġsing les
Ġrefer ence
ĠMetro politan
Ġpost al
Ġrail road
ourn als
Ġcop per
arash tra
. -
l ike
u its
Ï ģ
Ĩ ĳ
al ia
ĠC lear
ĠC BS
ĠS av
ĠA h
Ġl easing
ĠL am
ĠL iver
ĠR ena
st ant
ĠN ext
ĠK on
ul es
ĠV ehic
Ġpl anned
Ġpart y
Ġsubs cription
ãĤ £
ãĤ ¨
ĠMan y
Ġbro ws
Ġsuppl iers
Ġadv ice
Ġdo ing
Ġqu ick
ĠMet al
ĠPal m
ĠDan iel
ours es
ĠOper ations
Ġseg ments
eco ach
ĠHung ary
Ġlever aged
èĤ ¡
F L
T M
U SA
h ous
i ya
m aking
Ä ĵ
at ics
Ġc ut
Ġp izza
ĠS ocial
ĠT our
ĠM us
ĠM unicipal
ĠB al
ĠB ak
ut t
ut ics
ĠR ome
st ad
ĠN ag
ĠD u
ĠD at
ĠD iamond
ĠH ud
Ġg olf
ĠW ild
ĠJ ak
ĠEn t
ĠTh rough
Ġtel eph
ah o
Ġsc reen
ĠAd am
ĠAm ong
ĠÐ Ĳ
Ġ193 2
Ġexp ansion
Ġcontin ents
Ġcontin ues
Ġ190 6
ĠRe f
Ġlight ing
Ġext ensive
Ġhospital ity
ĠLaw r
Ġguit ars
ĠArch itect
Ġunderg round
ĠPharmaceutical s
Ġtal ent
chang es
Ġwat ches
ĠNeb ras
chem ical
ĠCypr us
Ġpredomin antly
B O
d s
e o
e er
u ate
w ith
y cle
à ²
ar ry
Ġs port
el ey
ĠT ower
ĠI v
ĠM aur
ĠB os
ĠB uck
et ry
ĠL uf
ĠG E
ĠR em
ĠR ub
Ġfor um
ĠE P
ĠE c
ĠE agle
ĠH ay
ĠK ey
Ġv en
ĠV iew
Ġpl us
Ġdesign ers
Ġwork ers
Ġnot ably
ĠFor ce
Ġinc ome
ĠPar amount
Ġmov ing
ĠHar ry
oot s
Ġacquis itions
inem as
ĠSim on
Ġtour ism
Ġcamp us
sch aft
ĠRog ers
Ġdescrib ed
Ġlabor atory
ĠSi em
ĠVenezuel a
Ġattorn eys
Ġmicrobrew ery
èĪª ç©º
ĠNebras ka
C I
G A
H L
d o
j e
k u
m art
Ã ±
Å ¡
É Ķ
æ Ŀ
Ġt ank
Ġc al
Ġc ode
ĠC at
ĠC ad
Ġm ortgage
ĠS erv
ent o
Ġd on
ĠB all
ol o
ol ia
ad s
ĠL eb
ĠF le
Ġre iss
ĠH it
ĠW hen
ĠO b
Ġv illage
Ġmanag ers
iss ions
Ġph il
Ġint ellectual
Ġgovernment s
Ġ193 4
ĠLe ague
att le
ĠAg ric
Ġcomm enced
Ġfast est
ĠCD s
Ġinnov ation
Ġpred ec
Ġincre ase
ĠStag ecoach
Ġembed ded
ĠKazakh stan
S tar
T R
a ire
b rid
h ad
y on
z hen
Ð ³
Ġ à®
Ġt akes
it o
Ġb atter
Ġm echanical
ĠM A
ĠP ack
ĠG ram
Ġfor est
ĠIn nov
ĠH ell
Ġg ran
Ġg iven
ĠW el
ĠW olf
Ġst age
ĠJ azz
Ġcon vers
ĠV illage
Ġloc omotives
ĠBr uss
ĠAl to
ĠAn al
Ġj et
Ġcont act
Ġtrad es
ind er
Ġfl oor
Ġ4 9
Ġtw enty
ĠIs le
ĠPl c
ink i
ĠMid west
Ġport able
Ġ191 2
Ġgeneral ly
Ġpay ments
ĠProv ince
Ġvers ions
Ġgraph ics
ĠMah arashtra
Ãł n
Ġjew ellery
ĠId aho
ĠLin ux
Ġassemb ly
ĠAnim ation
åĽ ½
lym p
Ġul tr
ĠMississ ippi
ĠJohann es
2 7
C l
G C
N or
V C
a ult
m it
n el
t i
ä »
an y
and ing
Ġc ourses
ĠC ell
ĠS ab
ĠB ud
ĠB eat
ĠB omb
Ġto y
Ġ( /
ĠL im
ĠL ag
ĠN ob
Ġ19 00
ĠD ick
ot al
ell schaft
Ġsh oes
Ġpl an
Ġbrand ing
ating s
ĠCo oper
ĠSh ipping
Ġim aging
ĠSc iences
amp le
Ġev olved
yn e
Ġfac ilit
ĠâĢ ĺ
Ġtrain s
ĠIm per
Ġhost ed
ĠUkrain ian
Ġorig ins
Ġconf ection
Ġvol ume
uns wick
Ġseg ment
Ġagain st
Ġware house
rest ling
ĠConsult ing
Ġconven ience
Ġorganis ations
ĠSiem ens
' .
) (
S D
U K
b ach
b ridge
f its
l ow
l ag
Ð ±
in ary
in cial
er abad
Ġs eek
Ġp etro
ĠC el
ĠC inc
ĠC reek
ĠT re
ĠT am
ĠA x
ĠI D
un a
Ġl ower
ĠM it
Ġd ub
ĠB et
ĠG ran
ĠR oss
ĠN ap
ĠN atural
ĠE arth
ĠD am
ĠH ydro
ĠK G
Ġv inyl
ill ed
cl aim
Ġlarg ely
ond a
ĠAl b
ĠAl an
ĠAustr ian
Ġcoun ties
Ã© d
Ġsc iences
row d
Ġ193 5
Ġdirect ors
ĠGen eva
ĠBar cel
Ġi OS
Ġdif f
Ġhelp s
ĠTown ship
stan bul
Ġhow ever
ĠBulg aria
ĠHawai i
Ġsurround ing
ĠOtt awa
ĠLawr ence
ĠBruss els
4 00
G roup
b es
d is
n s
v ian
v ard
Î ¿
Ġ ill
Ġ era
es a
or age
re me
ĠS eries
ĠT erm
Ġd ining
ol ta
am in
id el
Ġpro ble
ĠL ith
ĠL ove
ĠF ield
ĠN ation
ĠD ar
ĠD og
em an
ĠJ oint
erv ation
ĠK im
ord ers
ĠO lymp
Ġv ert
ac he
ac ement
ill a
ib a
Ġch icken
ĠY am
ĠBr unswick
oft en
Ġbusiness man
The y
ãĥ ª
ãĥ Ĩ
che wan
ight ing
Ġj ournals
Ġaut o
ick s
inn ati
Ġ192 1
Ġmov ement
Ġsecond ary
ĠAll en
ĠBar b
ĠWh it
ĠDav is
ĠBer had
bor ough
ĠPhilipp ine
Ġchar ity
Ġwrit ing
ĠIran ian
Ġallow ing
Ġbicy cles
Ġhistor ic
Ġfriend s
ĠProper ties
ĠCroat ia
ĠIsl amic
ĠSaskat chewan
ĠCinc innati
2 9
B us
T D
T YO
W E
a aS
p oint
w agen
æ ¥
Ġc osmetics
as c
ic ate
ĠC ir
ĠS ter
ĠS ov
ĠS ega
ĠT un
Ġl at
Ġl iving
ĠM and
Ġd ry
Ġd iesel
ĠB ureau
ĠP or
ĠP ers
ĠL is
ĠF ab
ĠF oot
ĠF estival
ĠE mb
ab bre
ig e
ĠU AE
ĠO y
ĠO cean
ist ic
Ġk ilomet
ok u
ions hip
ign ed
ass es
ĠAl t
Ġcons oles
Ġmusic ian
Ġform ally
Ġsec ure
ĠBl u
Ġev en
Ġ193 6
Ġ193 8
Ġsect ion
Ø§ ÙĨ
ĠMc G
Ġgener ated
ĠSm all
Ã¡ ng
Ġfollow ed
ĠOs aka
æľ ¬
ĠScot ia
ĠMad ison
Ġcell ular
aut y
Ġvol un
Ġwholes al
ĠOrgan ization
Ġtrack ing
ĠToy ota
Ġkit chen
sy ch
ĠHyd erabad
ĠShen zhen
ĠEmp ire
2 3
C M
E P
L M
W orks
b urn
c omp
d on
m ade
v ision
Ã ¥
he ld
Ġa uction
Ġin sur
Ġb udget
Ġf ine
ĠC ert
ĠS ud
ĠT en
ĠT al
ĠT ra
ĠI l
ĠM all
Ġd epart
ter m
ĠP rom
id ing
ĠR od
ĠF alls
Ġre ports
ĠIn stru
Ġn ight
oc ation
im ated
ĠW eek
ĠJ ay
ĠK el
pl if
ĠAl ph
ĠAr c
Ġdistribut ing
eral ly
Ġ18 0
ĠPr ior
ĠTr ain
inn er
Ġserv ers
ĠQ atar
Ġ192 6
rid ges
Ġdel ivers
Ġ12 0
ĠMc D
Ġcarri ed
Ġrank s
Ġbuy ing
Ġrepresent ed
ĠOper ating
Ġarchitect ural
ĠAlex ander
Ġliter ary
ĠEqu ity
Sp anish
ĠBerg en
ycl ing
ĬĢ è¡Į
Ġreput ation
7 5
M ar
c ement
d em
f ree
g or
m o
m ail
n ic
y er
é ĬĢè¡Į
Ġs ett
Ġf em
Ġw inning
re te
ĠC ov
ĠT ool
ĠI SO
ĠI stanbul
ĠM ap
Ġd ays
ur on
ĠB ed
ĠB io
ĠP un
ĠR on
Ġg overn
ĠJ SC
ud a
Ġe arn
um a
ĠV en
ĠAn th
Ġdesign ing
ĠTr ading
amp ton
ĠAt ari
Ġ8 5
Ġ192 7
Ġ193 9
ĠPhil ip
ĠMid lands
ĠEd ward
ĠDr ug
Ġmil k
Ġlong er
Ġsch ol
ĠGl ass
Ã¸ r
Ġet h
Ġpract ices
Ġentrepreneur s
Ġclub s
Ġconsist ing
ĠFred er
zh ou
ĠCong o
ĠVirt ual
Ġbul k
ĠLiver pool
Ġteleph ony
D F
E E
L SE
a fter
d ong
f in
m ig
m ith
er ts
Ġt im
Ġc art
en os
ar us
Ġs er
Ġb orn
Ġw he
ĠC ab
ĠS avings
ĠT ak
ĠL loy
ĠR ead
le vel
ĠN ic
ot ic
Ġst ated
ĠJ er
ĠJ ason
ĠK am
Ġwh ite
Ġv ision
Ġpr ices
Ġservic ing
ill er
Ġk nowledge
ĠEn vironment
ĠY ear
Ġcomp ris
ãĥ ķ
ron ic
ĠPr inc
Ġ5 000
Ġag ents
enn is
ĠCl oud
Ġrel ocated
ĠFor merly
Ġ193 1
Ġ100 00
ĠLe on
Ġamong st
ats u
ĠHe art
Ġfranch ised
Ġexpand ing
ĠMer ch
Ġcompet itors
Ġhost s
Ġmerch ant
ĠEr n
ĠHow ard
ĠAnton io
sim plified
ĠVolks wagen
ĠBarcel ona
2 8
A F
H S
I I
P P
d n
æ ĸ
é Ģ
on ian
Ġc at
Ġs eat
Ġs enior
Ġf ruit
Ġp il
ĠA ge
ĠI ra
ent on
ĠL ocated
ĠR un
ab ilities
Ġg lobe
ok a
ust ic
ãĥ ¬
ĠCo ach
Ġretail ing
Ġemploy ing
Ġinvest ed
ĠMar sh
uter s
ĠFor est
Ġbuild er
Ġ193 7
ĠRes orts
cast le
Ð¾ Ð½
ĠHar vey
Ð° Ñ
Ġadv enture
ĠPol y
uent ial
Ġpartic ular
bus iness
Ġbo ats
ĠCommun ication
ĠTa ip
Ġinsp ired
lay er
ĠMach ine
ĠBern ard
Ġestablish ment
ĠCorpor ate
ĠTurn er
ĠJohannes burg
3 00
B B
M O
S R
b is
b ell
d es
g i
j o
j in
v in
Ä į
Ù ĥ
an th
er as
or i
Ġin g
Ġc urr
ar ing
al ty
Ġs ugar
Ġf eet
Ġf ront
Ġf erries
el e
ĠT as
ĠB C
ĠL ex
ĠR a
ĠR ober
ĠN ow
ĠK at
ĠK ev
ĠK enn
Ġe ast
Ġe ffic
Ġwh om
Ġrec re
Ġmarket er
Ġunder t
Ġspecializ e
eng er
urg ical
Ġ192 2
Ġ192 4
inc orporated
Ġautom ated
ĠX box
Ġjoint ly
Ġ190 5
Ġren owned
ĠRich mond
Ġcomb ination
ĠInt egr
fol k
ĠIndones ian
ĠPat rick
Ġdist inct
Ġcontain er
ĠEqu ipment
Ġinfl uential
ĠRoc hester
Ġreview s
ocr atic
ĠOffic er
Ġvine yard
Ġneighbor hood
Ġdiagn ost
Ġmodu les
) )
2 6
4 5
N G
S T
S c
U krain
c ity
f ood
g ate
h op
m at
s pe
u is
w all
w ater
Ç İ
Ġc ultural
ar o
it as
Ġf resh
ĠC er
ĠS M
ĠS uss
ĠA le
ĠM ol
ĠM ills
ĠP T
ĠP ep
est on
ĠH uman
ĠJ ul
ĠJ ournal
Ġr if
Ġr ather
Ġe p
ap olis
ip h
Ġdes ktop
Ġ3 4
Ġj u
ĠPr im
ĠUS D
Ġstor ies
ãĤ ·
Ġserv er
ĠFor med
Ġ192 3
ĠÐ ŀ
Ġ50 1
Ġanal y
Ġdisc over
ĠAv ia
ÃŃ n
Ġprint ed
ĠInt el
ĠII I
Ġabbre viation
Ð² Ð¸
Ġmonth s
Ġselect ion
ĠRog er
ĠComm od
Ġartic les
Ġcharact ers
ĠCroat ian
writ er
Ġexecut ives
ĠImper ial
A V
I R
a ug
p at
p ers
s Ä«
w auk
Ġa ver
al g
Ġp et
ĠC inema
ĠS T
ĠS el
ĠS ales
ol i
ad d
ĠP A
ĠP ier
id o
ĠH and
ĠSt ew
og y
Ġch ips
ĠAir bus
Ġtr acks
ire ment
Ġen h
ĠAr tists
ĠAr ms
ĠAr my
ĠAr thur
ĠCo al
ĠPro gram
els on
ph is
ĠMon ica
Ġpower ed
Ġlocal ly
Ġdr illing
Ġdel iver
Ġaud ience
Ġ191 0
ĠHe avy
ĠMil wauk
Ġsur v
angu ages
bor o
Ġphot ography
Ġrepresent ing
ĠCro wn
Ġtyp ically
vent ional
Ġcatalog ue
ĠNord ic
Ġinstall ed
bo ards
Ġentire ly
ĠProper ty
åľ ĭ
Ġcompil ation
ĠFront ier
Ġexpert ise
Ġopportun ities
Ġholid ay
Ġthous ands
% ).
3 5
H ebrew
P oint
e ep
i Ã³n
Ê Ĭ
or iginally
Ġw ines
ĠC P
Ġm eat
ĠT an
ĠA ur
Ġl as
Ġl iability
ĠB uff
ĠP ink
ĠG arden
ĠR al
ĠR ic
ĠF al
Ġre ach
ĠN AS
ĠN YSE
ag u
ĠO t
od es
od ies
ĠUn til
iz ing
ang a
igh ton
Ġex port
Ġdis play
anc es
ock s
Ġ3 000
ãĥ ĩ
aw ay
ĠEx per
Ġinvest ing
Ġim age
Ġab sor
af e
ĠRuss ell
Ġdr um
Ġdev oted
Ġcare er
Ġconnect ed
Ġsur vey
Ġlit igation
ĠRom anian
amil ton
ĠFly ing
Åįng sÄ«
ĠStan ley
ĠBah rain
ĠSem iconductor
ĠIrv ine
ĠHels inki
ĠJak arta
P O
É ĳ
à ±
Ļ ×
in ters
Ġt aking
ĠC a
ĠC ur
Ġm ap
ĠS in
ĠT errit
Ġl anguages
ĠM u
ĠM ess
ĠM ore
ĠM utual
ĠB ear
ch i
Ġh orse
ĠL ive
ĠG ord
ĠG ate
le ep
ĠN u
Ġn ut
ĠD ig
ĠH amilton
Ġg ift
qu es
Ġst op
up s
ul u
Ġe ither
ip le
Ġ3 7
Ġ3 9
Ġy outh
Ġform ats
Ġag e
ĠCom merce
ĠSc ientific
Ġhold ings
ĠJohn ny
uck land
Ġdr ive
Ġrespons e
ĠAv iv
ĠPet ers
Ġ13 0
Ġsur f
ĠMarket s
Ġsupply ing
Ġpat ent
Ġpat ented
ĠPal o
Ġsem i
ĠMain land
Ġdeb t
onn es
olk ata
Ġide a
Ġfunct ions
Ġearl ier
Ġstream ing
Ġcampaign s
Ġadop ted
ĠQual ity
Ġpul p
offic ially
Ġconfection ery
ĠSov iet
abbre viated
2 1
A m
K ore
M X
P h
S B
S w
f ilm
h aul
m os
n ia
p en
p aid
y les
Ġt un
Ġt onnes
al ight
Ġb ars
Ġp aid
ĠS ix
ĠT s
ĠA SA
ĠA uckland
ĠI ce
ĠM oh
ur ich
ĠB urg
ĠB ox
ĠB ird
ĠP o
am pl
ĠL aur
ĠG ab
ĠJ ava
ĠK olkata
op her
ĠSt eam
ell i
iz ens
ist ance
eb u
rough t
sh a
Ġco up
Ġab road
ĠCl ay
ĠFor bes
ĠAss et
Ġmin i
ett a
Ġsim ulation
viron ments
Ġcompet itor
Ġcontrol s
ĠShe ff
Ġcollect ions
TS X
oph armaceutical
ĠMag ic
Ġeconom y
ĠEgypt ian
Ġmeas urement
ÙĪ Ø
ĠUr ban
ĠMem phis
Ġfly ing
ĠVis ual
ĠJac ob
Ġrestruct uring
Ġhor ror
Ġproble ms
ĠTaip ei
% .
) ;
8 8
G I
M V
U R
W A
c ars
l ater
n old
Ð ·
å ¤
Ġ ËĪ
in ity
ar ch
Ġs ea
Ġb ikes
Ġf old
Ġf abl
Ġf air
ĠS er
ĠS che
ĠT eam
ĠA qu
ĠG irl
ĠR acing
ĠF ried
Ġre organ
ĠIn g
ĠN ors
ab s
ĠH i
Ġg arden
ĠW ine
ĠJ un
ĠK o
act ors
Ġv eg
ew s
pl ane
Ġex ports
Ġen vironments
Ġ3 60
Ġmain land
ãĥ ©
ĠCo operative
ĠZ amb
Ġcre ator
ĠPr adesh
az a
Ġout put
Ġ4 000
ĠTr ond
ĠFl ash
eh r
ĠCoun try
ĠAm az
Ġcall s
ĠBe er
Ġ193 3
ĠSoci et
ĠMc K
ollow ing
Ġconnect ing
ĠLat via
MA X
ĠÃ ī
Ġel ev
Ġdocument ary
Ġhistor ical
hens ive
Ġbar rel
Ġhelicop ters
cont roll
Ġsong s
Ġsil ver
Ġcateg ories
ĠDown town
Ġclean ing
ĠProf essional
Ġmess aging
ĠLabor atories
Ġalumin ium
Ġresid ents
æĹ¥ æľ¬
Ġpredec essor
ĠLith u
æ¥ Ń
ĠSuss ex
ĠMilwauk ee
Ġfabl ess
C L
E st
G O
g g
g round
l ink
p act
r ise
w w
w ing
Ġ quarter
Ġc ur
Ġc orn
Ġc lear
Ġs ki
Ġf ib
re m
ĠC ass
Ġl atter
ĠM arg
ĠB ull
ĠP ass
le ans
ĠD ark
ĠH op
ĠH ang
ĠK Åį
ĠK och
ip eg
od d
ell ed
Ġk n
Ġsp e
pr ints
Ġest imated
Ġcons ole
Ġreg istr
Ġro b
Ġfl av
Ġ4 4
Ã© r
ãĤ ³
Ġim mig
ĠPh ill
ĠMan ila
Ġact or
ĠCl in
ĠOr leans
ĠIndian apolis
Ġmin or
Ð° Ð½
ĠDr agon
ĠEst onia
Ġ191 1
Ġrem ote
ĠMac au
aim ler
ĠBroad band
Ġphot o
ĠMain e
Ġhub s
ĠAlber t
Ġpione ered
ĠQue en
ĠHel icop
Ġinstall ation
Ġpark s
Ġstat us
ĠCharl otte
Ġocc up
Ġcam eras
Ġrespect ively
Ġther ap
Ġsustain able
ĠArk ansas
ĠLiber ty
Ġcater ing
Ġsum mer
ĠWinn ipeg
Ukrain ian
ĠSheff ield
B T
D B
F i
R P
W h
s et
u an
w orld
Ç Ĵ
æ ĺ
Ġ )
Ġ rough
er ated
Ġs ail
Ġs aw
Ġb io
Ġf ish
Ġp oss
ĠC H
ĠC airo
ĠS ac
ĠS oul
ent er
ĠB ack
ĠL if
ĠL ink
ĠG M
ĠR ow
est ablished
est one
ĠE mer
ec es
ĠH ub
ib us
Ġbe auty
ĠNew castle
Ġex tract
Ġex changes
Ġex ample
ast e
ov olta
Ġpl aced
ystem s
ãĥ ĭ
ton e
ĠZ one
ĠTh ree
ry s
ãĤ ª
Ġim ages
enn e
ĠCol lect
ert iliz
Ġcol or
Ġdr ink
itt ing
Ġ191 8
ĠPer th
Ġdeal ing
ĠMot ion
Ġplay ed
Ġrece ive
ĠFrank lin
ĠLib r
Ġmot ors
Ġpione ering
ĠSur rey
Ð» ÑĮ
Ġhy brid
ĠFed eration
Ġiniti ative
Ġterrit ories
Ġcompl iance
ĠSlovak ia
ĠLeb an
7 7
P acific
e z
k ey
l ane
m ore
p ubl
s peed
ķ ×
on ic
is ters
Ġf ishing
re es
re hensive
ĠC irc
ĠS ign
ĠT A
ĠT otal
ĠA y
Ġl eather
ir st
ĠP ow
ĠG az
ĠF ast
ĠF oster
ĠIn itially
ĠN as
ĠH P
ĠW orth
ĠW atch
ĠSt ein
ĠO EM
Ġhe at
ac ional
ip e
ĠV ar
ĠV ia
Ġprov incial
Ġk its
ĠAir es
Ġsh oe
yst al
Ġsu ite
enc ing
Ġent ities
Ġtrans form
ah n
Ġ6 4
Ġam plif
Ġhigh er
inc es
Ġmon op
ĠSch w
Ġcontract ors
Ġ12 00
Ġ190 1
Ġ190 2
ĠAb b
Ġdisc overy
ple ments
Ġshar ed
Ġut ilities
Ġpartnership s
Ġcompon ent
Ġant i
Ġident ity
ĠBu enos
Ġenc omp
iter ran
Ġachiev ed
Ġobject ive
Ġemphas is
Ġbrows er
ĠTerm inal
Ġing red
Ġaver age
C P
M edia
R L
U P
a ver
f und
j an
k ok
s i
u ing
w o
å ®
ed om
ic ult
Ġf ans
Ġf ather
ro ck
ĠC ow
ĠS N
ĠT eh
ĠA L
ĠA ld
ĠM ail
ĠM ons
ur st
ĠP a
am i
id d
ĠL ot
ĠG ot
le ment
ĠF M
est s
ĠIn s
ĠN at
ĠE s
ĠH u
Ġth ermal
ub s
ag er
ĠJ ud
ĠV e
land o
ĠNew sp
Ġex hib
ast ing
Ġcomp ar
Ġap art
Ġro und
ĠZ urich
ĠTh ai
pro duction
Ġelect ro
ind ra
co o
ĠCar s
amp a
Ġam b
Ġam ount
ys ter
ĠBe fore
Ġprogram mes
Ġlic ence
ony m
Ġsupport ed
Ġshort ly
Ġperson nel
Ġconnect s
ĠShe ll
ĠMalays ian
Ġwrit ers
ĠArgent ine
199 0
ĠSup ply
ĠDef ense
Ġtheat re
Ġtransfer red
Ġlibr aries
ĠCharter ed
ĠVi enna
ĠPrem ier
Ġnav igation
ĠHom es
rell a
ĠBeng al
Ġultr alight
dem and
Ġcompris ing
ĠKev in
E G
P r
k ers
m ins
o it
Ê ĥ
á ĥ
Ġ +
Ġ ç
Ġt rol
is che
en ing
al ian
Ġf uture
Ġw et
Ġm ic
Ġm ag
us ement
Ġl oss
ĠM ong
ĠM old
ĠM ount
ĠP R
ĠP in
ĠP ric
ĠL iving
Ġre porting
ĠE sp
Ġn ative
ĠD oll
ig ar
ial s
ĠK an
ĠK os
ord s
ay er
os oph
um i
ĠUn it
ill o
Ġch amp
for mer
Ġdis pl
Ġres erv
Ġinv ented
Ġ5 1
Ġag ent
ĠCom b
Ġfl ash
fer ence
Ġab le
Ġcustom ized
ĠPl ace
ipp ed
ĠOr lando
Ġnational ly
Ġadv oc
Ġ191 3
Ġ191 7
Ġdec ade
Ðµ ÑĢ
ĠMed ic
Ġbi opharmaceutical
ĠBang kok
Ġprot oty
ĠCons umer
Ġrepresent ative
Ġatt ention
Ġremain ed
Ġcontroll ing
ĠRel iance
Ġmonth ly
ĠCam er
ĠBh d
Ġbr ief
cont in
Ġconver ted
ĠCast le
Ġcrit ical
Ġdise ases
Ġmem ory
ĠCost a
å· ¥
ĠKu wa
æĿ ±
' t
3 4
B L
F M
F O
h o
h ab
h ard
i eces
l aw
l antic
m akers
t ec
Å Ł
Î µ
à ´
à ¤¾
er c
Ġt ex
Ġw heel
ĠC N
Ġm i
Ġm ines
ĠS atellite
ĠS dn
ent ry
ĠB uch
ir ty
am m
id ad
ĠG ary
ĠN BC
Ġn iche
ĠD aimler
ig s
tr ans
ĠH orn
ĠJ a
ĠK in
ul ated
ul ts
ord in
iz er
ĠCh oice
Ġprov inces
ang o
Ġex cess
ĠGroup e
Ġen for
Ġcomp rehensive
ass is
ric a
Ġad apt
Ġar ms
eral d
ash i
Ġ5 5
ĠCom mon
ĠTr av
Ã© e
Ġlead ers
ĠFl ight
ĠFor m
Ġcapital ization
Ġnear by
ĠPart y
ij a
Ġcontin ue
Ġ191 4
Ġle ase
Ġthem sel
Ġhard core
Ġcap t
Ġpack ages
Ã¶ r
ĠVer mont
Ġred uc
ÙĬ Ø©
ĠInf rastructure
Ġfarm ers
Ġagric ulture
Ġrepl aced
ĠCre ative
ĠLog istics
ĠMod el
ĠSlov en
Ġenc our
ĠLab s
Ġpo etry
Ġhy per
ĠDem ocratic
ĠMerc ury
Ġdepos its
Ġsn ack
Ġbak ery
Ġquick ly
èĤ¡ ä»
ĠHud son
ĠAnth ony
ĠIra q
ĠTas man
Ð²Ð¸ Ð°
ĠTrond heim
Ġthemsel ves
èĤ¡ä» ½
9 0
A ll
O T
S aaS
W orld
g ar
h u
l anguage
m outh
p an
s ey
Ø ¨
Ġt ail
es ides
om y
Ġb ags
Ġf all
Ġf ile
ĠC E
Ġm art
ĠS peed
ĠT ar
Ġl ook
Ġl ending
Ġd ates
ĠP i
ĠP aper
id ence
Ġh ands
ĠG et
ĠG PS
ĠR y
ĠR at
ĠR ain
ĠF erries
Ġre ached
ĠE A
ĠD ial
ĠD eb
ĠD aily
ĠW ing
ag ement
ĠK iev
Ġcon ce
ate ur
ell o
igh ter
Ġsp ect
Ġsp eed
Ġrec overy
Ġcom e
Ġtr aces
oy s
Ġres orts
Ġar ray
ĠTh omp
Ġcar bon
Ġcommercial s
Ġlist ing
ĠAd vertis
Ġbrew eries
Ġreal ity
ĠAc cess
Ġ191 6
Ġback up
ĠAer ona
Ġcompet itive
Ġconnect ion
ape utics
ÃŃ a
Ð¾Ð ´
Ġwrit er
ĠSpr ings
ĠMah indra
ĠAT M
ĠWell s
Ġstruct ures
ĠSat ur
ĠConc ord
ĠRena ult
Ġdiff icult
ĠRober ts
ĠBuff alo
Kore an
èĤ¡ä»½ æľīéĻĲåħ¬åı¸
T ech
U N
W ith
b r
b ec
c er
d isc
l ov
p es
Ø ª
he w
or ia
Ġin form
at ively
Ġc ase
al m
ic ian
ic hes
Ġw orth
Ġp ens
Ġm m
ĠS K
ĠS of
ĠS ugar
Ġd iamond
ĠB B
ĠB av
Ġto b
ĠG raph
ĠR an
ĠF urn
est r
Ġre in
ĠH onda
ĠW er
ĠW ard
Ġst yles
ĠSt one
Ġcon cess
if ax
ĠCh ildren
ear n
ast ics
Ġcomp ress
Ġoffic er
Ġar ran
che ll
ĠEx pl
Ġ5 3
Ġcar ries
ier ra
Ġdiv ided
ale igh
ĠCl ara
Ġmerg ers
ph one
Ġstr ucture
Ġappro ach
ĠGu it
Ġsuppl ied
Ð° Ð²
ĠMin ister
ĠAnd erson
Ġdec or
Ġanim al
ĠColumb us
Ġconnect ions
Ġconnect ivity
Ġ14 0
ĠChrist opher
ek om
ĠShe l
Ġphot ovolta
Ġdeliv ered
ĠSam uel
ĠInt ellig
Ġmot to
Ġmultip layer
ĠWal ter
ĠTy pe
Ġcateg ory
ĠEss ex
ÑģÐº Ð¸
Ġmedic ine
Ġadministr ative
ĠVine yards
Ġpetro chemical
Ġabsor bed
Ġingred ients
Ġmart ial
ĠThomp son
6 5
9 9
A d
F T
h ere
l ers
o is
p el
s ung
Ê ģ
å ±
Ġ umb
at el
ar on
Ġs q
Ġb ed
Ġb all
Ġb anner
Ġb rought
Ġf t
ing u
Ġm alls
ĠS O
ĠS P
ĠT H
ĠT ol
ĠT ian
ĠT all
ĠM ajor
Ġd og
Ġd ram
ĠB og
ĠB ey
ol ine
ol ph
ĠP ur
ĠP ra
ĠR eed
ĠR CA
ĠF ocus
ĠF ollowing
ĠN ar
ĠD I
ĠD S
per t
ĠH ind
im ore
ot ton
ĠW or
ĠJ ust
ĠK ath
Ġr ival
ĠV ik
if ty
ob b
ib u
Ġch assis
Ġtr ail
ĠBr uce
ens on
Ġres ults
ĠAr men
ĠZ en
ĠZ ag
Ġeng ages
Ġfl at
ĠSc r
Ġlead ership
Ġup scale
Ġappl ied
mon ton
af ood
ĠÐ ļ
ĠBel le
ĠManag ing
Ġdo ors
uk i
Ġhand held
Ġdisc uss
Ġpol y
ĠSa aS
ĠThom son
Ġlo an
read y
Ġcert ific
Ã¨ re
Ġdrug s
ih on
ĠIceland ic
ĠDomin ican
agn ie
ĠMarsh all
ĠAmaz on
Ġbarrel s
C an
G E
P ort
T L
d ge
f r
g overnment
g row
l on
s ometimes
t op
in ch
es is
Ġs eed
om m
om an
Ġp age
re ens
ĠC atal
Ġm ine
Ġm aster
Ġm useum
ĠT ea
ĠT iger
ĠA ber
ĠA udi
ĠI L
ĠM eg
ĠM ann
ol ic
ĠP el
ĠL ang
ĠL earning
ĠG il
ĠG rant
ĠR u
ĠR aleigh
ĠN ex
ĠN avy
ĠD eath
ig aisha
ĠH ous
ĠW ool
ĠJ erry
ĠK aisha
Ġhe art
Ġpr inters
ĠV el
ĠUn d
ill ery
Ġch ild
ĠAir line
ant age
ĠRecord ing
The ir
Ġad min
ĠPr ime
ry pt
Ġout let
Ġemploy ers
Ġfl o
ĠTr ad
ĠGre y
Ġed itions
ĠMon te
19 80
Ġ194 1
ĠWar ren
ches ter
Ġport ion
Ġpromot es
Ġback ed
Ġdec l
Ġdec ades
Ġdef ence
Ġchang es
Ġvis itors
Ġship yard
sk y
Ġrecogn ition
ĠHer z
Ġprincipal ly
ĠAlex and
Ġword s
ĠSev en
Ġrequ ire
ĠOak land
Ġcompos ite
Ġtick et
ĠDay ton
Ġappear ed
ĠBalt ic
Ġcharg e
Ġcam era
Ġread y
raf ts
Ġveter an
Ġgar age
ĠOwn ed
ĠDer by
ĠWars aw
Ġoptim ization
Ġeffor ts
ĠInstru ments
uron ext
Ġrif les
ĠStew art
Ġrough ly
ĠLibr ary
6 6
B SE
F S
H ead
J et
S outh
g art
k j
o ir
o oth
v ale
Î »
å į
in os
at em
Ġc redited
Ġs ets
Ġb anned
Ġf unction
Ġp ers
ĠC inemas
ĠS I
ĠT ampa
us u
ĠM P
ĠB oul
ĠB MW
ĠP ot
ĠL G
ĠL ock
ĠF uture
und er
und ai
ĠN i
ĠN ed
ĠN ich
per formance
ĠH ug
Ġg et
Ġg rap
ĠU bis
ew ork
ect ed
Ġor e
ard o
Ġk eep
Ġcom edy
Ġtr am
ĠY ellow
ĠBr as
ĠAl ong
ĠAl ternative
ĠAl ban
ik igaisha
ĠAr r
eral s
Ġun incorporated
ĠSh aw
Ġ18 00
ĠTel ekom
Ġinter ior
Ġsc ient
Ġwhol e
Ġappro ved
Ð° ÑĢ
ĠEd monton
Ġsupport ing
Ġpromot ed
Ġgener ating
Ġle ast
Ã¼ n
Ġalong side
Ġdeal er
Ġut iliz
ĠStr a
ĠStr ateg
Ġinst ead
Ġstrateg ies
Ð¾Ð ²
Ġtour s
Ġtour ist
ĠMag n
Ġpartner ed
Ġemerg ency
net ic
ĠCamp bell
ĠHun t
Ġinfl u
ÐĲ Ðŀ
åĽ ¢
Ġconstruct ed
ĠBalt imore
ĠDisc overy
Ġfunct ional
Ġalumin um
ĠBerk shire
Ġdise ase
ĠLuc as
Â» )
ĠWay ne
Ġporn ographic
Ġregard ed
éĽĨ åĽ¢
Ġill ustr
Ġkilomet res
uis ine
alg am
ĠRal ph
Ġveg et
ĠUbis oft
4 9
C ap
T O
g r
k ing
n ational
o id
r ill
r ition
r iger
s berg
Â ®
æ µ
ì Ŀ
es ellschaft
Ġc rowd
en berg
Ġs un
Ġs ex
Ġs een
Ġthe ater
Ġb ear
Ġb ond
Ġp orts
Ġp eer
ĠC os
ĠC ement
ĠS pe
ĠT ro
ĠA V
ĠI SP
ĠM S
ĠM useum
ĠB end
ut es
Ġh yd
ĠL ead
ĠL ima
ĠL arry
ĠG a
ĠG ard
ĠF riend
ĠE th
em pt
ĠH il
ĠW ol
ĠW heel
ĠJ enn
ĠJ ama
ĠK ings
Ġr ate
ĠSt aff
ĠO ri
os it
ap es
od ge
Ġcom merce
ãĥ Ń
Ġent hus
Ġtrans action
pro du
Ġall iance
Ġ4 3
Ġ4 6
ĠCl ar
ĠAd ams
umb ers
Ġprof its
ĠAm b
Ġdirect ed
Ġprocess ors
ĠGu y
ĠBus es
Ġacc el
ĠMc L
uk u
Ġ190 4
Ġ190 8
Ġ190 9
Ġtop ics
Ġsol ely
Ġsur face
ĠSec ond
Ġlit erally
ĠSA P
Ġref ining
Ġpat ients
Ġregul atory
Ġiss ue
ĠSam sung
Ġext ended
ĠFre ight
Ġcert ification
Ġprem ier
ĠRail road
Ġinitial s
ĠRh ode
ĠKe ith
ĠHal ifax
ĠOm aha
ĠJon athan
ĠChamp ionship
ĠSund ay
Ġearl iest
styl ized
Ġtabl et
Ġsubject s
ĠChap ter
ĠRestaur ants
ĠGuang dong
atin um
Ġsusp ended
Ġfig ures
Ġlas er
Ġdispl ays
ĠAdvertis ing
Ġtob acco
Ġumb rella
8 5
8 00
A B
B e
D O
G en
N T
P l
P ers
f ull
f oot
p rom
u els
Ä ĥ
É ¡
× Ļ×
Ø ³
æ ¸
Ġt em
Ġt ape
he st
Ġc it
Ġc ass
en ic
Ġs out
re le
ĠC ourt
ĠT est
ĠT ouch
ĠI CA
il s
ĠM embers
Ġd ental
ĠB ass
ĠP ap
id g
ĠF un
ĠN O
ĠN elson
ĠN acional
Ġn ick
ĠD ead
ĠD ix
ĠD uke
Ġas pect
tr ess
ĠH ann
ĠU N
ĠW are
qu ality
ĠJ osh
Ġr iver
ord able
ap se
Ġal ready
arg e
Ġch art
ang ul
Ġac o
âĢ ľ
ock ey
ãĥ ŀ
Ġ4 7
ĠCar n
Ġab ility
Ġbook ing
Ġ6 000
Ġ194 2
amb o
ĠGu j
Ġpurch asing
ett es
Ð¸ Ð½
Ġdec ision
ĠIT V
ĠIm age
ĠMed iterran
ĠPre viously
Ġpat ents
Ġdeliv ering
ĠTw itter
Ġoffer ings
Ġgo ing
Ġdist ance
Ġbas ic
Ġcontain s
ĠHy undai
Ġselect ed
Ġsyn d
ĠAÃ© re
Ġware hous
ĠDyn amics
Ġcooper ation
Ġconfer ence
bu ilt
Ġprec ision
Ġbelong s
Ġdiss olved
Ġhundred s
Ind ia
ĠNam ib
ĠScandin avia
ĠMaur it
ĠMit chell
ĠPun j
ĠLloy d
Est ablished
ĠTeh ran
ĠKuwa it
A fter
C ola
G u
M B
M ax
f riend
p ts
z er
Ã «
Î ½
× ķ×
à §
Ġ x
in as
he t
Ġf lex
Ġw ant
ro g
ĠS qu
ĠS eb
ĠS eg
ĠS ierra
ĠT S
ĠT Åį
ĠA ce
ĠI an
ĠB T
et ic
Ġh on
Ġh its
ĠL eeds
ĠG er
ĠR F
ĠR ose
ĠF e
ĠF ull
ĠN an
ĠE ach
ĠD ur
ĠH ab
ĠH ok
ev ille
ag h
ĠK ur
Ġr are
ĠSt e
Ġcon ventional
ĠV est
og a
ail s
ok er
Ġpl aces
ens es
ens en
Ġco ol
iss e
ri er
Ġwork force
Ġass ess
Ġ4 1
ĠTr ib
oh n
Ġup d
ĠFor um
Ġ100 000
Ġdo uble
ĠBar ry
Ġ190 7
Ġanal og
Ġshort ened
à® ¿
ĠMor oc
sour ce
Ġconglomer ates
Ġhelp ed
Ġut il
ĠHol id
ĠHol land
Ġmodel ing
Ġrece ivers
Ġpharmaceutical s
Ġsix th
Ġaffili ates
ĠTaiwan ese
Ġaer ial
Ġsuccessful ly
.. .
ĠBanc a
Ġbo at
ĠStev en
Ġsw it
Ġdocument aries
Ġâ Ĩĳ
Ġmeas ured
Ġincre ased
ĠAÃ© reas
ĠNav igation
Ġclos ely
ĠSerb ian
Ġtick er
part y
ĠRand om
Ġimprov ement
ĠHor izon
Ġpot ential
Ġbene fits
Ġä¸Ń åĽ½
Ġsens ors
Nor wegian
ĠGord on
ĠSatur day
M P
M art
T ube
i ol
i ency
i enced
s ite
v o
w anda
z o
Ġ è
Ġ ì
Ġ 000
on ly
es c
Ġin ternal
ic ts
Ġp ick
Ġis lands
ĠS or
ĠS ig
ĠS ag
ct or
ĠM W
ĠM ate
ĠM ak
ĠM ort
ĠB attle
ad ia
Ġh ig
Ġh ours
Ġh ims
ĠL ic
ĠL ord
ĠL ans
ĠG aisha
ĠG ÅįngsÄ«
ĠR oth
ĠF ive
ĠF ore
ĠN ok
ĠN ihon
Ġn am
ĠW ave
ĠW inter
ound s
Ġhe dge
ew ater
ĠV oice
ak u
Ġch all
Ġex cept
ire ction
ĠNor man
Ġad j
ĠSh are
Ġro y
Ġform ation
ash ire
az e
ific ial
Ġappl iance
Ġam usement
te au
19 7
ĠRes erve
Ġautom atic
Ġcontro vers
Ð¾ Ðµ
ĠAll ied
ĠManag er
Ġqu est
CA R
Ġpopular ity
Ġ16 0
Ġbi om
ĠMont ana
Ġopt ions
Ġchar itable
Ġmar que
wh ere
Ġsuburb s
iag o
Ġtarget ing
Th is
ĠDef ence
ĠKar achi
Ġliquid ation
ĠNort heast
Ġcontinu ously
Ġspons or
Ġcond ition
ĠEcon omic
ĠWat son
ĠBerk eley
ĠMond ay
Ġmethod s
ĠLanc ashire
ĠHist or
utt gart
idel ity
ĠTun is
Ġdepart ments
Ġmonop oly
Ġenfor cement
Ġhig hest
Ġhims elf
O D
O SE
U A
a wn
a uc
b ad
c ol
f ront
j et
m ers
m ill
p ur
s uch
v ik
w ave
w iches
Ġ er
on ald
es h
Ġc and
Ġc uisine
ar ant
Ġs oul
Ġs equ
Ġf ee
Ġf ertiliz
Ġw eap
re tt
ĠC J
ĠC ra
ĠC ream
ĠC oca
Ġm ountain
el t
Ġl inks
Ġd ating
ur ance
ad y
ut o
ut ures
Ġpro gressive
ĠL ane
ĠG row
ĠG lo
ĠG aming
ĠR E
ĠE ug
ĠH S
ĠH av
Ġth in
Ġg all
Ġg rid
ev o
Ġr ight
Ġr ace
Ġr ides
ĠSt uttgart
ud er
um ed
ĠV ers
ĠV ista
od ia
rom e
av ian
ard e
Ġrec ruit
Ġac claim
ĠBr ighton
ric s
ik o
Ġ3 50
ĠMar itime
oll o
ĠTr ack
ĠCon tract
Ġinter face
ĠPl atform
Ġev er
res p
af Ã©
Ġinc orpor
ĠElect ro
Ġmov e
Ġmak ers
ĠBel arus
ux i
Ġsim ul
Ġsign al
let on
Ġdo or
ĠPer formance
Ġ190 3
Ġexper ienced
ĠAnd y
CO M
à¤ ¿
ĠPark er
Ġsol id
ĠSun ny
Ġref lect
Ġref riger
Ġpack age
ĠAdv is
ĠBur lington
Ġder iv
Ġmerch ants
ĠBoy s
ĠWell ington
Ġtheat rical
ĠStan ford
Ġclos ing
Ġpo ints
room s
ĠRap id
Ġsmart phones
ĠColl ins
ĠTheat re
ela ide
Ġconsolid ated
ĠAlf red
Ġgran ted
ĠCir cle
ĠSter ling
Ġlat est
ĠCommod ore
ĠPeters burg
Ġphotovolta ic
A I
A O
A cc
C on
H I
J apan
M T
M an
N E
N P
V R
V al
a e
b ar
c all
f are
o ons
p erson
t hes
y ing
Ã ī
ä ¿
å Ń
es ville
en er
en ess
ar est
as ia
Ġp ages
Ġp aint
re ct
ĠC ath
ĠT in
ĠT ec
ĠT itan
us er
ĠM D
ĠM ega
Ġd en
ĠB it
ĠB AE
am as
ĠR yan
ĠF erry
Ġg ot
Ġhe ating
Ġe B
os es
Ġpr ime
ĠV inc
og ic
iz en
ob e
igh ters
ant e
ĠBr un
ock et
int osh
Ġreg ga
ĠPr int
Ġstor y
ans a
Ġemploy ment
ann ers
ĠSp irit
ah oo
Ġ4 2
Ġ4 8
Ã© l
ram ework
ĠBl ock
Ġbook store
its u
Ġam bul
til es
ĠAt t
au er
ĠÐ ľ
ces ter
Ġdr ives
ĠGu ild
Ġpop ulation
Ġ12 5
ĠSu z
Ġinstitut e
Ġend ed
Ġthem e
Ġ15 00
ĠMotor cy
Ġ189 9
the tic
ĠAdv ent
Ġ188 5
ĠChe v
Ġbeh av
200 8
Ġclaim ed
Ġsk ate
Ġallow ed
ĠChen g
Ġincre asing
Ġche ese
ĠRev olution
Ã¦ r
Ġcond itions
Ġbring ing
Ġpharm ac
ĠVehic les
ĠAlph a
ĠEnvironment al
Ġcurr ency
ĠLithu ania
rys ler
Ġtrol ley
ĠTasman ia
ĠBoul der
ĠMediterran ean
C omp
H P
c or
h aps
m und
r ie
u in
y ond
Å ŀ
Ï Ĥ
Ġ ord
ed a
at rans
en ch
ar et
Ġs ons
om ics
Ġb ill
Ġb odies
Ġp ictures
ĠC art
ĠC av
ĠC hester
ĠS L
ĠS ong
ĠS earch
el le
ĠT X
ĠT i
ĠT ed
ĠA mer
un ch
un ting
ĠM E
ĠM ack
ĠM GM
Ġd yn
ĠB oth
ol ec
ĠP L
ĠP eng
id en
ĠL ist
ĠL evel
ĠL ower
ĠR ut
Ġn ort
ĠD iv
ĠD ist
ĠD ance
tr ad
Ġg a
Ġg re
Ġan c
ot hes
ess e
Ġv entures
os en
ĠV A
ĠV ic
ĠV ern
og ether
ĠCh and
Ġdis contin
anc ing
ors hip
ãĥ £
ĠSh er
sh ort
ĠPro p
ĠTh at
erman ent
aj a
Ġco aches
ĠTr in
Ġper iph
ĠAd elaide
Ġam ateur
ĠPl us
ĠOr iginal
ĠOr acle
Ġ194 3
Ġdirect ory
osp el
ĠGu atem
ĠGen eration
ĠDe ep
ĠJu an
ĠFranc is
Ġapp oint
Ġexper iences
ĠGr ill
à® Ł
Ġcomm itted
Ġpack aged
Ðº Ð¾Ð¼
âĢĿ )
ĠFound ry
atell ites
ĠVer k
ĠMo ore
Ġcell s
ĠPan ama
Ġconc rete
Ġcr ude
Ġphys icians
Ġemerg ed
Ġroll er
ĠMits ui
Ġmunicipal ity
Ġperform ed
Ġclos ure
Ġtake over
Ġinsp ection
ĠSant iago
Ġwood en
unn el
ĠUs ers
ĠEp ic
Ġhydro electric
dr iven
Ġcer tain
Ġpharm acy
ĠVo IP
ĠSpect rum
Ġcour se
Ġcommod ity
ĠAh med
controll ed
Ġamplif iers
Pers ian
' )
6 4
F I
F X
G P
K B
M D
N Z
d ef
f ab
p os
r us
v ar
x i
É ¾
Î º
Ù ģ
Ù ĩ
å Į
Ġ ess
Ġ ult
Ġ à¸
ed o
Ġc ast
Ġs our
it ol
om on
Ġb ridges
Ġf iles
Ġf itness
re b
ĠC arter
ĠC urrent
ĠS ource
ĠT ree
ĠM V
Ġd ied
Ġd rop
ĠB aker
ĠP ione
Ġto uring
ĠL A
ĠL ak
ĠL ater
ĠL ocal
ĠL aunched
ĠR ot
ĠF A
ĠF at
st ra
ĠN a
ĠN ut
ĠN airo
ĠD und
ĠD ell
Ġg rain
Ġg aisha
ot ics
ĠW ord
ĠW right
ĠJ oy
ĠK ay
ĠK um
ĠO g
ay an
Ġhe ct
art z
ac ent
ip lin
if ications
ob il
pl anes
ĠY ang
mun ition
ĠAn ch
Ġund erst
ãĥ Ĺ
Ġcoun ter
Ġ5 2
Ġacqu iring
Ġim porter
Ġ9 9
ett i
Ġsim ple
itt ee
ĠComp agnie
ĠRe uters
ĠMac intosh
Ġcomm ission
ĠBelg rade
ĠArab ic
Ġpersonal ized
onom ous
ĠAdv ance
Ġno ise
Ġmen u
à¯ ģ
ĠGro ve
Ġche ck
mar ine
Ġtransl ation
Ġperform ing
ĠBan que
Ġconcentr ated
Ġconduct s
Ġcirc uits
Ġterrit ory
styl ed
Ġbene fit
ĠKir k
Ġalcohol ic
Ġprepar ation
Ġphil osoph
Ġvolun te
Ġwholesal er
ĠFurn iture
ÑģÐºÐ¸ Ð¹
ĠWor cester
ĠAlexand ria
Ġscient ists
Ġgre ater
ĠNairo bi
3 2
C ity
G S
a is
b au
f ax
i able
j oy
l s
l isted
n ight
u y
w ealth
è ¨
Ġ Ùħ
an ium
Ġt ons
Ġt err
Ġc aus
Ġc ycle
en ge
Ġs now
Ġs aid
ic ing
Ġp um
Ġp sych
ĠC R
ĠC anton
ĠS en
ĠT ong
ĠT alk
Ġl ength
ĠM aterial
Ġd one
Ġd irection
ĠB in
ĠB eg
ĠB enn
ĠB ert
ĠB erm
ĠB onn
ĠB aby
am ber
id ian
ch t
Ġh oc
ĠR ol
ĠR af
ĠR wanda
ĠF all
st age
Ġn eg
Ġn ever
ĠH erman
im al
ain ts
ĠK ol
Ġr ated
th ing
ĠSt at
ĠO man
Ġv on
ĠV iv
iz h
ĠCh i
pl atform
Ġprov ision
Ġsp ring
eg ro
ĠY ok
ĠY ahoo
ond er
Ġover all
ron ics
Ġro t
ember g
Ġform ing
uc ester
ĠPr ague
Ġ4 0000
Ġacqu ire
Ġim pact
ĠKing ston
com ing
com mod
Ġde ep
Ġinter view
ĠAm iga
Ġ194 4
ĠÐ °
uck s
Ġprocess or
ĠDe an
Ġsign ature
Ġqu al
Ġbl ue
ĠHe in
ĠKabush ikigaisha
isc al
ship s
ĠPet e
Ġaff ordable
Ġrank ing
Ġ189 0
Ġ189 3
ÃŃ ne
Ġref ers
Ġcover ed
Ġmar itime
duc er
Ġsk ills
Ġconc ert
ei ro
Ġcop ies
Ġagre ed
Ġgrad uate
Ġrequ ired
ĠUp per
Ġprop ellers
Ġstruct ural
ĠWi i
ĠCru ises
ĠRay mond
Ð¿ Ð°
ĠMov ie
Ð½Ð¸ Ñı
ĠShar p
Ġstyl ized
ãĥĥ ãĤ¯
ĠRestaur ant
Ġwe ight
Ġdoll ars
ĠFil ip
ĠWy oming
build er
ĠPrinc eton
ĠAur ora
ãĥĩ ãĤ£
Ġreserv es
ĠBuch arest
Ġgrap es
ĠMaurit ius
ĠGlo ucester
Ġga uge
ĠTrin idad
6 2
R oy
c ut
c ape
f ire
h ing
h ra
h ire
k es
m ir
s erv
s ong
s ee
u um
Ú ©
ï ¼
Ġ if
on ial
is a
Ġin side
Ġc ran
Ġc ris
Ġs coo
ic ed
Ġb ath
Ġb illing
ĠC ash
ĠC ulture
ĠS AS
el ve
ĠA R
il ed
Ġl ost
ĠM C
ĠM M
ĠB ush
ad ium
ĠP ure
ĠL em
ĠG em
ĠR as
le m
ĠF rid
est ed
ĠIn v
ĠN ight
Ġn omin
ĠD NA
ĠH ip
ĠH ost
Ġg ay
Ġg ive
Ġg irl
ĠK rist
Ġr ice
th ansa
ac use
ew are
Ġpr omo
um es
ĠV I
og o
og urt
Ġown ing
Ġsp eak
ĠNew port
for t
ĠY our
oy a
ik k
ãĥ ĵ
ãĥ ł
Ġy ou
ah r
Ġim ag
ĠPh ys
ram ento
ĠBl ues
Ġup g
ĠGu ine
ĠGu ard
Ġgas oline
ĠBel fast
ford shire
ĠPart ner
market s
Ġaud iences
Ġ191 5
ĠEl s
à® ķ
Ðµ Ð½
ĠRo om
Ġsol o
ĠIm ag
rad or
ĠSec ret
Ġrailway s
Ġleg isl
Ġfle w
ĠFound er
ĠRom an
app y
Ġob tained
Ġsound tr
Ġpron ounced
ĠHy per
found land
ria ge
ĠSon ic
ĠUr ugu
Ġocc as
Ġse afood
Ġbott les
ĠChemical s
ĠPlan et
Ġterminal s
Ġtabl ets
cell ence
Ġfrequ ency
Ġcult iv
Ġinvent ory
ĠSyr acuse
Ġsand wiches
Ġcarry ing
Ġrapid ly
ĠPharm a
ĠMunicipal ity
Ġconvers ion
ĠOlymp ic
ĠSud an
æĸ °
Ġrecre ational
Ġtun ing
Ġfold ed
ÇĴ uxi
ĠLeban on
Ġamb ient
Ġdecl ared
iplin ary
3 8
4 2
4 7
A ustr
L ine
M L
T H
T N
T oday
W C
a ud
l en
l ia
m i
n ot
o i
p et
s up
u ates
v ant
w en
z y
Ã °
Å Ħ
Ç Ķ
Ð ļ
Ñ Ħ
á ŀ
æ °
Ġ 00
Ġ à¦
Ġt ub
Ġc igar
ar u
Ġs atellites
it ro
Ġb etting
Ġw ire
ĠC ore
ĠC isco
Ġm olec
ĠS C
ĠS D
ĠT it
ĠT reas
ct ic
Ġl ab
Ġl oy
ĠM ission
ĠM aid
Ġd raw
ĠB un
ĠB MG
ir ie
et ters
ol ly
ĠP f
ĠP ix
ĠP une
ĠP erson
ch o
Ġh um
Ġpro c
ĠL oc
ĠL ud
ĠG olf
ĠR ac
ĠF L
st anding
Ġn inet
ĠD airy
ĠD iesel
ĠH utch
ĠH iro
Ġg ood
ĠU til
im o
ĠW A
ĠW a
ĠW ings
ĠJ ung
Ġr ub
Ġr ac
ĠO ber
ish er
Ġe uro
os a
og en
iz a
ĠCh uck
av or
Ġrec ip
ra h
ra wn
ber ry
ĠNew ark
ĠNew foundland
anc a
enc ia
Ġcre ators
pro duct
Ġret irement
ĠEx t
iss ance
Ġinvest ig
ind ustr
ĠTr ip
arm a
ãĤ ¿
Ġim prints
Ġafter market
ĠTel ef
Ġper haps
Ġed ition
ĠMon ter
ĠPar ad
ĠStud ies
AS A
ĠHar vard
Ġcontract ed
con nect
Ġexper ts
ĠMil ton
ĠAtl as
Ġhelp ing
Ġ189 8
erb ai
ots w
Ġcomb ines
Ġ188 9
Ġatt empt
Ġtechn o
ask et
Ġdocu ments
Ġfarm s
iff e
Ġsw itch
ĠJim my
Ġcop yr
fl ow
Ġconsist ed
Th ere
Ġmunicipal ities
ĠMod ern
Ġher itage
Ġpolit ics
str ong
Ġassist ance
Ġdatab ases
Ġconduct ed
ĠMob ility
ĠNot able
Ġmeet ing
ĠYou Tube
Ġide as
Ġmill ions
ĠFer ro
ĠTob acco
Ġinvolv ement
yth m
ĠTechn ical
Ġprec ious
Ġimplement ation
power ed
ceed ed
ĠLuf thansa
ĠEc u
ĠAnal ytics
ĠCov entry
Ġju ice
æ¸ ¯
Ġaspect s
Ġnam ely
atrans it
ĠPeng uin
ĠPione er
/ )
B y
C orp
P N
S W
c ue
d al
d ev
f re
f ers
k h
m as
m edia
p op
r ation
t hen
å »
Ġ ÙĦ
ĭ [
is en
Ġc ab
Ġc hem
ar row
al one
Ġw restling
Ġp oor
ĠC I
ĠC in
ĠC ine
Ġm and
ĠT ier
ĠT ake
ĠT ax
ĠT odd
ĠA ction
ĠI g
ĠI z
Ġl iv
ĠM TV
ir its
ol t
ĠP S
ĠP ool
ĠP ath
ĠP orts
ut ic
Ġh us
ĠL or
ĠL iqu
ĠG am
ĠR ud
ĠR over
ĠF ern
ĠN on
ĠN iss
ĠN uclear
ĠD eal
ĠD HL
ab a
ĠH at
ĠH as
ĠH ert
Ġth us
por ters
ĠK ro
Ġv int
ew ares
ap est
Ġal um
Ġpr est
ĠV in
ĠV ent
ĠV IP
ĠUn i
ib les
ĠCh ase
Ġbe yond
Ġac commod
ĠY outh
ĠAr lington
Ġar r
ual a
ãĥ ĳ
ãĥ Ł
ue z
ĠPro gress
ĠTh r
ĠTh er
ros e
ĠMar s
Ġtw elve
ĠCon f
ph y
ĠMon ey
ĠâĢ ĭ[
Ġacc redited
ĠMin i
ĠVal ue
ĠComp uting
ĠRe in
ĠGr iff
Ġle ases
ĠBrew eries
Ġanal yt
Ġdisc ip
Ġcompet e
à¸ £
Ġchang ing
sour ced
Ġinterest ed
Ġclass ified
Ġgu ide
Ġ189 5
Ġ189 6
ÃŃ k
ĠPC s
Ġref inery
Ġmaintain ed
ĠSal v
Ġunivers al
ĠCap itol
Äģ n
ĠAssoci ated
ĠEv ans
ĠDVD s
ĠLab rador
ĠCru z
ĠChile an
war eness
Ġdu o
ĠKa iser
ĠLabor atory
Ġcooper atives
Ġbroadc aster
Ġstyl ed
Ġblog s
Ġroom s
ĠHist ory
medi ate
Ġfail ed
ĠRub ber
Ġven ues
Ġbatter ies
Ġfem ale
Ġdiagnost ic
à± į
Ġnut rition
ĠSac ramento
ĠCommon wealth
ĠZag reb
ĠBras il
ĠArr iva
ĠGuj arat
ĠNamib ia
Ġflex ible
ĠVern on
ĠGuatem ala
Ġphilosoph y
A G
B ar
C ar
C urrently
K P
a Ã±
b oy
c ons
d een
e or
f aces
g ro
h as
n ell
s ka
t u
t z
u le
w ers
Î ¼
ç §
é ģ
Ġa id
ar f
Ġs ew
Ġs ized
it ude
Ġb ridge
Ġb read
Ġw eather
Ġp ension
re c
ĠC ran
ĠC old
ĠC arm
Ġm eal
ĠS now
ĠS ym
ĠT ick
ĠT erry
ĠA PI
ĠI M
Ġl im
ĠM ine
ĠB ord
ĠB ee
ĠP ad
ĠP ul
ĠP ick
ch annel
Ġh ere
ĠG lobe
ĠR out
ĠR ick
ĠR ural
le as
ĠN V
ĠN ott
ĠE ld
ĠE uronext
ab et
ec raft
ĠW u
ag ers
Ġst ages
Ġ200 00
ew ay
ip per
ĠV ert
io v
Ġtr actors
Ġpl ays
Ġres ort
ĠSh ad
hen burg
Ġco ordin
Ġemploy er
ãĤ «
enn y
Ġab ove
Ġcent ered
Ġsev enth
Ġsc r
pt ion
ĠMon ten
ĠPar s
ĠMid d
ĠEd ge
uild er
ĠEst onian
Ð½ Ñĭ
ĠRob inson
ĠReg ister
Ġcare ers
Ã¼ ss
Ġlong est
Ġsports wear
ĠMil itary
Ġtechn iques
Ġdestin ation
esp oke
ĠCy ber
ĠDon ald
Ġbo ards
ĠProv ider
Ġel ements
Ġlaunch ing
ĠOrgan isation
Sh are
ĠHung arian
ĠEle k
Ġtick ets
ĠAz erbai
Ġfeed er
äº ¬
ĠMic hel
Ġjob s
ĠBad en
Ġdepos it
Ġcommod ities
ĠBever ly
ĠFreder ick
Ġpil ot
Ġanaly z
ĠNors k
Ġelev en
Ġimmig rant
Ġminor ity
Ġcompar ison
mins ter
ĠPric e
ĠTian jin
ĠDI Y
æµ ·
Ġaccel er
Ġaco ustic
ĠPunj ab
ĠNok ia
Acc ording
Ġskate board
Ġdiscontin ued
Ġhus band
3 3
6 00
B E
H D
L T
M e
P R
S G
S oci
T o
b ow
d own
f rom
f ocus
h l
j u
l ad
s son
s ki
t te
¦ Ļ
Ñ Ĩ
Ù Ĥ
Ġ els
Ġt echnolog
on i
or o
Ġc ables
it omo
as aki
Ġb al
Ġf iscal
ĠC C
ĠC ut
ĠC hes
ĠS ak
ĠS MS
ĠT u
ĠI V
Ġl oud
Ġl apt
ĠM i
Ġd est
Ġd eg
ĠB ab
ĠB ou
ĠB esides
et ime
ch ild
Ġh our
Ġh air
ĠL y
ĠR ent
ĠF lex
ĠF arms
Ġre tained
st own
Ġfor ward
iv als
Ġn umbers
ĠD et
ĠD ot
ig ur
ia c
ĠH ut
Ġg am
Ġan th
ĠW ilm
ain e
ĠJ ustin
ĠK id
ĠSt u
ĠSt orage
act or
Ġv ent
ap h
ist on
Ġor iented
end a
Ġch ip
av ÃŃk
Ġbe gin
Ġcom ing
ra ul
eb all
pr ing
Ġsh ould
ĠAr bor
Ġad s
ãĥ §
form ally
Ġtel ev
urr ay
Ġ5 4
Ġfl u
Ã© bec
ets u
Ġim mun
enn ium
ĠSc reen
Ġvar iet
ĠFl ug
Ġsc reens
Ġam algam
ĠOr b
Ġed iting
19 0
au ce
Ġresearch ers
ĠÐ ¡
ĠRes ource
ĠDe ut
Ġold er
Ġport als
ĠLe isure
Ġdo zen
Ġqu oted
ĠSu ites
Ġstock s
ĠRob b
Ġhand led
Ġhand made
ĠAnd hra
ĠMer ced
Ġcompet itions
Ġ11 0
thern et
Ġgu ides
Ġ189 7
Ġcap abilities
Ġplant ed
Ġpat ient
Ġphot os
Ġbuy ers
Ġartist ic
ĠPakistan i
Ġred uce
ĠFre edom
ĠBen j
Ġ22 5
ĠHigh way
Ġbel ow
Ġsw im
ĠOl iver
Ġbeg un
found ers
Ġsyn thes
ias ts
Ġident ify
ĠToy s
Ġtransl ated
ĠClass ics
ĠHun ter
Ġfederal ly
ĠUl t
Ġpip eline
go ing
ĠRoll s
ĠHon ey
Ġbox es
At lantic
ĠRey kj
ĠGra ham
Or iginally
Ġseason al
ĠFish er
ĠFle et
Ġbatter y
Ġvert ical
ĠBarb ara
ĠPor ter
ĠTool s
ĠIntegr ated
ĠTerrit ory
ĠBurg er
ĠPhill ips
ĠVia com
ĠGot henburg
ĠNewsp apers
Ġtex tiles
ĠForm ula
Ġspect rum
Ġrequire ments
Ġenthus iasts
ĠMate o
ĠEug ene
ĠHS BC
resp ond
ĠCath olic
fab rik
ĠBerm uda
3 9
7 9
B el
C N
F irst
G reek
H A
H angul
N e
O ut
R D
T rans
V ision
a on
b ing
c at
c end
d i
f ly
g om
g io
h aus
i w
i eb
l it
l imited
n ame
n ames
o itation
s elling
Å Ĥ
É Ĳ
Ï Ģ
Ð ľ
× ¨
á »
ä ½
er ia
er ie
Ġt ro
Ġt able
Ġt een
Ġa wareness
ed er
it led
Ġw ave
Ġp or
Ġp en
ĠC and
ĠC ec
ĠS ad
ĠS uf
ĠS ey
ĠI ber
ĠM illion
ĠM ead
ĠM aj
Ġd augh
ĠB P
ĠB ible
ĠB eck
ad h
ĠP y
ĠP ac
am o
ut tle
Ġh ire
Ġh obby
ĠL ut
ĠL ey
ĠL eh
ĠL yon
ĠG A
ĠG y
ĠR O
ĠN un
ĠN est
ĠE thernet
ĠD B
ĠD art
ĠH ear
Ġth ink
Ġg un
ub a
im ent
ĠW ines
ag an
ain less
ĠK un
ĠK em
Ġr ating
Ġr aw
ĠO TC
Ġe y
Ġv er
ank s
Ġhead s
Ġrec ycling
Ġex ternal
ĠY e
ĠBr y
ĠBr ass
Ġen s
Ġen abled
Ġcl othes
ik h
ĠNor folk
Ġad ap
Ġmain stream
ãĥ ¡
Ġun ions
ĠCo ol
aw i
aw k
Ġy ach
ans k
ros cop
Ġact ing
ĠBl ood
ĠCent ers
ĠTel eg
Ġpre paid
urg ery
ĠPl aza
Ġ7 8
te k
Ġprof iles
ĠÐ ·
Ġart ificial
Ġbrew er
ĠQu est
ĠQu ant
ĠMal ta
ĠHar old
gl ing
Ġsign ing
Ġsche me
ĠMin ato
Ø§ ÙĦ
Ð½ Ð°
Ġgener ic
ĠEm ploy
Ġrespons ibility
ĠGr ay
ĠTransport es
Ġrem ov
à® ®
Ġ17 0
ĠTur in
ĠBroad cast
Ġregul arly
ĠLib ya
Ġprinc ip
Ġimport ed
Ġrecogn ised
tt emberg
olid ated
Ġtext books
Ġsyn thetic
ãĥ¼ãĥ «
ĠiP ad
Ġfriend ly
Ġgr ade
Com merce
ĠSum itomo
Ġdescrib es
Ġneigh bour
Ġadul ts
ĠPeru vian
ĠNort on
Ġbroadc asters
ĠBut ler
ĠJew ish
ĠCustom er
Qu est
ĠScandin avian
ĠVehic le
Ġcut ting
Ġvert ically
Ġschol arly
ĠÐŀ ÐĲÐŀ
onym ous
Ð°Ð² Ð¾Ð´
ĠIntellig ence
ĠAber deen
Head quartered
ĠNich ol
ĠStaff ord
produ ced
ĠAÃ©re os
ĠMoroc co
Ġadj acent
Ġweap ons
Ġspeak ers
ĠGuine a
¦Ļ æ¸¯
5 000
A g
B N
B r
E uro
G o
H z
I V
K K
M et
R e
T rad
U L
c ase
c ope
d in
i op
l ife
p ite
t een
t hem
w ire
í ķ
Ġ ur
Ġt act
Ġt ill
ic om
Ġb rain
Ġf ra
Ġw ing
Ġp ian
ion i
ion es
ĠC ed
ĠC ay
ĠT ap
ĠT ek
Ġd ark
ur u
ur er
ĠB il
ĠB ish
ĠB ott
ĠB ody
ĠB etter
ir us
ĠP ent
id ance
Ġh unting
Ġpro b
ĠL anguage
ĠL akes
ĠG at
ĠG un
ĠR ights
ĠF antasy
est o
Ġre port
Ġre tain
ĠN ak
ĠN athan
ĠE g
ĠE t
ec a
ĠH um
ĠH arm
Ġg rand
ot ech
ĠW end
ĠW restling
ĠK ap
ĠSt am
Ġcon j
if ts
ib l
ĠCh icken
pl us
Ġrec omm
Ġex ported
Ġex erc
Ġsub stant
Ġpl ug
our ney
Ġpart ies
ĠAl so
ital ia
Ġun s
Ġy et
Ġcoun cil
Ġret ired
ivers ary
ah l
Ġfl ow
Ġnew ly
Ġequ ival
ĠPh one
Ġcommercial ization
ĠCar r
ĠCar ac
ĠCl othing
Ġup per
Ġrel igious
yl inder
ĠItal ia
ĠMon ro
19 5
Ġlaw s
Ġpass ed
ĠEd itor
Ġbl ock
Ġadvertis ements
ĠHe ights
Ġback ground
Ġhand les
Ðµ Ð»
ÑĢ Ð°
ĠRed wood
ĠMil k
ĠLa uder
ĠPre c
Ġphot ograph
Ðº Ð°
ĠChe l
Ġext ension
ĠCy cle
Ġ187 6
ĠAutom ation
ĠAutom obiles
ĠStev ens
Ġcontain ing
ÉĻ r
Ġconc erts
Ġresult ed
Ġlast ed
Ġsuburb an
Ġcost s
Ġcivil ian
Ġdet ection
Ã¼r ttemberg
Ġå ¤
Ġgrad uates
Ġfr ag
Ġfr ames
Ġstartup s
ÐĲ Ð
Ġread ers
Ġshe et
ĠTer ra
Ġpan el
Ġpan els
ĠÄ °
ĠHart ford
ĠAdd itional
ãĥ³ãĤ °
Ġathlet es
Ġstar ring
Ġven ue
Ġfacilit ate
ĠTrain ing
Ġseat s
ĠSociet ies
Ġcorn er
Ġposs ible
ĠVe olia
ĠBav aria
estr ial
ĠGuit ars
ĠHous ing
ĠFriend s
ĠLans ing
ĠFore ign
Ġchall eng
ĠVinc ent
Ġappoint ed
Ġpum ps
Ġrub ber
Ġvint age
Ġprest igious
ĠNott ingham
. '
. ;
4 8
C ard
F D
I m
I s
M on
N N
O P
R F
T P
U M
b red
c re
d ie
f i
j iang
l ot
m and
m id
o il
v enture
w ind
w yn
´ Ø±
Â °
Ä ĩ
Ñ ĩ
ç Ļ
è ı
é ĩ
é ī
Ġt ag
or ial
or row
at ically
Ġo g
ar is
al ing
Ġs an
ic ies
Ġb eta
Ġf estival
Ġp istol
ĠC hem
ĠC IS
ĠS v
ĠS us
ĠS ut
ĠS uc
ĠS ind
ĠS elf
ĠS leep
ĠT E
ĠT b
ĠT ul
ĠT arget
ĠT yne
us ter
ĠM iz
ĠM iy
ĠB etween
ĠP B
ĠP on
ĠP ic
ĠP lym
am ar
Ġto uch
Ġ( âĢľ
ĠL an
ĠL ov
ĠG ill
ĠG amb
ĠR ound
ĠF a
ĠF el
st ed
Ġfor ce
ĠE D
Ġn an
ĠD al
ig uation
ĠH ew
ĠH ob
ĠH Åį
oc o
ĠU M
im um
ĠW ag
ĠW ald
Ġst e
ess ion
ĠK le
ĠK arn
ĠSt ars
Ġv ary
os hi
ew oo
Ġpr inter
ill ar
ĠCh ocolate
Ġloc omotive
eg ov
Ġsh own
ĠY ÇĴuxi
ĠBr idg
Ġpl astics
olog ne
anc o
ey er
Ġspecial ists
ĠAl umin
epend ence
Ġ3 0000
ĠSh ort
ĠSh ah
sh irts
Ġy ogurt
enc er
ĠTh ough
pro f
pro v
ĠBank s
Ġ5 8
ri el
Ġass urance
els k
Ġ4 50
fer red
ĠPh ot
ick ers
Ġcommercial ly
ĠSc an
oh l
ĠTrans mission
Ġup load
Ġ6 6
Ġmerg e
Ġ7 2
Ġ7 6
Ġ7 37
ĠGre ens
Ġnon fiction
ĠÐ ł
amb ers
amb iguation
yd er
Ġaccess ible
sp ec
Ġpar atransit
ĠHar bour
Ġmon itors
ĠBar r
ĠAb out
Ġle ased
Ġcompet es
Ġpol icies
ĠGl en
Ġdeal ers
Ġleg end
ĠMont gom
20 13
ĠDo uble
Ġinst ant
ĠCons olidated
Ġrepresent ation
Ġpress ure
ĠTw in
ĠDirect ors
Ġcomplet ely
oph one
ä¸ ī
Ã¤ r
Ġpaper back
à¦ ¾
Ġsk in
ĠRel ations
DS L
Ġrepl acement
ĠGro c
Ġpark ing
ĠColomb o
Ġpast a
ĠSum mer
Ġlabor atories
Ġliquid ated
ĠMult imedia
ĠPop ular
Ġcompil ations
bro ok
ĠKy oto
Ġconfer ences
Ġcor respond
ĠFuj i
Ġeditor ial
ĠLow e
Ġdisp os
Ġfrequ ently
ĠSom ers
Ġathlet ic
ĠWel sh
ĠBomb ay
ĠNap a
ĠFoot ball
gor ith
Ġcat ers
Ġtherap y
ĠGaz prom
ĠMons ter
Ġtrail ers
government al
ĠSeb ast
ĠCra ig
ĠSunny vale
Ġregga e
Ġbehav ior
Ġult imately
ÃŃne as
Ð¿Ð° Ð½Ð¸Ñı
ĠNiss an
ĠMonten egro
ĠMerced es
ĠReykj avÃŃk
names e
Ġequival ent
ĠMontgom ery
. ).
4 4
7 6
A f
C S
C ent
C EO
C ont
D utch
F J
H C
L S
O M
R G
S SE
U p
d irect
h and
h all
k ar
l iam
o S
p ass
p osed
r in
u v
y u
Ã µ
Ø ¯
Ø µ
â Ĩĳ
æ ī
Ġ icon
an mar
Ġt re
Ġt arg
Ġt ennis
es b
es co
is ch
Ġc y
Ġc red
Ġc andy
Ġc otton
Ġb espoke
Ġf ace
Ġw a
Ġp oll
ĠC ul
ĠC ode
Ġm all
ĠS id
ĠS elect
ĠS ector
el ines
Ġl ands
Ġl ives
Ġl etter
ĠM I
ĠB or
ĠB ond
ĠB ath
ĠP ip
Ġh ired
ĠL iv
ĠL ost
ĠL ah
ĠL amb
ĠL ump
ĠL CD
ĠG lob
ĠG urg
ĠR oh
ĠR iga
ĠF argo
ĠF ras
ĠF ighting
Ġn urs
ĠD ennis
ab eth
ĠH ers
ĠW yn
ĠW alth
ev es
ĠJ ob
ĠK uala
op ed
ac c
ew here
ubl abel
own er
ib e
ĠCh erry
pl ate
igh th
Ġsp irit
eg el
ĠBr at
ĠAl i
ĠAl ger
elect ronics
Ġent ry
ĠTh orn
Ġtrans m
Ġ5 0000
az i
ĠSouth west
ri ott
ann a
ann e
ĠSc ar
Ġsell ers
Ġam munition
Ġrel ating
Ġbuild ers
Ġgovernment al
Ġprocess ed
ĠStud ent
ĠJan eiro
ĠMid land
ĠMid western
ĠAng ola
ĠX i
ĠSu ite
Ġbl ood
ij i
Ġfranch is
ĠMac ed
à¤ °
à¸ Ń
Ġplay ing
ĠBroad way
Ġ189 2
bor g
ades hi
Ġcoll apse
ĠRock et
ĠLouis ville
Ġ188 8
Ġcas ino
ĠCr ystal
ĠIP TV
Ġ187 0
ĠÃ ħ
ĠMo z
ĠKh an
Ġpurp oses
Ġdet ect
ĠRev iew
Ġintellig ent
Ġtheat ers
ĠSev eral
Ġauthor ized
Ġsil icon
Ġprop osed
ĠCharl ie
Ġrap per
Un ivers
Ġstruct ured
ĠLeg end
Ġclin ics
Ġview ers
ĠAppl ied
Ġcharg ing
ĠFarm ers
Ġachiev e
Ġveter ans
ĠIrv ing
Ġbroadc asts
Ġpot ato
Ġsn acks
à¥ į
Ġfinal ly
Ġbelong ing
ĠPen ins
ĠStart ed
ĠProcess ing
edd ing
Ġdomin ant
ĠBos nia
Ġforum s
Ġreiss ues
ĠAgric ultural
ĠInnov ation
ĠAlb ania
ĠKel ly
Ġearn ed
Ġser ial
Ġeffic ient
nold s
Ġprototy pe
ĠSloven ia
ĠATM s
Ġconcess ion
ĠBey ond
Port ug
grow ing
ĠHerz egov
ĠWare house
Ġacclaim ed
Ġhect ares
Ġloy alty
Ġproc urement
ĠEcu ador
ĠDeut sch
Ġtarg ets
ĠGurg aon
ĠWalth am
ĠHerzegov ina
1 000
8 3
B enz
F rom
R ec
S u
U s
V I
W Ã¼rttemberg
b n
c ompany
c oun
g as
g arde
h ome
i ors
n on
o j
s ince
s ize
w al
z on
z one
Ø ·
å º
å ½
ç ī
é ĵ
Ġt ask
at ial
and o
ic ia
om i
Ġb oots
Ġf ellow
Ġw in
ĠC G
ĠC T
ĠC ater
ĠC afe
ĠC ologne
Ġm y
Ġm echan
ĠS et
ĠS ide
ĠA j
ĠA OL
Ġl obby
Ġl earn
ĠM O
ĠM int
ĠM oor
Ġd ial
ĠB j
ut ory
Ġh ar
Ġh im
Ġh erb
ĠG T
ĠG ain
ĠG ay
ĠG ang
ĠR T
ĠR ab
ĠR Ã©
ĠF X
ĠF ur
ĠF inal
Ġre hab
iv an
ĠIn st
ĠIn ner
ĠE ye
ĠE UR
em y
ab il
ĠH em
ĠH ank
ĠH ey
ĠH aven
Ġth irty
ĠW ik
ag ne
Ġst able
Ġst ainless
ess ed
ess ors
ĠSt eak
ĠO MX
ac on
ac re
Ġal tern
Ġal gorith
ĠV ill
ĠV ice
ob i
ill on
ug os
ĠCh ong
ĠCh rysler
Ġch ap
quarter s
Ġbe ef
Ġac cept
Ġex ists
ov es
Ġsh ot
Ġsub marine
ĠBr ight
abl ing
our met
oy d
Ġcomp act
ens wear
tain er
ĠCo aches
ĠSh and
form ing
ee ing
Ġj ack
Ġcre w
pro cess
Ġco atings
Ġrele vant
iss ue
ri or
Ġaut onomous
ĠTr am
Ġlist ings
ĠWest minster
Ġpower ful
Ġautom aker
Ġ9 5
Ġmin utes
ĠKong sberg
gl asses
æłªå¼ıä¼ļç¤¾ ãĤ
ĠDr ive
ij e
ĠWh o
Ch ina
Ġ15 000
Ġ14 00
Ġdeal ership
ĠScot ts
Ġturn ed
Ġrepresent atives
ĠCont ent
Ġlo ad
ĠIP O
Ġred irect
Ġtyp ical
Ġstation ery
ĠÃ ĸ
ĠAcc ount
ĠHer bert
Ġdist ingu
Ġel ement
dul ar
ĠWal ker
onn ell
Ãł ng
Ġvirtual ization
ĠCop per
RA M
Ġra ising
ĠCas ino
ĠBangl adeshi
Ã¼r k
Ġtax i
ĠJos Ã©
ĠColomb ian
ĠPe ace
ĠTru e
ĠSyn d
Ġcompos er
ĠMach inery
ĠHa iti
ĠArm strong
Ġcontinu ing
ĠChamp ion
Ġvend ors
ĠSpring field
ĠMur phy
ĠBulg arian
ĠTob ago
Ġaggreg ates
Ġ900 1
ĠJackson ville
Ġä¸Ń åľĭ
Ġfabric ation
Ġlink ing
Ø§Ø ª
Ġreturn ed
ĠTheat res
Ġturb ines
ĠZh Åįng
ĠHit achi
ĠLag os
Ġseek s
ĠZamb ia
ehr s
ĠHelicop ter
ĠCollect ive
ĠLot us
ĠSof ia
Ġarran g
Ġambul ance
ĠFilip ino
ĠFrid ay
ĠUrugu ay
focus ed
Ġloud spe
them ed
ĠPlym outh
ĠLump ur
3 6
4 1
5 5
8 9
A K
D uring
G old
M ed
N D
N ew
O ver
O TC
U C
V S
W are
Y S
Z SE
b in
f our
g uns
h ill
h ua
k Åįng
l ock
m obile
t ion
w ise
w alk
w heel
Ë Į
Ï Ħ
à ³
æ ´
é ĥ
an al
Ġt emporary
he ed
Ġa st
Ġa ka
ed eration
Ġin tern
at aka
al on
al and
al am
Ġs izes
Ġs auce
Ġs ublabel
om ent
Ġf are
Ġp ermanent
ro wn
ĠC up
ĠC our
ĠC ock
Ġm eg
Ġm atch
ĠS ears
ĠT D
ĠA ub
ĠA kt
us ts
us ual
Ġl enses
ĠM ust
ĠM ats
ĠM usical
ĠB ec
ĠB ug
ĠB orough
am med
ch in
Ġh aul
ĠL uz
ĠG ear
ĠG ren
ĠG ene
ĠR I
ĠR us
iv ia
ĠN OR
ĠE y
ĠE asy
ĠD ol
ĠD im
ĠD ong
ĠD ai
ĠD ry
ig en
tr ade
ĠH ir
ĠH Ã¡ng
Ġg ospel
ĠU z
ĠW es
ĠW ed
ĠW iz
ag a
ĠJ es
ĠK or
ĠK ras
ĠK nowledge
Ġr h
Ġr ide
ĠSt ory
Ġhe av
Ġe ye
ew ear
um n
if er
iz ations
iz able
iz abeth
Ġch osen
av i
av o
av od
Ġsp elled
Ġtr ip
Ġtr illion
ĠY a
ass y
ik u
pe er
ãĥ ī
ĠSh ield
ĠSh oes
sh aw
Ġro se
ĠZ e
ĠZ o
ĠTh ink
Ġco in
Ġ5 7
Ġag ed
ĠUS B
Ġfilm maker
Ġwork shop
Ġtw in
Ġim ports
Ġfocus s
ĠCol e
Ġint ention
Ġper f
ĠCl ick
ĠFor ces
ĠOr ion
Ġprof ile
ĠCoun ties
ĠAm man
Ġinc ub
ĠGe off
Ġann iversary
Ġpres erv
Ġadd ing
Ġdr iving
ĠGu ide
ĠJan e
olv e
olv o
Ġmet ers
Ġtit led
Ġqu ant
ĠItalian a
ĠRob in
Ġgener ate
ĠEl izabeth
TA R
à¸ ²
ke i
Ġ189 1
Ġcomb ining
Ġ188 3
Ġmaintain ing
iconduct ors
ĠWil hel
Ø± Ø§ÙĨ
ĠHer itage
Ġpresent ed
Ġhom ebu
bank en
ES T
Ġbel iev
ĠMill ennium
Ġphys ician
ĠMy anmar
Ġorigin ating
ĠBas in
Ġhistor ically
ĠØ ¨
Ġfinanc ed
Ġgrad ually
Ġfr ame
ĠShop ping
Ġcompos ers
Ġmat hem
ĠSpecial ty
ĠMult i
ĠHospital ity
ĠDa ewoo
åľ ĺ
ĠOpt im
Ġimprov ing
Ġexecut ion
Ġrespect ive
eld orf
For merly
Ġinstrument ation
Ġsal ads
Ġbuyout s
hib ition
Ġinvolv es
à¹ Ģ
orough bred
Ġcelebr ated
ĠRey nolds
ĠLiber ia
Ġrelationship s
Ġlink ed
ĠLincoln shire
ĠCard iff
ĠGuang zhou
éĽĨ åľĺ
Ġeffor t
ĠArchitect s
ĠServ er
ĠBud apest
ĠBomb ard
ĠLis bon
ĠCert ified
ĠMcD onald
ĠMap le
Ġgovern ed
Ġtim ep
ĠLeon ard
Ġfib re
Ġregistr ation
ĠMedic ine
Ġreduc ed
Ġencour age
ĠVik ing
Ġcit izens
rele ased
Ġwarehous ing
Japan ese
Ġterr estrial
Ġcris is
ĠHiro sh
Ġcopyr ight
Ġdiscip lines
éģ ĵ
ĠAzerbai jan
ĠWilm ington
ĠStu art
ãĥ§ ãĥ³
ĠBenj amin
ĠLauder dale
liam ent
ĠLah ore
Portug uese
9 5
F P
F inn
I X
J SC
L ab
P ol
R B
V o
W ill
b one
b ird
c orp
g el
i per
k om
l og
n amed
p ub
r ated
r ug
s ion
v ol
Ì ģ
à ½
å ¯
å Ĭ
æ ©
é ļ
Ġ ë
Ġ à°
in th
in vest
Ġt rance
on na
Ġa le
Ġo cean
en burg
ar r
ar io
as i
as tr
as ks
om atic
Ġb ad
Ġb aby
Ġf ict
ĠC ob
ĠC row
ĠC IT
Ġm ills
Ġm ortg
ĠS ens
ĠS ME
ĠT ir
ĠT oll
ĠT urb
ĠA K
ĠA vi
ĠA aron
ĠI sh
ent e
Ġl etters
ĠM ans
ĠM ortgage
Ġd ess
Ġd uty
ur k
ur ies
ĠB ing
ĠB iz
ĠB eh
ĠB illy
ĠP ed
Ġh amburg
ĠL it
ĠL ing
ĠL ike
ĠL ED
ĠG MA
ĠR s
ĠR ust
ĠR ivers
ĠR ica
ĠF uel
ĠF olk
st en
Ġfor ces
ĠE id
ĠD ag
ĠD over
ĠD ocu
ĠD Ã¼ss
em in
Ġg amb
Ġg iving
Ġan s
ot ion
Ġst eak
ĠJ ar
ĠK w
ĠK iss
Ġcon dom
Ġcon stitut
ĠO vers
Ġe arth
ac om
os is
ip l
Ġservic ed
og ue
iz u
iz ers
ĠCh all
ĠEn s
Ġtr ips
Ġdis k
ant o
ant as
ult ane
Ġcomp at
Ġcomp ared
ff en
ĠAr row
ĠAr ctic
over eign
ãĥ Ĳ
ãĥ Ľ
Ġun ified
sh ow
sh oot
Ġy ard
Ġsup plement
ann y
ĠSp A
ĠSp ark
Ã© al
ãĤ ½
inn ers
oh a
Ġsm el
Ġmerg ing
ĠPl anning
te in
Ġ8 000
Ġstr ing
ĠÐ £
ĠRes ort
Ġprogram me
Ġdr ivers
lo o
ĠAng lo
ĠMal d
ĠMal awi
ĠX L
oot ing
ĠDe er
ĠEd en
ĠAp ollo
Ġpromot ional
Ġav ant
à¸ Ļ
ĠMil es
uch i
Ġclass es
Ġ25 00
Ġ189 4
St ock
Ġleg ally
Ġtravel ers
Ġcomb ine
Ġiss uing
Ġphot ographic
Ġ188 6
Ġ188 7
Ġdem ise
Ġassoci ates
Ġassoci ations
Ġcontroll ers
Ġpract ition
Ġob tain
Ġ187 3
TE L
ĠOper ator
ĠArt ist
Ġdist illery
ĠProv ident
we ight
wh o
Ġcontain ers
ĠRichard son
IA TA
Ġfil ter
ĠFund s
ĠSE HK
Ġsaf e
Ġliqu or
Ġra ise
ĠBrook s
Ġmeas ure
ĠSup pl
Ġpos itions
Ġyoung er
ĠDh aka
ĠFam ous
Ġagre ements
ĠNiger ian
ĠClass ic
ĠCamp us
Ġmat tress
Ġconcentr ates
ĠLeg al
Ġcrit ic
han ol
ĠSaf ety
Ġshut tle
ĠShip building
Ġkind s
ĠNik kei
ĠHis pan
ĠNick el
ĠBra un
ĠPear l
ĠPear son
ĠLyn ch
ĠProt ocol
ĠBloom berg
ĠTruck s
ĠArchitect ure
Ġvolun t
ĠErn st
anth rop
Ġeffic iency
spe aking
ĠOt to
ĠMarg aret
Ġencomp asses
ĠDoll ar
å·¥ æ¥Ń
Ġconce ived
Ġdifficult ies
ĠPra irie
ĠWool worth
ĠAlban y
call ed
ĠMaterial s
song writer
Ġpromo ter
Ġoccas ional
ĠSalv ador
Ġels ewhere
ĠSuf folk
Ġconj unction
ĠCarac as
éī Ħ
ĠKarn ataka
ĠHÃ¡ng kÅįng
ĠBombard ier
Ġmortg ages
ĠDÃ¼ss eldorf
4 3
8 6
9 3
A Z
B ox
E l
F rance
L O
M al
N B
N R
S ch
U B
W T
Y X
b s
c al
i i
i ott
l ies
l ist
m ons
m itted
o qu
p i
p y
r ite
z ig
Ã ¹
Ï ĥ
Ð ¡
× ľ
å Ĳ
æ ĬĢ
an j
Ġt ech
Ġt ire
on ics
he y
Ġa way
at is
at ts
Ġc od
Ġc ann
Ġs ter
Ġs urgical
Ġb id
Ġb ureau
Ġf utures
Ġf ramework
Ġp ow
Ġp uzz
Ġp ottery
re x
ĠC ond
ĠC yr
ĠC raw
ĠS F
ĠS W
ĠS it
ĠS erg
ĠS ach
ĠS ax
el ly
ĠT at
ĠT osh
ĠA BS
Ġl ib
Ġl inger
ĠM ud
ĠM az
ĠM CA
Ġd ur
ĠB I
ĠB ark
ĠB rans
ĠB alk
ĠB uzz
ad os
ĠP os
ĠP av
ĠP te
ĠP icture
ĠP sych
am ily
ch a
Ġh ang
ĠL ob
ĠL ook
ĠL ars
ĠG ust
ĠG oods
ĠR ing
ĠR otter
le ys
ĠF C
ĠF on
ĠF is
ĠF ifth
ĠF itness
st rom
ĠN Z
ĠN ations
ĠE k
ĠD ad
ĠD ram
em a
ĠH end
ĠH ack
ĠH ope
ĠH appy
ĠW oods
Ġst ay
ess ions
ĠJ en
ĠK D
ĠK ad
ĠK ids
Ġr ent
Ġr end
ul ations
ĠSt ream
ĠO R
art on
Ġv ill
ĠV ul
ĠV olvo
ell ation
ill ance
av es
Ġsp irits
all el
Ġex c
Ġex porter
eg er
ĠBr ain
olog ist
olog ists
Ġspecial ise
Ġpart ially
ik er
ach er
ĠAn ne
ãĥ ¥
ĠCo op
sh in
ĠTh ird
Ġco ins
ĠPr eston
Ġ5 6
ĠSp are
ĠSp encer
ĠMar in
oper ated
ĠNorth ampton
ĠFran ch
Ġim plements
ĠSw itch
Ġpre vent
Ġsell er
ph ere
Ġev al
ull ivan
Ġed ge
Ġed itors
19 70
Ġstr ength
se a
ĠÐ º
ĠÐ ĳ
Ġann u
Ġdr iven
Ġbrew ed
Ġdom est
ĠQu Ã©bec
ĠLe o
att i
Ġcontract ing
ĠBar n
ĠEst ates
con tract
iet h
Ø§ Ø±
Ġgener ators
ĠComp et
Ġfranch ising
ĠEm erson
ĠAer op
ĠInvest ors
vers e
ĠIm p
ĠAtl ant
ve illance
ĠPartners hip
ĠEngine ers
20 11
Ġopt ion
âĢĿ .
Ġcollect ible
Ġcollect ively
ĠSim p
ĠConnect ion
Ã¶ n
ĠCont in
ĠVer izon
200 9
ĠAct ivision
ĠÃ ĺ
Ġpione ers
RO M
ÉĻ ËĪ
ĠDistribut ors
Ġ186 7
Ġcasual ty
Ġinstall ations
Sp ace
Ġbre ed
ĠCre ated
Ġnorth west
Ġdistr icts
cript ions
ĠGood man
Ġtransl ates
ze ug
ĠCit izens
ĠWork shop
Ġauthor ities
Ġrang es
Ġrev ived
Ġcirc uit
ĠOpt ical
Ġmo dular
vis ual
ĠDev on
ĠHarris on
ĠBut ter
çĶ µ
ĠÅ Į
Ġholid ays
Ġthous and
Ġmedic ines
ĠCustom ers
Ġrad ios
Ġvac uum
ĠCub an
Ġforest ry
ĠNob le
Ġdub bed
Ġwhe els
ĠRead ing
ĠLex ington
Ġdistinct ive
mat y
Ġanaly ze
ĠFal con
ĠExper ience
Éĳ ËĲ
ĠMoh ammed
ampl es
ĠClay ton
ĠHelicop ters
ĠPow ell
yster y
Ġadvoc acy
Ġrein surance
ĠTall inn
Can ada
ĠHug hes
ĠJama ica
Ġtem per
Ġsout heast
ĠICA O
mill an
Ġcand id
Ġrecruit ment
Ġderiv atives
ĠRaf ael
Ġscoo ters
Ġnomin ated
ĠPerson al
asket ball
ĠGriff in
ç§ ĳ
Ġfra ud
ĠYÇĴuxi Ãłn
ĠSomers et
ĠFras er
Ġheav ily
Ġfict ional
Ġgamb ling
Ġpractition ers
ĠHispan ic
ĠBrans on
F l
K T
L td
N ow
T ime
V AC
d ays
g han
h at
j ord
l ar
l ic
l ie
l ength
m m
p ir
q ing
Ä Ł
É ¨
Î ¯
å Ī
å ķ
æ ±
æ ²
è £
Ġ es
Ł ³
Ġt oll
Ġin ject
Ġin aug
at on
Ġc inemas
ic ip
Ġf usion
Ġf uels
Ġw all
Ġp ool
re ets
ĠC ly
ĠC od
ĠC rit
Ġm ob
Ġm iss
ĠS U
ĠS ul
ĠS ap
ĠS ee
ĠS eal
ĠS ino
ĠS eas
ĠT M
ĠT O
ĠT rom
ĠT ogether
ĠA P
ent ieth
il ey
Ġl ik
ĠM ell
ĠM ik
ĠM MA
Ġd am
ir i
et i
et ics
ĠP ast
ĠP inn
ut ral
ch ip
ch urch
Ġh ors
ĠL en
ĠG ib
ĠG iant
ĠR he
ĠF en
ĠF ine
ĠF ay
ĠF ashion
ĠF idelity
Ġfor ec
iv ate
ĠN I
ĠN ine
ĠN SE
ĠN ature
ĠE U
ĠE arly
ĠE RP
ec ycle
tr ading
ĠH R
ĠH id
ĠH ors
ĠH ern
ĠH orse
ow e
oc on
ot i
ĠW ich
ĠW omen
ĠW eather
qu ar
qu et
Ġst amp
ĠK as
ĠK ill
Ġr ich
th a
th an
th rough
Ġ200 000
ĠO z
ervic es
os ure
og ram
og rap
ell s
ĠUn like
ob ili
Ġind oor
cl ass
igh ty
Ġac id
Ġcom ed
Ġcom ment
ok ed
Ġtr ends
ov en
Ġsh oo
ĠBr on
Ġen joy
Ġpl atinum
Ġspecial ity
Ġres ellers
Ġres cue
ĠAr nold
ĠAn s
Ġcons ervation
ĠSh erman
sh ops
ĠZ ero
Ġ18 50
ĠPr in
ĠPr ize
Ġsup plements
Ã© s
Ġop in
Ġpre vention
ĠAd ministr
emb ly
Ġ7 7
Ġrest oration
ĠAt omic
Ġ8 8
row ave
ĠNational e
Ġdr ess
ices ter
Ġconsult ants
Ġpar ents
ĠQu ad
Ð° Ð»
Ġmon et
Ġsim ultane
ĠLe icester
ĠAc qu
ĠDr ag
ĠVal encia
ung s
Ġgener ations
Ġcontin ental
ĠComp os
à® ¾
ĠMac millan
Ðµ ÑĤ
Ġ13 00
Ġ11 00
Ġ16 00
Ġpol ice
cent ury
ĠSun rise
Ġgu arant
Ã³ w
ĠChrist church
onom a
ĠShe p
Ã¸ y
ĠAdv enture
Ġexpl oitation
Ġval ued
Ġenvironment ally
ĠPost al
Ġassoci ate
uz u
Ġ187 9
Ġdeb it
Ġeconom ics
Ġcollabor ative
Ġcatalog s
brand ing
Ġfin ished
Ġpred ict
rick et
ãĤ¹ æłªå¼ıä¼ļç¤¾
Ġovers ees
ĠCarl os
ĠComm ittee
Ġdet ail
Ġdet erm
wer ke
Ġz one
ĠBre ak
Ġpromin ence
ĠEduc ational
ĠWork ing
ĠSchool s
Ġmiddle ware
ĠProject s
ĠLas er
Ġassist ed
ify ing
Ġrev olution
ĠJeff erson
ĠHard ware
ĠAppl ication
Ġprofit able
Ġjournal ist
Ġmerchand ising
ĠRen ew
Ġiniti atives
ĠIC T
ĠLev y
ĠRap ids
ĠVenezuel an
Ġprotect ive
Ġcelebr ity
ĠAff airs
Ġbreak fast
ÑģÑĤ Ð²
ĠEnerg i
Ġrad i
Ġsand wich
Ġpain ts
Ġprepar ed
Ġdomin ated
Ġphil anthrop
fin ance
Ġser ious
des ign
Ġdiagnost ics
ĠPep per
Ã©r ale
Ġextract ion
Ġencomp ass
ĠCamer on
Ġlook ing
Ġdram a
Ġsun glasses
Ġhyd raul
Ġcass ette
Ġswit ches
ĠeB ay
Ġpharmac ies
Roy ce
ĠÙĦ ÙĦ
ĠKro ger
ĠShad ow
Ð½Ñĭ Ð¹
Ġtelev isions
Ġvariet ies
Ġdaugh ter
Ġens ure
mand u
Ġpistol s
spec ific
Ġlinger ie
3 1
A b
A p
D T
J R
K S
L A
M obile
N etwork
P er
Q L
U I
W eb
a an
b ie
b ek
c over
c ome
e ans
h our
i S
k el
m aster
n ut
n ik
p ublic
z i
à ·
å ĭ
æ Ķ
on ents
or ama
Ġc anc
Ġc rafts
en ers
ar in
al em
Ġs end
Ġs leep
Ġb rick
Ġf ifty
Ġp ure
ĠC M
ĠC ork
ĠC ant
Ġm ust
Ġm other
Ġm aps
ĠT ang
ĠT ire
ĠT YO
ĠA re
ent a
Ġl ittle
Ġl esb
ĠM ig
ĠM ade
ĠM urray
Ġd ig
ur as
ĠB V
ĠB od
ĠB illion
ĠB ene
ĠB ald
ĠB oots
ad er
ĠP end
am er
ut en
Ġto ward
id ges
ĠL und
ĠL AN
ĠF ul
ĠF err
ĠF ont
Ġfor ty
ly ing
ĠE ven
ĠD ow
ĠD aw
ĠD ie
tr ain
tr idge
Ġon es
ĠH ath
Ġg ives
im i
ot Ã¡
ĠW ide
ag ic
ĠJ R
ĠK aw
ĠK yr
ĠSt ro
ĠSt yle
ĠSt orm
Ġe asy
Ġv iol
os c
ran ts
Ġal ways
ĠV ac
if a
ĠCh an
ĠCh art
end ers
av our
Ġsp anning
Ġac ute
all urgical
man tec
ĠNew ton
eb y
Ġtr usts
ov i
Ġbusiness men
orn ing
ĠAl leg
ĠAl maty
Ġbank a
ĠCan al
ens ing
ens ity
ĠAr ena
Ġar tis
Ġun usual
ĠSh im
Ġro of
Ġtrans ition
uc a
Ġwell ness
ĠPr est
Ġeng agement
Ġorgan ised
ann i
ĠSp ot
ĠMar ath
ĠMar riott
Ġfl ies
oll a
ix t
ãĤ º
oh ama
ĠQ ing
ĠQ antas
ĠCon n
Ġbro kers
Ġcent uries
ĠTel en
ern er
Ġ6 2
Ġ6 3
Ġ7 000
aun ch
Ġrel atively
ĠAf ghan
yn es
ĠGe o
Ġbrew pub
Ġappro val
AS X
Ġ9 3
sp ect
ĠHar bor
Ġadv ance
ĠSu isse
ĠSoci ed
ĠPer fect
isc uits
ËĪ b
Ġbran ched
ÑĢ Ð¾
à¤ ®
à¸ Ĺ
Ġcomm it
ĠRo uge
Ġgu idance
Ã¸ n
Ð¾Ð »
Ġ188 0
Ġ188 4
Ġsem iconductors
ĠWind sor
ĠCr est
ĠAct ive
Ġconsum ption
ĠCA D
ĠFre mont
ĠNe il
Ġinnov ations
ĠCamb odia
Ġprem ises
ĠWal mart
ĠReal ty
Ġ186 5
ĠGh ost
Ġrepl ace
ĠRh ine
Ġbre ast
Ġroad s
ĠCentury Link
Ġeffect ive
ĠGrand e
ĠMr s
ĠØ ³
ĠViet namese
ĠColle ction
ĠPe er
Ġstat utory
ĠOm n
ĠAnt wer
ĠBah amas
ĠMatt hew
ĠÎ ĳ
ĠConsult ants
Ġpip e
Ġspons ored
eld ing
Ġmess ages
ĠRoll ing
ĠMississ aug
ĠShip yard
Ġvine yards
ĠMen lo
ĠSy mantec
ugg age
Ġdoll ar
Ġvac ation
ĠProt ection
Ġteach ers
ĠKit chen
CB N
Ã©n Ã©rale
ĠDep osit
ĠBak ery
dis tribut
asc ular
ĠWeek ly
Ġeth nic
ĠMerch ants
éĢ ļ
Ġep is
ĠGab riel
Ġcoup le
ĠGirl s
ĠFried rich
ĠSign al
Ġapart ments
ĠMold ova
ĠKath mandu
Ġdiscuss ion
friend ly
ĠPrint ing
ĠMotorcy cles
Ġdyn amic
ĠYok ohama
Ġinterview s
Ġmolec ular
å» º
ĠCec il
ĠÐ· Ð°Ð²Ð¾Ð´
Euro pe
ĠCay man
ĠStam ford
Ġsubstant ial
æī Ģ
ĠCul ver
ugos l
Ġredirect s
ĠWilhel m
Ġhomebu ilt
Finn ish
ĠOvers eas
ĠRotter dam
Ġdomest ically
è£ ½
ĠWich ita
ĠMississaug a
/ ;
0 1
5 1
7 2
8 2
A c
B ased
C al
E m
E le
G ram
H F
H ealth
L aw
M arket
M usic
N ot
N ational
N ET
P SE
c ia
d evelop
f a
k ed
l ook
p u
p unk
w eek
x a
z u
¸ ë
Ã ¯
Î ·
æ İ
er d
Ġt eas
or ge
Ġin tr
Ġc anned
ar ag
Ġs urgery
it ech
Ġb urg
Ġb order
Ġw alk
Ġp ath
Ġp iano
Ġp ieces
ing en
ro t
ro let
re cht
ĠC age
ĠS B
ĠT and
ĠT ran
ĠT ours
ĠA X
ĠA ker
ent ially
un es
il o
ct ors
ĠM G
ĠM Ã©
ĠM ersey
Ġd ot
ĠB A
ĠB udget
ĠP od
ut z
ĠL et
ĠL TD
ĠG P
ĠG ir
ĠR ak
ĠR ex
ĠR ight
ĠR ace
ĠR ice
ĠR idge
ĠF eat
ĠF abric
st a
Ġfor ced
iv o
ĠN E
ĠE arl
ĠD n
ĠD ors
ĠD ash
ĠD ays
Ġth r
Ġth ings
Ġg ate
Ġg one
Ġg ross
Ġg uns
ub ric
qu est
ĠJ ump
ĠJ iang
ĠK om
ĠK ate
Ġr ules
ĠO ce
ĠO sh
Ġv ast
Ġv ans
ac a
ran ces
ĠUn ib
uf fer
own ers
end ale
Ġsp ac
ok en
man s
Ġex ceed
ĠY u
ĠY ak
ĠBr ent
Ġpl anes
orn e
ĠAn a
over ty
ĠCo x
ĠCo hen
ĠSh ot
ĠSh uttle
Ġunder wear
Ġj eans
ĠZ y
ĠZ Ã¼r
ĠTh under
ĠSouth western
Ġtrad ers
Ġtrad ition
Ġfilm makers
ĠSp y
oper atives
Ġacqu ires
ĠFran Ã§
ãĤ ¦
ĠPh ase
ĠOn ly
oh o
Ġnot eb
ĠCl if
Ġ6 8
Ġinter pre
Ġinter medi
eh old
ink l
ink Åį
Ġpur su
Ġed ited
ĠWest on
ĠÐ ¼
ĠElect rical
ĠBe ech
ĠPar agu
amb ique
Ġpres cription
Ġdirect ories
ĠHold en
Ġnational ised
Ġexp ected
Ġdr iver
rid or
AS T
ĠMid town
It alian
ath am
ĠGen esis
Ð° ÑĤ
ĠEd wards
ĠLe af
ĠBar cl
Ġsuc ceeded
ĠDr um
raz y
ĠWh oles
ĠMc M
Ġgener ates
Ġcompet ing
Ġactiv ely
Ġdef ined
ĠLat vian
Ġaff airs
ĠHol mes
ÃŃ tu
cel ain
åı °
Ã¸ nd
Ðº ÑĢ
ĠAdv entures
Ġval ues
ode on
Ð¾Ð ±
Ġstaff ing
Ġsouth western
ĠRock y
Ġred uction
app a
ĠUt tar
Ġgo es
Ġbo om
ĠVictor ian
ges ellschaft
ĠNe o
Ġvol umes
sch ild
ĠCap tain
ĠFair fax
Ġsw eet
Ġvisual ization
Ġjo in
ĠCle an
da q
Ġsignificant ly
NC UA
ĠTy co
ĠMountain s
Ġident ification
Ġestabl ishing
ĠSound s
lan es
ĠMerc ant
OR PG
ĠLight ing
ĠMic ros
ĠFed erated
ĠBol ton
ĠEll is
Ġdebut ed
ĠEcon omy
Ġla wn
ĠIsl am
Ġul tra
Ġinvolv ing
Ġguitar ist
ĠÅ ł
à¥ ĩ
ĠJew el
ĠPas o
Ġopportun ity
Ġfabric s
Ġbak ed
isl ava
Ġteach ing
Î¹ Îº
Bl ue
ĠTour ism
ĠEnt repreneur
ĠLuf t
ĠAgric ulture
ĠGram my
Ġseek ing
dis ambiguation
ĠPers ian
ĠLis a
Ġnight cl
Ġcart oon
ĠJer emy
Ð°Ñ Ĩ
Ġreorgan ized
Ġexhib ition
Ġbrief ly
Ð²Ð¸Ð° ÐºÐ¾Ð¼
Ġcompress ion
Ġcertific ate
Ġutiliz ing
ĠStrateg ic
ĠEth iop
Ġreceivers hip
Ġcontrovers ial
ĠSuz uki
ĠAdvent ist
Ġtrolley bus
Ġanc ient
ĠAnch orage
ĠBenn ett
Ġanalyt ical
Ġtechnolog ical
×¨ ×
ĠLey land
ĠTeleg raph
ĠStafford shire
ĠWend y
Ġvary ing
prof ile
ĠBrat islava
Univers al
ĠPenins ula
ĠScotts dale
Ġvolunt ary
Ġlesb ian
æİ §
ÃŃtu Ã¡n
Ð²Ð¸Ð°ÐºÐ¾Ð¼ Ð¿Ð°Ð½Ð¸Ñı
. âĢĿ
6 7
9 00
A ct
B P
C RM
E V
L o
L ogic
N orth
S F
S ervice
T hai
a ight
a Ãº
e ast
e aux
f ish
f old
f air
i q
k n
l ett
n t
p un
r ibus
u wer
z ens
Å ¾
Ì ĥ
Î ¬
Ï ħ
à µ
ì Ĭ
in ition
Ġt alk
or al
ed ical
Ġc rop
ar c
Ġs ent
Ġs eal
Ġs alt
Ġs ugg
ic ana
Ġb ound
Ġb ag
Ġf er
Ġf un
Ġw ild
Ġw ings
Ġw inner
Ġw ww
Ġp izz
Ġp oker
ĠC u
ĠC ess
ĠC ase
ĠC raft
ĠC ebu
Ġm ig
Ġm ax
ĠS hed
ĠS ah
ĠS ave
ĠS ean
ĠS print
ĠS ullivan
el ess
ĠA I
ĠI A
us a
us ually
il ion
il ing
il itation
Ġl ay
Ġl ender
ĠM ix
ĠM ins
ĠM ath
ĠM oss
ĠM AN
Ġd ual
ur i
ĠB orn
ĠB oss
ĠB otsw
ol ulu
ad ays
ĠP ok
ĠP age
ĠP RO
id as
ĠG ur
ĠR ug
ĠR iy
ĠF itz
und o
st op
st ead
ĠIn tern
ĠIn ters
ĠN in
ĠN om
ĠN EC
ĠN TT
ĠE N
ĠE ck
ĠD E
ĠD ass
ig ion
ia h
ĠH ain
ĠH eath
ĠIt aÃº
ĠW he
ĠW onder
ess a
Ġwith d
ĠJ in
ĠK ot
ĠK od
ĠK ok
ĠK ind
Ġr ates
op es
ĠSt ef
ity a
Ġe as
Ġwh isk
Ġv oted
Ġv ocal
ac iÃ³n
ew orks
um en
um ph
ĠV and
ĠV end
ib as
ĠCh op
ĠCh Ã¢
ĠCh ambers
ang el
Ġoff shoot
ĠAir ports
Ġair plane
Ġair planes
ok ker
ast y
Ġtr av
ant om
ĠY uk
ĠY ugosl
ult y
Ġen abling
erg round
ood y
ĠAl g
ĠAl p
ĠNor wich
ens ed
Ġpriv acy
Ġres eller
sh an
Ġdesign ated
ĠZ ep
Ġtrans fers
pro of
pro ducer
oth y
ĠEx p
Ġout sourced
Ġdevelopment s
ri que
ĠMar l
ĠMar ie
oper ating
Ġph on
ãĤ §
ãĤ Ń
Ġim pl
ĠCar bon
ĠTel e
ific ate
Ġinter city
umb ing
ĠTex t
ĠGe ffen
ĠWar wick
Ġpres ently
ĠDec ca
Ġsect ions
ĠMal i
ĠMal m
Ġcapital isation
Ġdo zens
ĠMin erals
ij ke
Ġintegr ate
Ð¸ Ð¾Ð½
ĠAg ro
ĠRe ich
ĠAer om
Ã¼ ck
Ġav oid
ĠMac y
oe i
ĠFir m
Ġsur veillance
Ġclass ics
ĠDen ki
angu ard
ape utic
20 10
ĠTelecom munication
Ġarch ive
Ġcollect ibles
Ġchar ities
ĠGreen wich
ci Ã³n
ĠAS X
Ġcas inos
ĠBay er
gy z
Ġder ives
ĠBanc orp
ift een
Ġevery day
gen eration
Ġ186 9
Ġant ib
ĠLo an
Ġconsist ently
ĠKn ight
ĠSup port
ĠLin has
ĠØ ´Ø±
Ġz ero
ĠLog ic
ĠSev enth
ĠNav al
Ġperform s
uge ot
ĠSn ap
ĠSant o
ĠCong ress
ĠUl tr
Ġcontribut ed
Ġparticip ation
Ġparticip ating
Ġhousehold s
ĠMem orial
Ġinstrument al
ĠHon olulu
gu Ã³
ĠTem ple
Ġdownload s
Ġattract ions
ĠLanc aster
Ġturb ine
ĠSyr ia
ĠDom estic
ĠBever age
ĠRena issance
stad t
ĠTra ffic
ĠArc adia
Ġsett lement
Ġfem in
ĠMerch ant
Çİ ng
ĠTerrit ories
Ġstop ped
Sw ed
Ġclear ing
ĠKoch i
Ġapart ment
oit te
Ġmag netic
ĠCamer oon
Ġcapt ure
Ġdecor ative
Ġbed s
ĠBog otÃ¡
ĠDerby shire
Ġpers ons
ĠLock heed
Ġutiliz es
ĠTS X
Ġcool ing
ĠHolid ay
Ġroy alty
Ġcondition ing
Ġincorpor ates
ĠCheng du
Ġsour cing
ĠDund ee
Ġunderst anding
ĠMM ORPG
ĠTreas ury
Ġneighbour ing
Ġcred its
ĠAlger ia
å½ ±
ĠChong qing
æ© Ł
ĠChall enge
Ġvill ages
Ġbreed ing
Ġmob ility
ĠTrom s
ĠPinn acle
ĠPrin cess
ĠAntwer p
æİ§ èĤ¡
ribus iness
ĠBotsw ana
9 8
C R
C ol
E d
H R
I O
R o
R eg
S ome
S ource
T F
V P
b ags
b ucks
d orf
d istance
e us
f o
g ers
g roup
h in
j ee
j Ã¸
k ut
m u
m ad
o ose
p m
p ired
r im
r ish
r ington
s quare
v ue
w ald
Ù ¾
à ¶
æ ¨
Ġ orders
an et
in ated
on ing
on str
is u
Ġin put
Ġo uter
al y
Ġs ights
Ġs hel
as ma
Ġf an
Ġf anz
Ġf ifteen
Ġp od
ĠC ompan
ĠC um
ĠC ities
ĠC rew
ĠC res
ĠC ott
ĠC ancer
Ġm ind
ĠS eng
ĠS porting
ĠS ustain
ĠT R
ĠT ab
ĠT up
ĠT ank
ĠT aco
ĠT roy
ĠA thlet
un ner
il er
Ġl ith
Ġl ists
ĠM T
ĠM ull
Ġd a
ĠB ran
ĠB att
ĠB oca
ir k
ir th
ir cle
ĠP u
ĠP ors
ĠP ens
ĠP oll
am ent
id ents
ch app
ĠL az
ĠL omb
ĠL otte
ĠL uke
ĠG an
ĠG ol
ĠR iv
ĠR ental
ĠF iction
ĠF uku
und i
est y
iv ic
ĠE B
ĠE M
ĠE sc
Ġon going
ĠH ook
Ġg ave
Ġg ath
ĠW els
ev ier
ag ar
qu in
ĠJ ive
ĠJ aw
ĠJ ensen
ĠJ orge
ĠK ell
Ġr om
Ġr iders
Ġr atings
ĠSt av
ĠSt ato
ĠO cc
ish ings
Ġe ar
Ġv ice
ĠV oy
ĠCh amber
ist ical
ak k
Ġch air
Ġoff line
Ġsp aces
Ġdis orders
ant i
ult an
Ġcomp ound
Ġpart ly
Ġad hes
ĠAs surance
ater n
ãĥ į
sh asa
sh aring
ie u
ĠZ im
ĠPro du
ĠAustral asia
Ġ5 50
Ġag o
Ġout standing
ĠEuro pa
ri ers
Ġorgan s
ĠCom edy
Ġaut hen
ĠTr il
ĠSw an
ĠCar p
ĠCar riage
Ġact ors
Ġnot es
Ġpre p
ĠFl ag
yl ene
Ġpur s
ĠMon tr
umber land
ĠÐ ¢
ĠPar ibas
Ġcol our
Ġexp ensive
lo ud
ĠPhil ips
Ġpop ularly
ĠMal ay
Ġadv antage
uct ures
att a
ĠMin h
Ġhel m
Ġelectronic a
ĠDel oitte
ĠWh arf
ats chapp
Ġadvertis ers
ĠAnd reas
Ġdec line
CA T
à® °
Ġsuper v
ÑĢ Ð¸
à¤ ²
rad uate
ĠDavid son
ĠChrist mas
ĠHo ff
Ġrock et
ĠGold man
ĠBlack B
Ġcap able
ĠPC C
Ġcoll aps
Ġcoll oqu
Ġcomb at
20 12
Ġpat tern
Ġprot ocol
Ġopt ic
Ar tists
Ġ188 2
ĠSl im
pol is
Ġtest s
ĠLib yan
Ġdem onstr
200 6
sk ie
Ġany where
Ġdep ot
ĠMain tenance
uff s
Ġ187 1
Ġsepar ated
ĠSur vey
ours elf
ĠInf in
ocol ates
As ia
Ġresult ing
head quartered
Ġcr ystal
Ġphys ics
Ġfil ing
Ġmass ively
Ġgroc eries
Ġmeas uring
Ġ300 000
ban en
ĠRos en
FC U
RE IT
ĠLog an
ĠBre men
Ġ185 3
Ġassemb led
Ġge ograph
Ġcateg or
Un ited
Ġvess el
Ġcru ises
ĠSout heastern
Ġcharg ed
Ġclient ele
Ġcontinu ous
Ġmeet ings
Ġspons ors
ĠEll iott
Ġther apeutics
Ġther apeutic
Ġjournal ism
ĠSir ius
ĠCorn wall
Ġsustain ability
Ġcompl iant
Ġdownload able
Ġcelebr ities
ĠOxford shire
ĠÄ Į
ĠStart ing
ĠGall ery
ĠClark e
TM L
hous es
ĠNag oya
ĠBuck ingham
Ġcal c
Ġpil ots
Ġundert aking
pat ient
ĠNAS CAR
Ġspe ech
Ġflav ors
ĠMong olia
ĠArmen ia
ĠBelle vue
ĠUnd erground
ĠNed erland
Ġinflu ence
ĠNO K
ĠRF ID
ĠHok ka
Ġassess ment
ĠRoth schild
Ġquest ions
Ġfertiliz er
åŃ Ĳ
Ġnort heastern
Ġperiph erals
ĠAhmed abad
Ġvolunte er
ãĥĩãĤ£ ãĥ³ãĤ°
Ġimag ery
ĠGuard ian
Ġsoundtr acks
Ġcultiv ation
Ġeuro s
ĠExt reme
Ġalum ni
ĠVent ura
ĠTher apeutics
Ġmeal s
ĠBord eaux
Ġprincip les
ãĥ¼ãĥ« ãĥĩãĤ£ãĥ³ãĤ°
Ġur anium
Ġtact ical
Ġpian os
ĠPrec ision
ĠMaced onia
ĠZhÅįng guÃ³
ĠJes us
Ġtimep ieces
éļ Ľ
ĠWoolworth s
ĠTosh iba
ç§ĳ æĬĢ
ĠMell on
Ġhydraul ic
ĠHath away
ĠKyr gyz
ĠDors et
ĠZÃ¼r ich
inkl ijke
ìĬ ¤
ĠCess na
ĠChÃ¢ teau
ĠFuku oka
5 2
6 1
7 8
8 4
B ev
C re
D E
D el
E ast
E lect
F F
F ilm
K O
M er
N ews
S H
S ky
T urk
b ase
c ourt
e on
f eld
h n
h al
h ia
j ah
k ai
l ass
m al
m ile
m ount
p it
p lex
r ase
r Ã©
s eat
t ex
v y
v il
v iv
w ig
Ã ½
Ä Ľ
Ê Ĵ
Î ¸
Ð ¶
× ĳ
å ĩ
er os
on ey
at us
Ġc old
al is
Ġs etting
it os
Ġb ench
Ġp ed
Ġp ub
Ġp apers
ion ics
ro ke
re j
ĠC B
ĠC urt
ĠC andy
ĠS SE
ĠS onoma
ĠT C
ĠT T
ĠT on
ĠT et
ĠT owers
ĠA N
ĠA ust
ĠA co
ĠA ichi
ĠA DSL
un t
il k
Ġl umber
Ġl ique
Ġl ottery
Ġl uggage
ĠM ec
ĠM ang
ĠM ick
ĠM ush
Ġd epend
ĠB ot
ĠB uild
ĠB icy
ol ian
ad ded
ĠP am
ĠP ine
ĠP ied
ĠP OS
ch ron
ĠL iz
ĠL av
ĠL af
ĠL TE
ĠG on
ĠG oth
ĠG erald
ĠR ip
ĠR ank
ĠR ide
ĠR eb
ĠR ican
le vard
ĠF unk
st ores
ĠIn tr
ĠIn iti
ĠN iag
ĠE is
ĠE ffect
Ġn ature
ĠD ivers
ĠD ana
ĠD estin
em e
em en
ĠH ed
ĠH ad
ĠH ass
ĠH ood
ĠH az
Ġg ifts
oc cer
ot ten
ĠW WE
qu er
qu ency
Ġst ep
ĠJ edd
ĠK nown
ĠK ens
ĠK raft
ĠK ole
Ġr ig
Ġr um
ul pt
ĠSt ear
ĠO P
Ġhe ight
Ġv it
ap ur
ip se
ĠV it
ĠV il
ĠV ale
ell es
ĠUn ic
ĠCh u
Ġhead phones
ak o
cl osed
Ġk ids
all a
Ġ201 5
ĠBr ick
ult on
anc ement
Ġsubs criptions
ĠAl italia
ĠNor ge
ack er
ĠCan yon
ĠAs k
Ġar ena
ater al
ãĥ Ģ
ãĥ ģ
Ġun if
ĠSh ore
ĠSh izu
sh ares
ĠZ he
ĠEx port
Ġstor ed
ri en
Ġbu ys
ĠSp ec
Ġass umed
ĠMar ia
ind i
co ol
ĠTr action
ĠSw eet
ĠPh oto
Ġop posed
ĠOn ce
inn ings
ĠTrans dev
ĠCent ro
Ġper forman
ern sey
Ġ6 50
ecom merce
Ġsc al
ĠAd obe
Ġfound ations
umb le
Ġ8 7
ĠMon itor
ched el
ĠÐ Ĺ
ĠBe aver
erm o
ĠAss ets
Ġ9 000
Ġpurch ases
ĠPol ice
Ġsign s
Ġacc ident
ĠLe ase
Ġ12 1
elf are
ĠTor rance
Ġpromot ions
ĠDav ies
ĠComp lex
Ġhand le
ĠRe port
Ġdec isions
CA M
à® ª
Ġdisc s
Ġ17 5
ÑĢ Ðµ
à¸ ´
field s
Ġlog ic
Ġbi ology
ĠMot own
ĠHol y
omb a
ĠHead quarters
Ġvis ited
Ġpay roll
onom y
Ġref urb
Ġrece ives
ĠMet a
Ġopt ics
Ġval uation
ĠPal mer
Ð¾Ð ³
ĠVer lag
esp a
ĠVict ory
ĠNo ida
ĠBur ton
ĠSol id
Ġconf igur
ĠSur f
Ġintrodu ce
ĠOff shore
ĠBo at
Ġsharehold ing
Ġland line
Ġland mark
ĠWater loo
ĠEr ik
Ġ26 00
ĠKh al
Ã¨ n
Äģ ng
ĠLo op
Ġme ant
ĠId ent
ĠBas ic
ĠComputer s
ĠRev en
ĠiP od
Ġident ified
orm al
Ġ185 6
ĠPe ugeot
ĠAnn ual
Ġtrademark s
ãĤ¤ ãĥ³
ĠSum mit
Ġmat ches
Ġconcentr ate
ĠWi MAX
ĠJeff rey
Ġsubsequ ent
Ġcompr ise
ĠDev ices
Ġsmart phone
Ġgear ed
Ġconfer encing
ĠFuj itsu
Ġgar ments
work ing
à¹ Į
Ex press
ãĤ¸ ãĥ£
ĠDor ado
Ġinvent or
ĠVine yard
Ġprivat ization
Ġdeploy ed
Ġconcern ed
ĠIv an
Ġdon ations
ĠWhit ney
ĠEmb assy
Ġinsur er
ĠCert ificate
ĠNic arag
Ùĥ Ø©
Ġenh ance
åľĭ éļĽ
ĠNAS A
ĠCirc uit
Ġchamp ionship
ĠKin shasa
ĠRoberts on
ĠRan ch
Ġfunctional ity
Ġveget ables
Ġbear ings
ĠGard ens
Ã« n
Ġwant ed
ĠHolid ays
ĠTunis ia
ĠChev rolet
ĠChand ler
Ġdrop ped
ĠEls evier
Ġlegisl ation
ĠUtil ities
Ġmand ate
ĠHert fordshire
ĠRout e
Ġdest roy
ĠNun av
Ġyach ts
ĠNichol as
ĠCed ar
Ġrecomm end
Ġå¤ §
Ġchalleng es
ĠTb k
ĠAlumin ium
elsk ap
ĠGreens boro
åº Ĺ
ĠShand ong
ĠSynd icate
ĠAub urn
Ġrh ythm
ĠHirosh ima
ĠDocu ment
ĠMald ives
ĠNickel odeon
ĠVul can
åķ Ĩ
quar ie
Ġsimultane ously
ĠBarcl ays
ĠRiy adh
atschapp ij
ĠBlackB erry
ĠNiag ara
ĠJedd ah
ĠShizu oka
Ġperforman ces
6 8
6 9
9 2
A BC
A ss
C G
C are
D s
D irect
F G
F W
H O
L ife
M ac
P ar
R om
S K
S erv
S ZSE
T ec
T amil
] ;
b ound
b ital
b oth
c orn
c ology
c ylinder
d el
d ec
f all
f amily
g ets
h ist
h wa
i ary
i enne
j as
l ab
m all
m usic
o um
p in
q i
r ent
r ag
r ud
r ian
r ak
s ec
s burg
u ations
y te
Ã ²
É Ĵ
Ð ĺ
Ñ į
á º
ä ¹
å ¸
å ł
æ Ī
é ĸ
Ġ ecommerce
er i
Ġt om
Ġt ube
Ġt aste
he tic
is an
Ġc inem
Ġc ycling
Ġc rown
Ġo v
en abled
ar en
it arian
as o
Ġb in
Ġb ike
Ġb asketball
Ġf Ã¼r
Ġf ixt
Ġw arg
Ġw ays
re ats
ĠC e
ĠS G
ĠS R
ĠS eed
ĠS enior
ĠS ultan
ĠT ag
ĠT ac
ĠT aj
ĠT err
ĠT rop
ĠT raf
ĠA E
ĠA w
ĠA ar
ĠA IM
us on
Ġl ubric
ĠM eh
ĠM ason
ĠM Ã¼n
Ġd iet
Ġd iction
ĠB O
ĠB ag
ĠB our
ĠB ase
ĠB urb
ol ar
ĠP ut
ĠP eak
ĠP KP
ĠP leas
Ġto o
ch ard
Ġh uge
Ġpro gress
ĠL il
ĠL ad
ĠL uk
ĠL iter
ĠL NG
ĠG ov
ĠG TE
ĠG Ã©nÃ©rale
ĠR ush
ĠR ox
ĠR iley
le ase
ĠF I
ĠF an
ĠF ol
ĠF ut
ĠF ac
ĠF okker
Ġre form
Ġre ward
Ġre print
st and
ly s
ĠN ant
ĠE L
ĠE R
ĠE X
ĠE ar
ĠE ur
ĠE SP
Ġn ations
ĠD y
ĠD in
ĠD ut
ĠD ock
ĠD uty
ab is
ĠH od
ĠH erb
ĠH ache
ĠH TML
Ġg y
ub ble
ow itz
ĠU T
ĠU k
ĠU FJ
ot ing
ĠW ang
ĠW ein
ev e
ev is
ag awa
Ġst ars
ĠK ash
Ġr ug
Ġr igs
ĠSt eph
ĠSt oke
ud io
Ġoper a
Ġe Commerce
art s
art an
art ner
ap y
ts ville
ip ts
ĠV anguard
od ed
ib o
ĠCh ad
ĠCh Å«
ĠCh iy
ak ehold
Ġind irect
Ġch urch
pl aces
av an
av ity
Ġk ios
Ġk now
man t
ĠNew man
ĠEn ix
Ġex tr
Ġtr ial
Ġtr ue
Ġtr ials
Ġsh irts
ĠBr yan
ust ion
ond e
ey r
Ġcomp lement
Ġcl imate
ere i
ĠAl c
ack ers
ĠAr cade
Ġdes cend
ĠCo ff
che l
Ġform al
ĠTh or
pro x
Ġ18 60
ĠEx cellence
ĠPr att
Ġeng age
Ġeng aging
Ġout sk
iss a
ĠEng ines
ind a
ind ing
ĠFran co
Ġtw entieth
inn ess
ĠCon ference
ĠCol onial
Ġsm ooth
ĠTel ugu
Ġgen etic
Ġengine ered
eng ine
ĠIs uzu
hes da
ĠFl int
In itially
Ġinter act
Ġhigh way
ĠUnivers e
Ġtransport ing
Ġ8 4
Ġfood service
ne ider
ĠÐ Ŀ
ins pired
ĠAss embly
ĠGu am
ĠGu ernsey
ĠBel o
Ġconsult ation
Ġconsult ant
Ð¾ Ñģ
ĠPol ar
uct ions
ĠEd die
ĠSch l
ĠAc orn
ĠBar rett
ĠReg istered
ĠAg ent
Ġhand ful
ĠEm pres
ĠAb dul
ĠGr um
Ġle ague
Ġanal yst
Ġend ing
Ġend ors
ĠMac quarie
ĠMer rill
à¤ ¨
à¤ ¯
Ã¡ r
à¸ ±
à¸ ģ
ĠRo ach
ĠIm aging
ĠDes pite
ĠMot o
Ġ25 000
Ġleg acy
Ñģ ÑĮ
ĠSuper ior
ĠCons ortium
Ġet hanol
ĠChe ese
ĠChe ck
Ġcolle ges
Ġtechn ique
Ġext end
irt een
Ġdem erg
200 3
ĠCD MA
oph on
Ġmultip lex
ĠSal em
Ġ187 7
TE R
Ġgl iders
ĠHer o
ĠHer oes
Ġintrodu ction
Ġintrodu cing
ĠLaw yer
ĠOff ices
ĠQue zon
ĠProv idence
Ġsoci et
ĠRoad show
ĠFair trade
Ġshow rooms
ĠReal ity
Ġcr ime
Ġ186 3
Ġtreat ments
Ġso ap
ĠTown s
Ã³n ica
Ġ35 00
fl ight
Ġlif ecycle
ĠKn ox
pre m
ĠDJ s
ĠStand ards
ye ong
Ġsong writer
ĠMagaz ines
Ġwind ow
ĠMach ines
Ġæ ĸ
ĠPay ment
ĠPay ments
äº º
ĠHamp ton
back ed
Ġcontribut ions
writ ers
sy chedel
ba um
Ġpip es
Ġbott led
Ġlevel s
osmet ic
ĠTri umph
ĠBrad ford
Ġaggreg ate
Ġaggreg ator
ĠHawai ian
ĠMorris on
Ġins ights
ãĥĥ ãĥĪ
ĠBat on
ĠApp al
Ġporn ography
Ġvac c
Ġfail ure
Ġteach er
Ġcook ing
ĠAlf a
Ġconcern s
ĠLam bert
Ġtank ers
Ġfacilit ates
Ġdub bing
ĠBet hesda
ĠField s
ĠOy j
Ġinsur ed
ĠMcD onnell
Ġwhe at
ĠKenn edy
ĠPep si
ĠJul ius
ãĤ· ãĥ§ãĥ³
ĠPier re
Ġmini ature
Ġreorgan ization
ĠNors ke
ĠJun ior
Ġquarter ly
Ġrob otics
ĠLif estyle
ĠCirc us
disc iplinary
ĠTol edo
fr ame
ĠGil bert
Ġadmin isters
ìĿ ´
Ġsex ual
Ġbond s
ĠOri ental
ĠSig ma
Ġroy al
Ġquest ion
Ġfertiliz ers
ĠGrow th
ä¿ ¡
ä¿ Ŀ
ĠTin to
ĠCart oon
trad itional
Ġneg oti
Ġgirl s
Ġupg rad
ĠImag ine
Ġtub es
ĠHutch ison
ĠTrip oli
Ġchem istry
Ġlapt ops
ĠBou levard
Ġey ewear
Ġprob ably
ĠMonro e
ĠAdditional ly
ĠTul sa
ĠKle in
ĠSebast ian
Øµ Ø±
Ġspirit ual
ĠGain esville
Ġrehab ilitation
Ġshot guns
Ġdistingu ished
Ġincub ator
ãĥĽ ãĥ¼ãĥ«ãĥĩãĤ£ãĥ³ãĤ°
Ġannu ities
ĠSimp son
ograp her
ĠWels pun
ĠHache tte
ĠChiy oda
Ġoutsk irts
6 3
6 000
9 7
C redit
D P
E ng
F E
H old
L B
L IN
M aster
N I
R es
R TA
S un
S im
S aint
T em
T ran
V B
b en
b eat
c ot
c ap
c ock
d ers
h art
h ost
h ou
h Ã¡ng
l am
m illion
t ure
v ideo
y ang
Ê »
Î ®
è »
ì Ĺ
ì ł
Ġ :
Ġ za
in form
Ġt ires
Ġt apes
Ġt asks
on ica
or us
is land
Ġin j
Ġc ere
Ġc ourt
ar ium
Ġs eap
it on
Ġb orrow
Ġf ried
Ġw ider
Ġw elding
ro us
ĠC ord
ĠC ie
Ġm ir
Ġm old
ĠS Y
ĠS ent
ĠS ite
ĠS au
ĠS uez
el ag
el ux
ĠT I
ĠT able
ĠA VA
ĠI R
ĠI b
ĠI ch
ĠI con
ĠM og
ĠM atch
ĠM eet
ĠB NP
ir al
ter a
ol et
ad ena
ĠP ir
ĠP erm
ĠL ights
ĠL ope
ĠL ÃŃneas
ĠG B
ĠG ig
ĠG round
ĠG iov
ĠG inkÅį
ĠR V
ĠR ange
ĠR ising
ĠR PG
ĠF ear
ĠF itch
est a
Ġre ason
st reet
ĠIn k
ĠIn it
ĠIn Bev
ĠN J
ĠE V
ĠE b
ĠD j
ĠD uck
ĠD uff
ĠD SL
ĠD anny
ab ase
ig i
ec ar
tr ation
tr idges
ĠH K
ĠH oll
ĠH ands
Ġg reet
im in
Ġit em
ĠW alk
Ġst akes
ĠJ ourney
ĠK ick
ul ate
op ol
Ġman ual
ĠSt or
Ġcon vey
ĠO AO
ĠO JSC
act ional
ver k
ĠV M
ĠV ide
ĠV iva
ĠV augh
ĠV lad
og rad
ĠCh er
ĠCh al
ĠCh ip
Ġind ependence
ear ches
Ġk abush
Ġsp an
Ġsp ot
Ġsp are
ure l
man teau
Ġex tra
eb e
Ġtr iple
Ġdis abled
ant ech
Ġsh ipped
ĠY o
ĠY Å«
Ġpl umbing
olog ies
Ġspecial s
Ġsubs id
ere k
ach ers
Ġres olution
ĠAr g
Ġap pe
ĠAn other
Ġun related
ĠSh oe
Ġreg istry
Ġy ellow
Ġj ets
Ġent itled
aj ima
ĠSouth ampton
Ġwork er
Ġwork flow
Ġass ort
ĠCom cast
ah i
els en
Ġfl our
craft ed
ĠTr iang
Ġequ ities
Ġequ ipped
ĠSw ift
ĠPh antom
lect ic
Ġenter tain
ĠCon struct
ram er
Ġact ually
Ġup coming
ĠFl ow
Ġinter faces
ph alia
Ġ7 50
ĠGre ene
ipp s
ĠBro ck
ys ical
ink er
Ġrest ric
ax y
ax ton
af ers
ĠMon aco
ĠAm y
19 60
ool s
Ġstr ip
ush in
ĠÐ ¸
ĠPar liament
Ġlic ences
ĠGu inness
Ġindustrial ist
Ġmin istry
Ð¾ ÑģÑĤ
ĠGen oa
ows ki
ĠPol it
ĠPol ska
ĠEd ition
Ġport manteau
Ġacc ord
ĠLe one
cy cle
ĠDr illing
ĠPart s
Ġbl ocks
ĠAp ex
ĠAp par
Ð½ Ð¾Ðµ
uk an
ĠComp onents
ĠEl ite
ĠSe qu
Ġhand bags
Ġle aving
à® ´
Ġsuper vision
ĠAv is
Ðµ Ð²
ĠMer idian
Ġtrain er
Ġdown stream
Ġ13 5
ress ion
cent ric
Ġ500 000
St reet
Ġfre el
ĠFirst Group
ĠRich ards
igg s
ĠArab ian
ĠPC I
Ġorganiz ational
ĠStar bucks
ĠSuper market
ĠDo ctor
Ġec o
Ġval ves
ĠSim ple
ĠSim mons
ĠGreen land
Ã¶ l
Ġstand ing
Ġatt end
Ġatt ached
Ġmicro phones
Ġthere after
ãĥ³ ãĥĪ
ĠCr Ã©d
Ġfranchise es
IP S
Ġhous ewares
ä¸ ļ
ĠBur k
Ã¤ n
ĠMo ines
ĠBanc shares
Ġgo als
Ġ23 0
Ġnames ake
wh ite
Ġful f
Ġfurn ishings
gen erated
ÉĻ n
ĠFair field
Ä« n
Ġ186 2
ĠLand mark
Ġrepl acing
Ġbeg innings
car bon
fl ower
Ġkey boards
ĠCoast al
ĠBas el
ĠCarl ton
Ġtransl ations
ĠCit ro
mann ed
ĠBob by
Ġconver t
ĠOm nic
Ġmat ters
Ġconcentr ating
ĠÎ ķ
Ġocc urr
ĠSant ander
ĠPublish er
ĠMir ror
ĠMic ron
ĠGhana ian
ĠSaf ari
ĠProf essor
Ġpip elines
ĠMarc us
ĠBol lywood
pect ive
ĠBrand on
ĠJac ques
ĠPrem ium
Ġnav al
ĠPas adena
Ġdisp ute
ĠChap man
ĠLP s
ĠCub a
Ġmineral s
Ġsusp ension
Ġprivat ised
uh o
Ġfig ure
ĠKon inklijke
ĠRef inery
Ġcal end
Ġreiss ue
ĠBud d
Bus iness
comp uter
Ġcart oons
ĠLloy ds
ĠRic ardo
Ġmap ping
ĠGate way
ĠSteam ship
Ġtherap ies
fund ed
ĠNewsp aper
ĠPin ot
ĠRat on
ĠGraph ics
Ġconcess ions
ĠJust ice
Ġadmin istered
Ġticket ing
ĠOri ent
ĠCarn ival
Ġsynd ication
Ġgall ery
ĠAdvis ory
Val u
Ġden im
ĠVerk ehrs
åĮ Ĺ
ĠLak eland
ĠFA W
Ġcran es
ĠLem on
Austr alia
Ġhum or
ĠMonter rey
ĠIg n
ĠPorts mouth
ĠLiqu or
ĠSym ph
Ġdeg ree
Ġflu id
ĠUlt imate
Ġexerc ise
Ġfrag rances
ĠSind h
ĠMiz uho
ĠUM TS
Ġlegend ary
Ãµ es
Ġcy ber
Ġnurs ing
éĵ ¶
Ġlobby ing
Ġalgorith ms
ĠKras n
Ġmathem atics
ĠFont ana
ĠAfghan istan
ĠFranÃ§ ois
ĠDass ault
ĠMontr Ã©al
ĠNicarag ua
ĠNunav ut
ĠSteph an
sychedel ic
ĠLope z
ĠOmnic om
9 4
C loud
D o
E B
G B
G ames
M M
M MA
M YX
N M
P al
P ay
P ower
S he
S ec
S tr
T alk
T wo
W hen
b et
c ard
d an
d ad
g ame
g ren
g rade
i ere
k Å«
m el
m ese
n an
s l
s he
s eries
s bad
v an
w at
z n
z burg
¥ ¿
Ã ª
Å ĭ
Ï ī
Ð ĳ
é ħ
Ġ ...
Ġt on
Ġt ree
Ġt rees
Ġt issue
or ph
is bury
at ra
Ġc ited
Ġo x
en es
ar an
Ġs ave
Ġs omet
Ġs auc
Ġs uffer
it el
as ive
as than
Ġb ow
Ġf illing
Ġf ighter
Ġw iki
Ġp ubs
Ġp ounds
Ġp overty
re ach
ĠC urr
ĠC ry
ĠC rowd
ĠC obb
ĠC afÃ©
Ġm issions
ĠS BS
ĠS olution
ĠS NC
ĠT us
ĠT ow
ĠT uc
ĠT AM
ĠT Ã¼rk
ĠA id
ĠA th
ĠA MC
il ever
Ġl y
Ġl ack
ĠM F
ĠM ut
ĠM eat
ĠM ixed
ĠM esa
ĠM eyer
ĠM oody
Ġd ie
Ġd inner
ur f
ur ches
ĠB Y
ĠB ent
ĠB ail
ĠB ij
ol ag
ad i
ĠP ub
ĠP ull
ĠP anda
ĠP ont
ĠP ocket
am an
Ġto il
id isc
ĠThe od
Ġh a
Ġh arm
Ġh ockey
Ġ( $
ĠL ever
ĠL ucky
ĠG ross
ĠG ÇĶ
ĠR im
ĠR ost
ĠR ally
ĠF ro
ĠF erg
ĠF ight
est e
est ivals
Ġre branding
iv ery
ĠN ative
ĠN ano
ĠE ight
ĠD ee
ĠD ale
ĠD enton
ĠD odge
em is
ĠH B
ĠH ak
ĠH ort
Ġg iant
du led
ot on
ĠW I
ĠW ire
ev an
qu ired
Ġst ops
ĠJ al
ĠJ ess
ĠJ esse
ĠK O
ĠK il
ĠK op
ĠK ai
ĠK ans
ĠK LM
Ġr ain
th ly
ul ating
ul atory
ud Åį
Ġcon vention
ĠO re
ay ette
Ġv o
ac hen
os ph
os cop
Ġal one
Ġpr ints
um ont
ich er
ĠV ie
if ted
ep lay
od o
og g
og r
ib ank
io ux
ist ar
end i
Ġsp ent
Ġrec apital
ok o
man ufact
pr ice
Ġdis aster
ov ich
ĠAmerican a
ĠAmerican s
Ġsub contract
ĠY ard
ĠY ale
ĠBr ill
ust a
Ġpl acement
Ġmarket ers
Ġus age
Ġsu its
ĠCan ary
ens k
Ġcons ecutive
ĠCal ed
Ġun known
Ġem b
ĠSh ap
ĠSh Åį
sh am
form at
Ġy en
Ġform ula
ĠZ X
ĠZ apor
ĠZ avod
Ġag ribusiness
az ar
ise i
ann on
ĠSp an
Ġnew est
ĠFran z
Ġph rase
ãĤ µ
Ġim mediate
enn ial
ĠCar rier
ĠCon tainer
Ġsec ured
Ġact ions
ĠCent res
Ġ6 7
Ġ6 9
In c
Ġinter s
Ġinter action
Ġsc ulpt
ĠAd itya
Ġam ounts
ĠPl astic
yl er
eop h
ĠFor mer
ĠAt om
Ġprof essor
ax x
Ġ8 3
ino ff
ĠAm Ã©
Ġinc ent
Ġbillion aire
Ġcommun icate
ĠGe ographic
ĠÐ Ĵ
ĠÐ Ł
Ġann oun
ott a
Ġmov ements
Ġart work
osp atial
Ġhealth y
Ġbrew s
Ġautom atically
Ġaccess ory
Ġ9 2
ĠAng lia
Ġsocial ly
ĠPort o
ĠEd itions
ĠEd gar
Ġport ions
Ġacc ur
ĠAc cel
ĠAc me
ĠManag ed
ĠBar on
ĠAp art
Ġ10 5
Ġintegr ates
con a
Ġadvertis ement
ĠRob ot
ĠSk op
Ġaud i
ĠReg ina
itt ings
ĠComp ass
ĠHe il
ĠPer kins
Ġback p
ĠRe id
Ġren ov
ĠAnd ers
0000 00
ĠPet erson
ÑĢ Ñĥ
Ġ11 000
ĠInvest or
ĠOs car
Ġbi od
ki y
ĠHol t
Ġ25 0000
Ġpay ing
ÙĦ ÙĬ
Ġref in
ĠStr at
ĠSil k
Ġ24 0
Ġtraditional ly
Ġexpl os
Ġec lectic
Ġval id
ĠPal ace
Ġinstru ct
Ġaim ing
ym n
AN K
SP A
ĠChe shire
Ġext rem
ci ences
200 1
200 7
clus ive
ĠWeb ster
ĠOp el
ĠIP A
Ġimport ing
Ġstation ary
Ġ187 2
ĠBen in
ĠTom my
ĠBo om
Ġsl ow
ĠAlex a
ĠKh art
ĠJe ans
Ġ186 6
Ġne uro
Ġfil ters
IN G
Ġliqu ids
199 4
199 7
ĠBh arat
ĠØ§ÙĦ Ùħ
ĠSub s
ĠSub way
Ġbr ass
Ġmunicipal ly
iat ures
Ġenc rypt
Ġperform ers
Ġconver ting
ĠÎ ¤
Ġfeed back
ĠCru ise
ĠRand y
Tr ent
born e
ĠDyn amic
ĠDream Works
ĠWin ston
ĠCorn ell
Ġveter inary
ĠChurch ill
tron ic
tron ics
Ġmem or
Ġmem oir
ĠHans on
ĠHans en
ĠShar jah
ĠAff ili
dr ive
ĠJo el
ĠIN G
Ġcer amics
ĠSaskat oon
Ġbass ist
Ġé ¦Ļæ¸¯
medi ately
offic ial
mod al
build ers
ĠRaj asthan
Ïģ Î¿
ĠHell enic
ĠNation wide
ĠInstru ment
ĠErn est
gi ene
ÃŃn hÃ¡ng
ĠPier ce
Am ong
ĠPass enger
Ġspe aking
Ġmotors port
ĠSchw artz
fund ing
ĠDial og
Ġconce pts
ĠWer ft
ĠArmen ian
Ġkeep ing
Ġillustr ated
ĠHil ton
ĠJenn ifer
Ġsout heastern
à§ į
ĠDur ham
Ġutil ize
Ġswit ched
ĠHistor ic
Ġnort heast
Ġperiph eral
Ġcaus ed
ĠParad ise
ĠTick et
ĠChes s
Ġvent il
ĠFlug zeug
Ġamalgam ation
Ġadap ted
ĠKap lan
ĠSuc cess
ĠHew lett
prov ement
Ġicon ic
Ġfranchis or
ĠMoz ambique
coun ter
Ġast ron
Ġmeg aw
Will iam
ĠEid os
Ġcompat ible
ĠSax ony
ĠBark er
ĠMig uel
ĠTelen or
ĠMersey side
Ġspac ecraft
Ã¸nd elag
ĠMalm Ã¶
Ġouter wear
Ġfanz ine
Ġcollaps ed
ĠKyrgyz stan
ĠBurb ank
ĠGrum man
Ġsociet ies
Ġgreet ing
ĠTriang le
Ġsauc es
ĠKans ai
! .
. (
7 4
A ut
A nd
B ul
B rien
C T
C all
C ube
D M
G esellschaft
H ol
H ill
H ouse
L E
L I
M any
N L
O W
R ail
b acks
b right
c z
c ious
c ode
d d
d uty
f ic
f irst
g reen
i ation
n etwork
p ac
p illar
r ig
r ika
s olut
t v
t or
t echnology
v or
x ico
Ã ľ
É ²
Î ´
Î ķ
Ð ¢
Ð Ĵ
Ø ¹
â Ħ
â Ĥ¬
å £
è ¿
è ģ
é £
í Ĭ
Ġ ÙĪ
Ġt ut
Ġt ies
es k
and on
Ġs ka
Ġs uff
Ġs we
Ġs overeign
ic as
Ġb orough
Ġf ame
Ġf oll
Ġf ighting
Ġf ittings
ro at
re z
ĠC ey
ĠC osmetics
ĠC GI
Ġm yth
Ġm enswear
ĠS ay
ĠS tern
ĠS pl
ĠS aw
ĠS ands
ĠS ioux
el o
ĠT ric
ĠT unnel
ĠT oei
ĠA Z
ĠI G
ĠI ps
un ion
il is
il st
Ġl ad
Ġl ot
Ġl ived
ĠM B
ĠM use
ĠM RO
ĠM Hz
Ġd Ã©
ur ers
ĠB R
ĠB ain
ĠB ov
ĠB atter
ĠB ibl
ir is
ir ut
et ch
ad t
ĠP ug
ĠP ope
ĠP aints
am el
Ġh i
Ġpro ced
Ġpro ceed
ĠL ub
ĠL ast
ĠL odge
ĠG n
ĠG ates
ĠG SE
ĠG rap
ĠG rid
ĠG raz
ĠR S
ĠR i
ĠR id
ĠR aw
ĠR az
ĠR oot
ĠR ams
ĠF it
ĠF res
ĠF arn
Ġre ading
Ġre verse
Ġfor ens
ĠIn stant
ĠN B
ĠN W
ĠN ab
ĠN ig
ĠN umber
ĠN ept
ĠE S
ĠE in
ĠE du
ĠE cl
ĠE co
ĠD est
ĠD ish
ĠD ew
ĠD Ã©
ĠD unk
ĠD oha
ĠD erek
em outh
Ġon to
per or
ĠH ur
ĠH eb
ĠH ull
ĠH alf
ĠH aut
ĠU m
ĠU FO
ce pts
im an
ĠW ies
ĠW ake
ĠW ester
ev en
ag ues
Ġst ood
Ġst akehold
ĠJ D
erv ille
ĠK R
ĠK ab
ĠK ang
ĠK ah
ĠK een
ĠK amp
ĠK urt
ĠK ohl
ĠSt a
ĠSt ones
ĠSt eyr
ew ood
Ġal le
ip zig
ubl ed
ĠV a
ĠV id
ĠV all
ĠV ox
ĠV HS
ĠV ickers
od ic
od el
og s
ĠUn ified
ĠUn limited
ob alt
ill ac
Ġproduct ivity
ĠCh ain
ĠCh annels
ĠCh ronic
Ġor th
Ġind ices
pl er
ang as
Ġsp ark
Ġsp inoff
ast on
ĠInd ie
ĠY er
olog na
ey e
Ġcomp ounds
ood le
ĠNor walk
ĠAr med
Ġcons erv
Ġcons ider
ãĥ ¯
Ġreg ister
ie ber
ĠPro gressive
ĠTh oroughbred
Ġcont ext
ĠEx tra
aj i
Ġ5 9
Ġpublic ity
Ġag es
Ġretail s
ann uation
ĠSp artan
ĠCom ic
ĠMar io
els mann
ind ers
Ġyear ly
Ġtw ice
ĠTr ail
ĠTr ump
Ġequ al
ĠSw ans
ick er
Ġcommercial ize
Ġab use
ĠCon vention
ĠCol eman
ier i
ĠBl ind
Ġdiv est
Ġper m
ĠCl a
Ġvar ied
Ġup stream
ĠFl oyd
Ġinter connect
ĠPl aces
Ġ7 3
Ġ7 9
Ġsmall est
Ġrel iable
eop les
ĠOr der
ĠAm st
Ġfac ulty
Ġstr aight
ĠWorld s
ush i
se ud
uck et
Ġfund ra
ĠStud y
ux e
ĠRep air
ĠGen er
ĠX en
ĠPort able
ĠSch war
ĠBar nes
cy cl
Ġschedu ling
ĠWh at
Ġgener ator
Ġaud it
ĠHe aven
ĠEm il
pres ident
Ġanim als
Ġdisc ounts
à¸ ¢
hold ers
ĠMotor ola
ĠTurk men
omet ric
Ġrece iving
Ġregul ations
ĠCorp s
ĠSam oa
ĠGreen berg
Ġsouth west
Ar t
Ã¶ m
AN D
ĠDi Ãłn
Ġcomplet ion
Ġaer ona
ĠNo ise
ĠCy cles
ĠSal isbury
sc reen
app ers
Ġ187 4
Ġ187 5
Ġsound s
Ġder eg
ĠBen ed
Ġsepar ation
Ġpresent ation
ĠInf o
Ġbas ement
Ġbas eball
ĠRoad s
Ġshow c
Ġ186 4
Ġ186 8
ĠBerlin er
ĠOl ive
ĠCam el
Ġz inc
Ġ400 000
Ġauthor ised
ĠSand y
Ġrequ iring
Ġpo et
Ġge ographic
Ġtra ce
Ġrepair s
ĠEver y
ĠNort heastern
ĠMir acle
Ġcrit ically
ĠLank an
Ġimprov ed
ĠDisc ount
ĠBol ivia
Ġjournal ists
Americ a
Ġmess age
ĠWin chester
ĠØ§ÙĦØ ¹
ĠRen o
Ġiniti ated
ĠSar ah
Ġla und
ocr acy
ĠTem pe
Ġcor rect
Ġobject s
Ġposition ed
ĠTechn o
West phalia
Ġdiss olution
Ġattract ed
Ġneighbor ing
ĠLu is
Ġgreat est
Ġcer amic
ĠLind a
Ġwear able
ĠSyr ian
ĠJam ie
ĠBloom ington
Ġcook ware
Ġprivat ized
Ġcour ier
Ġpain ted
ĠPharm acy
Ġdeploy ment
Ġrailroad s
ĠSav age
ĠMus l
Ġcampus es
ĠNob el
ĠAx i
ĠMcG raw
ĠBed ford
Ġgovern ance
ĠPhilip pe
Ġschol ar
Ġwhe ther
Ð°Ñ Ī
ĠKat z
Ġrecre ation
Ġundert akes
Ġdiscover ed
ĠCur tis
ĠGab on
ÙĪØ ·
Ġski ing
ĠHang zhou
ĠKÅį kÅ«
ĠClin ic
ĠClin ton
ĠLeban ese
ĠIns ight
Ġmic roscop
Ġmic rowave
ĠEsp aÃ±
ĠKos ovo
ĠComb at
Ġtex ts
Ġhyper market
Ġtail ored
ĠAerona utical
Ġdiamond s
ĠGraph ic
ĠHind i
Ġcertific ates
ĠUnd ert
ĠMcL ean
Ġcass ettes
ĠJosh ua
Ġchart s
Gu ard
Ġhon or
Ġupd ates
Ġbiom edical
Ġsimul ators
ĠGuild ford
Ġord ered
def unct
åĮ ĸ
Ġess entially
ĠKirk land
ĠBert elsmann
ĠGloucester shire
Ġupg rade
Ġcab in
Ġaccommod ation
ĠWu han
Ġswim wear
ĠLut on
ĠHear st
Ġver ification
ĠGat wick
mid t
ĠSus an
ĠHÅį rud
ĠWag ner
Ġdispos al
Cent ral
Ġjack ets
ĠMans field
Ġsmel ting
ĠSuppl ies
ĠLob law
ĠFranch ise
æ± ½
ĠParagu ay
ĠWholes ale
ĠMicros ystems
Swed ish
ĠPors che
Turk ish
ĠReven ue
Ġfixt ures
Ġæĸ °
ĠGiov anni
ĠVaugh an
ĠCitro Ã«n
éĵ¶ è¡Į
ĠBail ey
ĠGÇĶ f
ĠKhart oum
âĦ ¢
/ /
3 60
4 6
5 7
7 1
B ig
G r
G reen
K A
L a
L and
M ost
N X
O s
S ound
S tone
V M
V ideo
V ista
b ey
c els
c argo
e enth
f arm
f ied
h ler
h urst
i eng
i ece
j ana
j Ã¬
k Åį
l ate
l Ã©
l ake
l ift
n ear
n ica
p ark
r ust
s per
s ay
s erve
s ector
s mith
t ail
t ree
t urn
u ka
w eb
x on
y gen
z el
Ç Ĳ
Ð ł
Ø ¬
á ¹
å ²
å ³
å Ł
ì Ħ
er unner
Ġt all
Ġt ens
Ġt ables
es cop
or ca
Ġa head
Ġin hab
at ures
at ivity
Ġc attle
Ġo ur
en ia
ar p
ar ine
al ong
al to
al cohol
Ġs eas
Ġs ampl
as is
ic ity
Ġb it
Ġf estivals
Ġw rap
Ġw oman
Ġp air
Ġp ale
ĠC i
ĠC rom
ĠC ort
ĠC ube
ĠC RM
ĠC otton
ĠC razy
Ġm is
Ġm el
Ġm oth
Ġm illing
ĠS V
ĠS ang
ĠS ection
ĠS ense
ĠS oph
ĠS eth
ĠS BI
ĠS eeds
el ph
ĠT N
ĠT es
ĠT reat
ĠT ube
ĠT yler
ĠA W
ĠA eg
ĠA RC
ĠI S
il and
il ver
ct on
Ġl ies
Ġl ets
Ġl ift
ĠM t
ĠM ai
ĠM ake
ĠM ys
ĠM ek
Ġd ash
ur is
ĠB rom
ĠB ios
ĠB ourn
ĠB eth
ĠB enson
ĠB auer
ad al
ĠP G
ĠP V
ĠP all
ĠP SA
ĠP oz
ĠP ottery
am ous
ut ion
Ġto t
ĠL O
ĠL un
ĠL ug
ĠL ands
ĠL eather
ĠL ady
ĠG or
ĠG Ã¶
ĠR is
ĠR ack
ĠR ating
ĠR ough
ĠR NA
le e
ĠF o
ĠF ant
ĠF ors
ĠF jord
und y
ly g
ĠIn gram
ĠN ear
ĠN ancy
ĠE E
Ġn om
Ġn itro
ĠD ent
ĠD ul
ĠD ear
ĠD ue
ĠD amp
ĠD oor
ĠD olph
ab e
tr axx
Ġon cology
ĠH ep
ĠH erm
ĠH of
ĠH erald
Ġg ram
Ġg ourmet
oc ity
im ation
ĠW an
ĠW it
ĠW ong
ev iew
ag ents
Ġst ap
ĠJ unction
up l
ĠK ow
ĠK ru
Ġr ul
ul ator
ul ose
ul sion
ĠO st
ĠO bl
ĠO wen
ian z
Ġe gg
Ġwh er
Ġal es
Ġal ph
Ġpr om
ip edia
ĠV P
ĠV ig
ep pes
ob o
ib re
ib li
ĠCh ant
ist ing
ak ush
Ġrec on
all ing
ber ra
ok i
Ġex cellence
pr i
pr ivate
ast ed
ov ia
eg u
eg ie
ĠY an
ĠY ank
ĠY ÃŃnhÃ¡ng
ex port
oy e
Ġcl ock
Ġcl imb
ric e
ik ai
Ġworld s
ĠCan berra
ĠAs p
ĠAs ahi
ĠAn h
ĠAn y
ãĥ İ
ãĥ ĸ
sh ine
Ġy our
Ġj ud
ĠPro duc
ĠTh ir
Ġtel em
Ġtrans mit
Ġcont est
Ġsup press
iss ement
ans en
ĠSp a
ĠSp ok
Ġass ists
ĠMar ina
ah u
Ġ4 500
ĠTr ent
air es
ãĤ °
ĠCar roll
ĠCar riers
com b
ĠTrans ports
ĠBl o
ject s
Ġint ent
ĠCl ients
Ġsc ores
ĠPl atinum
ley ball
ĠOr k
Ġ8 50
Ġ8 0000
inc ome
ral tar
Ġcall ing
LC O
ĠBe an
ĠBe irut
ĠRes p
ĠNov el
Ġlaw yer
ĠDec ree
Ġautom ate
Ġ9 4
Ġmin ister
Ġmin imal
Ġoil s
Ġoil field
Ġfour teen
ĠQu int
ĠHar ro
ĠHar vest
ĠHar court
ĠDis play
ĠX M
Ġsim plified
ĠEd el
ĠEd mond
ĠSch we
burg er
ĠLe ipzig
Ġ12 000
Ġqu ite
Ġbl end
ĠAp ache
ĠVal ent
ĠVal ve
ĠSing er
Ġinstitut es
ĠMc N
Ð¸ Ð»ÑĮ
Ð½ Ðµ
ĠRob otics
ĠSk i
ĠSk ate
ĠCor al
ĠSe ag
ĠAb ram
ĠAer of
ËĪ k
ËĪ n
ograph s
Ġthem ed
à® ¤
à® ©
Ġsuper annuation
CO R
ĠAv e
ĠAv ian
Ġ17 00
Ġcompet ed
à¤ ķ
à¸ µ
ĠPark s
Ġconnect ors
Ġsol ic
ĠDevelop ers
ĠSec ur
Ġrank ings
ĠSa und
ĠChrist oph
æľ ĥ
Ġcomb ustion
ĠSuper Valu
ĠMet als
ĠMet hod
ĠMet eor
Ġinst alls
Ġ24 000
Ġcollect ing
crib ed
ĠRock star
Ġmicro finance
Ġext reme
ĠLib re
Ġpress es
ãĥ³ æłªå¼ıä¼ļç¤¾
ä¸ Ģ
bus ter
iev al
ĠSol omon
Ġ187 8
ĠWil ts
Ġ23 00
Ġsepar ately
Ġcollabor ate
ĠInf inity
Ġhom eb
Ġfarm ing
Ġevery thing
ĠRel e
Ġcamp ing
kt ro
ĠManufact urers
ĠCamb ridges
Ġbel ts
ĠHen ri
Ġfil tration
ĠOut door
ĠLo eb
ĠCas a
ĠCas ual
199 5
ĠId ea
ĠBas que
ĠCarl sbad
ĠCentury Tel
ĠRos a
ĠKn ights
Ġadvis ors
ĠSub urban
Ġdistr essed
ãĥ¼ãĥ Ĺ
Ġche f
Ġdet ails
par ent
ĠEv olution
En ter
bo ats
ky Åį
Ġ185 9
Ġstat istics
ĠMat rix
Ġsubscrib er
Ġgr ass
Ã§ Ã£o
Ã§ Ãµes
Ġsil ent
Ġrental s
ĠSn yder
ĠCharl ott
ĠAnim al
Ġappear s
Ġappear ing
Ġcirc ulation
ĠUl tra
Ġview ing
Ġcontribut e
writ ing
Tr ust
ĠSaf eway
Ġrespect ed
ĠMcC l
For med
ĠUs ing
ĠMov ement
ĠAndrew s
ĠHon or
ĠBand ai
çĶ °
Ġcor ridor
ĠÅ ½
ĠGreg ory
cell ent
ĠOd isha
ĠMind s
Ġstreet cars
ĠKr ish
German y
Ġreturn s
Ġaddress es
Ġmark ed
Ġadministr ators
Pro duct
Ġregard ing
Ġcoast al
Ġconsolid ation
Ã´ ng
Ġvan ity
ĠDep ot
ĠRome o
Ġtank s
ĠCad illac
Ġreiss ued
Ġgran ts
Ġfloor ing
ĠCell ular
ĠCooper ation
Ġpetro l
ĠTal ent
ãĥķ ãĥĪ
ĠMerch and
des igned
ĠKenn y
ĠSales force
Ġreach ing
å¤ §
ĠÃī d
ww w
ĠHop kins
ĠNas daq
ĠOEM s
ĠAbb ey
ĠAbb ott
Ġchamp ion
ĠNBC Universal
Ġadapt ive
ĠTrav is
Ġreduc ing
Ġhyper markets
ĠIraq i
ĠAerona utics
ĠExpl oration
ĠGuit ar
Ġpoly mer
Ġinflu enced
Ġnick el
Ġwarehous es
Ġsequ el
ĠBrun o
ĠMotorcy cle
ĠYang on
Ġunderst and
Ġvolunte ers
ĠRol and
Ġqual ified
ï¼ ī
ĠPix el
ĠLoc omotive
ĠJung le
ĠMonter ey
Ġliv ery
ĠEld er
abet es
Ġskateboard ing
ĠRobb ins
Ġteen agers
ĠLeh igh
Trad itional
Ġretain s
ĠChel sea
ĠScan traxx
ĠGlob o
ĠHers hey
ĠScar borough
Su per
ĠCater pillar
æ´ ĭ
ĠUz bek
Ġperf ume
Ġbeliev ed
à¹Ģ à¸
Vo IP
vol ume
å¯ Į
ĠCIT IC
Ġhamburg ers
ĠRivers ide
ĠAtlant is
Ġtemper ature
Ġcandid ates
Ġlik ely
Ele ven
ĠMercant ile
ĠMins k
ĠInters cope
ĠStef an
Ġwhisk y
æİ§èĤ¡ æľīéĻĲåħ¬åı¸
Ġlith ium
ĠStato il
Ġauthen tic
Ġcolloqu ially
Ġbench mark
ĠPied mont
ĠLaf ayette
ĠStear ns
Ġdestroy ed
Ġlubric ants
ĠInit ial
Ġmegaw atts
ĠSchwar z
ĠDolph in
ĠCambridges hire
7 3
9 1
B eng
B rit
C ast
D L
D r
D is
E MI
F ran
F ree
G T
G lobal
H M
H T
H ong
H indi
I SP
M y
O wn
O ff
P B
P V
P ost
P res
P lan
Q ue
R ed
S ur
S mart
T G
T op
T unes
W er
a ith
b ur
c s
c as
d ing
f e
g al
h ow
h ound
i Max
j ing
k an
k ong
k raft
k usu
l omer
m or
m ic
m ec
m ate
m ember
m ash
m ind
n om
n ering
p ay
p ets
s at
t age
t ier
t ax
t wo
u ly
u ang
v et
w id
z z
¾ İ
Ì ŀ
Ð Ł
× ¢
å ĵ
æ ³
ç «
ç Ł³
ì ĭ
í Ħ
Ġ id
Ġ ÙĨ
Ġ Ùĩ
Ĵ Į
ł Ķ
an za
in ium
in ars
er et
Ġt or
Ġt ap
es ign
Ġa est
at en
at ur
and ro
Ġc yl
Ġc afÃ©
Ġs le
Ġs oy
Ġs ays
Ġs eeds
it us
om s
Ġb an
Ġb ot
Ġb ull
Ġb oot
Ġb anners
Ġf ees
Ġf ighters
Ġf ederation
Ġw ound
Ġw ag
Ġw inners
Ġw elfare
Ġp ending
Ġp sychedelic
ing le
ing usu
ro ute
re view
ĠC K
ĠC L
ĠC un
ĠC MS
ĠC rafts
Ġm b
Ġm ile
ĠS por
ĠS ib
ĠS old
ĠS age
ĠS Ã¸r
ĠS idd
ĠT ig
ĠT ets
ĠA ran
ĠI B
ĠI Q
ĠI ly
ĠI ke
ĠM ast
ĠM oy
ĠM IT
ĠM ighty
Ġd rawn
ĠB ly
ĠB ree
ĠB aj
ĠB ranch
ĠB agh
ĠB ologna
ol ev
ad en
Ġwas t
ĠP inyin
ĠP egas
am ents
am oto
id Åį
ch arge
Ġh app
Ġpro tein
Ġ( '
ĠL j
ĠL ate
ĠL ap
ĠL ip
ĠL easing
ĠG O
ĠG ent
ĠR eel
ĠR isk
ĠR iot
ĠF uk
Ġ2 20
ĠIn side
ĠN ur
ĠN eg
ĠN ike
ĠE C
ĠE F
ĠE ch
ĠE ra
ĠD as
ĠD ra
ĠD ort
ĠD ans
ĠD res
ĠD SP
ĠD oming
ĠD enny
ab r
ab as
ig l
ec ess
tr ack
ĠH us
ĠH ary
ĠH uff
ĠH agen
ĠH ebrew
ĠH BO
ĠH MV
Ġth reats
Ġth irteen
im ental
ĠW o
ĠW id
ĠW ah
ĠW rit
ĠW ealth
ag i
ag as
ĠK P
ĠK re
ĠK err
ĠK iller
ĠK obe
ul ative
ul se
op t
op rop
ĠO K
ian ts
Ġe ighth
Ġwh ilst
Ġv oting
ver n
ĠV as
ĠV ital
ĠV ij
ĠV eter
ep s
ep pe
od ian
ob le
ill ic
ĠCh a
ĠCh in
ĠCh iba
cl in
cl air
Ġprov isions
Ġk ing
ĠAir tel
Ġrec ycl
all o
ĠInc ome
ok ing
old t
Ġex am
Ġdis app
eg al
ĠY ar
âĢ ĺ
Ġpl asma
oy le
yst all
Ġpart nering
Ġoffic ers
ens ation
ens ka
ĠAr tis
ĠAr sen
ĠAn k
ĠCo imb
ĠSh ir
ĠSh ine
Ġdesign ation
Ġcoun t
Ġent ering
ons e
ĠPro ducer
ĠTh ames
Ġ18 37
ash ions
hen y
Ġco ating
ĠPr ud
Ġout patient
red itation
Ġinvest igation
Ġorgan ize
ĠSp ike
ĠSp arrow
Ġwork shops
ĠCom er
ĠNorth rop
ĠNorth western
ĠTr ident
ĠTr ains
ĠTr iple
Ġph ased
ãĤ ±
ãĤ »
ĠSw ord
enn er
ĠCar b
Ġmult ic
Ġmult idisc
Ġbro king
Ġact ress
her ford
ĠTel eph
Ġpre ferred
Ġ6 0000
In t
In ter
In ternational
amp s
ough ton
Ġsc ore
Ġsc rap
Ġsc anners
emb le
ĠPl ano
Ġrel aunched
res ent
Ġhold er
ĠMon key
Ġinc arn
inc k
ĠÐ ¿
ĠWar rior
ĠPar agon
Ġpres ents
Ġpres erve
ott i
Ġexp ense
Ġexp osure
lo on
ĠGu arant
ĠBel ize
ĠBel mont
Ġtelecom s
Ġ- -
ath i
Ð¾ ÑĤ
ĠHar per
æłªå¼ıä¼ļç¤¾ ãĤ¢
ĠMin or
ĠTV S
ĠSu k
ĠPart icip
Ġsing ers
reg istered
ĠDel ph
ĠDel ivery
Ġintegr ators
Ġcontin ent
ling en
ĠAg encies
ĠEm my
ĠAer on
ĠAer ol
ĠAer od
Ġi Tunes
lin er
Ã¼ l
Ġthem es
DA X
CO N
ĠFir estone
Ġcomm issions
ke k
ĠDevelop ments
Ġsur plus
ĠSun set
bre aking
Ġbi ological
Ġgu ests
IC E
St ate
ĠMel ville
ism ic
ĠIr win
Ñģ Ð¿
ĠSuper markets
Ġregul ation
ĠInt ellectual
ĠSim s
18 0
ym ers
ĠLib ert
Ġdem o
ĠWith in
ĠCr ime
oph arm
Ġany one
ä¸ Ĭ
ĠBur ke
ĠDan i
app ed
ĠFre eman
ÙĬ Ø±Ø§ÙĨ
osh a
ĠOper ators
Ġcollabor ated
ĠAutom obili
Ġarchitect s
aus er
Ġcontain ed
Ġland ing
ĠRel easing
bank s
AR T
Ġvirt ually
ĠCap com
ĠFair child
ĠHigh land
Ġcr ash
Ġroll ed
ãĤ¹ ãĤ¿
board ing
Ġhuman ities
ĠOut sourcing
Ġant iv
ĠRh odes
ĠMax im
ĠMax well
ĠHaw k
Ġpos itive
ĠMa atschappij
ĠWe is
inter est
Ġbr ings
bo at
Ġperiod ical
ĠBu y
cont inental
ĠMat hem
Ġdiscount ed
ĠOak s
ER P
Ġwind ows
ĠHun tsville
ĠKaz an
Ġdescrib e
ĠGal icia
ĠMult ip
Ġrev oked
Ġ× ĳ
ĠMob il
enth al
ĠLeg isl
Ġconstruct ing
ĠHard y
Ġview s
ĠAppl ications
Ġestablish ments
Ġcontribut ors
unn an
ĠDisc over
ĠMas ters
enz o
enz ie
Ġspons orship
ĠMur d
ĠAnton ov
ĠLev i
ĠSar as
run ning
ĠInn s
Ġà¤ ¬
Ġreported ly
ĠSr b
kin son
çĶ Ł
ĠTe achers
éĽ» åŃĲ
Ġmix ing
Ġrestruct ured
Ġsens or
Ġcult ures
ĠLyn n
ãĥ³ãĤ ¿
ĠBever ages
ĠDat abase
ĠThrough out
ĠMaur ice
ĠPack et
ĠAnal ysis
Ġcontact s
bach er
ĠGran ada
ĠYam ag
ĠYam aha
ĠMand al
ĠMand arin
Ġkilomet ers
Ġwholesal ers
EP CO
éĢ ģ
ĠPoly Gram
ĠIntegr ation
ĠMu eller
ĠDig i
Ġsurf aces
ĠLaur a
MV NO
ĠFried man
ĠLithu anian
ĠPhill ip
Ġoccup ies
Wh ile
Ġdrink ing
publ ishing
Ġtransform ed
Ġloss es
æĿ± äº¬
hard t
ĠCN N
ĠSloven ian
ĠEA DS
Ġinform ally
ĠHind ust
Ġmuseum s
ĠSI X
Ġbear ing
ĠWol ver
ĠAmb ros
Pl us
Ġnick name
ĠCarn egie
ĠContract ors
Ġrefriger ation
ĠRut herford
ãĥĹ ãĥŃ
Ġpsych ology
ĠBonn ier
ĠViv endi
ĠHein rich
ãĥĥãĤ¯ ãĤ¹
ĠHost ing
Ġsoundtr ack
sup ported
ĠLud wig
Ġrecip es
ĠTelef Ã³nica
fre quency
ĠTax i
Ġbal ance
Ġforward ing
iw i
ieb olag
ä½ ľ
Ġpor celain
ĠEmploy ees
íķ ľ
ĠBish kek
éĩ ĳ
ĠGroc ery
Ġloudspe akers
à³ į
éģĵ æłªå¼ıä¼ļç¤¾
ĠSach s
ĠMaz da
ĠDad dy
ĠRhe in
Ġshoo ter
Ġmonet ization
ĠAcqu is
Ġdetail ed
ĠRenew able
Ġdig it
ĠMarath on
ĠSocied ad
Ġpursu ant
Ġtrolleybus es
Ġeas ily
angel ical
ĠYugosl avia
ĠSustain able
ĠTup olev
Ġhelm ets
ĠHoff man
ĠBuckingham shire
ĠHokka ido
åĩ º
ĠCurt iss
ĠZhe jiang
Ġconfigur ation
ãĤ¸ãĥ£ ãĥĳ
prox imately
è» Ĭ
Ġaccord ance
Ġfreel ance
Ġoccurr ed
éħ Ĵ
Ġextrem ely
Bul g
Ġfoll ows
ĠIps wich
ĠEcl ipse
ĠHÅįrud ingusu
ieng esellschaft
alcohol ic
ĠBourn emouth
Beng ali
lomer ate
íĦ °
ĠBagh dad
ĠHary ana
Ġmultidisc iplinary
3 20
5 3
5 4
: //
A IM
D R
D igital
F ront
G Y
G ood
H E
H G
H ar
L ive
M o
N SE
O EM
P T
P vt
R ay
S U
U r
V er
V iet
W e
b ot
b ra
b uss
b den
b udget
b rica
d ep
d eal
f ather
g un
j ack
k or
l u
l ig
l ights
l ogy
m ain
m able
m ax
n ed
n esty
p ost
p ace
p itas
r ate
s port
t ation
u able
v io
w ent
y ar
y Åį
z ler
¦ ¬
¾ éĢģ
Â ²
Â ·
Ð Ŀ
Ñ İ
Õ ¡
Ù Ģ
å °
æ Ģ
æ Ń
ç łĶ
è ±
é ¦Ļæ¸¯
ê µ
Ġ ir
an ol
an ical
Ġt reas
Ġt enth
he v
he user
or er
or iginal
Ġa x
Ġa uctions
ed in
at ri
Ġc c
Ġc ans
Ġc odes
Ġc osmetic
en i
ar ound
Ġs aus
Ġs oda
it ative
as ons
ic le
Ġb urn
Ġb ubble
Ġf on
Ġf ax
Ġf oster
Ġw rist
Ġw afers
Ġp in
Ġp ep
Ġp all
Ġp enc
ing o
ro ots
ĠC F
ĠC og
ĠC ome
ĠC ai
ĠC aj
ĠC ros
ĠC reat
ĠC ogn
ĠC IM
ĠC SR
ĠC rypt
ĠS z
ĠS od
ĠS ug
ĠS ex
ĠS ans
el iers
ĠT ill
ĠT ah
ĠT UI
ĠA F
ĠA u
ĠA ere
ĠA round
ĠA RM
ĠI O
us anne
Ġl ove
Ġl ayer
Ġl unch
ĠM erv
ĠM uch
ĠM other
ĠM MO
ĠB uss
ĠB AS
ĠB yr
ĠB iot
ĠB AF
et he
ol an
ad ian
ĠP E
ĠP hel
ĠP otter
ĠP ension
ĠP DF
ĠP eoples
am mer
am ax
ut a
ut ter
Ġto wers
ch arter
ch ief
Ġh p
Ġpro l
Ġpro spect
ĠL ar
ĠL ess
ĠL Ã©
ĠL uxury
ĠL PG
ĠG and
ĠG enn
ĠG rain
ĠG artner
ĠG yeong
ĠR if
ĠR av
ĠR olf
le ments
le wood
le ading
ĠF u
ĠF ub
ĠF ram
ĠF alk
ĠF ramework
ers oll
Ġ2 60
st roke
ĠIn sp
ĠN L
ĠN g
ĠN y
ĠN ir
ĠN ou
ĠN ES
ĠE i
ĠE vent
ĠE gg
ĠE cho
Ġn ecess
ĠD ro
ĠD re
ĠD ia
ĠD ud
ĠD ens
ĠD uc
ĠD rew
ĠD rop
ĠD istance
ĠH s
ĠH in
ĠH ond
ĠH esse
ĠH IV
Ġth reat
Ġg ets
Ġg rant
Ġan gel
ot he
ot ek
ĠW as
ĠW ey
ĠW ight
ĠW PP
ev ac
Ġst em
Ġst ead
Ġst one
ment ed
mer e
ĠJ i
ĠJ ets
ĠJ unk
up e
up iter
ĠK E
ĠK ul
ĠK ern
ĠK inet
Ġr ack
th ree
th ird
th alm
ul ators
op p
op ened
ine x
ord ination
ĠSt op
Ġcon tr
ĠO N
ĠO ur
ĠO de
ish ment
art ed
os ing
os lov
ip ted
ver t
ĠV inyl
ill es
ill ie
ug gling
ĠCh rom
ĠCh ild
ist o
ak ed
Ġch ronic
av ed
Ġbe ach
ard y
oun ge
ong o
ok awa
man agement
Ġex porting
Ġex otic
Ġex amples
eb a
eb ra
Ġdis hes
Ġdis abilities
ov an
ov sky
Ġsh ifted
abl anca
Ġpl ates
our ed
ex p
Ġcomp are
ass e
Ġcl ips
ĠAl bum
ik on
ens us
ru k
ĠAr n
Ġap ply
ĠAn heuser
Ġun able
Ġun limited
ton s
ĠSh o
ĠSh ock
Ġy arn
Ġj un
Ġj uris
ĠTh ings
ĠTh erm
Ġtel escop
Ġtrans ports
pro duc
uro s
ĠEx hibition
hen omen
Ġco asters
ĠPr ima
Ġfilm making
ator ial
ĠCom fort
ĠMar se
ĠMar ble
ĠFran ces
Ġcar tridges
Ã© ng
Ġim mediately
enn es
inn y
com mercial
uss ion
ĠSc ient
ĠCon tr
ĠCon stant
ĠBl izz
ĠTel stra
ĠTel kom
Ġpre fecture
ĠCl iff
ĠFl u
ĠFl ights
In vest
ĠAd idas
ph alt
ĠPl ains
Ġ7 1
Ġ7 4
Ġ7 0000
Ġrel ocation
ĠBro ther
Ġev idence
Ġ8 2
Ġ8 6
ĠMon cton
Ġfac ed
Ġstr ips
inc y
ne um
ĠBe ograd
Ġcol ors
Ġcol ocation
ĠNov i
Ġmed ications
Ġ9 6
Ġ9 8
ĠAng els
Ġpar ach
Ġpar allel
ĠQu incy
ĠGen es
ĠHong kong
ĠPol e
ĠPol icy
oul try
ĠEd win
ĠEd mund
Ġport ing
ĠSch ol
ĠSch neider
ĠJu ice
ĠLe ap
ana o
Ġinf rastr
Ġbl ends
press o
ĠInter state
ĠInter public
ĠSing h
ĠSing apor
con i
Ð¸ ÑĤ
ĠPer ry
Ġback ing
ĠSe ab
Ġrefer ral
ĠGr im
Ch ar
CA P
itz er
à® µ
Ġlong time
ĠBer ry
Ġav ionics
Ġhard cover
ĠMer lin
ĠPet erb
ÑĢ Ð³
oe k
Ġshar eware
Ġfact ual
ĠFort is
ĠGl endale
ĠLa ver
ĠLa usanne
Ġnews let
ĠMed ium
ÃŃ s
Ġfre edom
Ġtotal ing
Ġorganiz es
Ġorganiz ing
ĠStr aw
Ġfle ets
ĠShe ar
estin ian
ĠMet all
Ġdivers ity
Ġ24 00
Ġarch ae
ĠAdv antage
ĠFound ers
Ġcollect s
ĠGo a
ĠCons ervation
lear ning
yr us
ym es
Ġsem antic
Ġatt acks
Ġext ens
Ġthere fore
EC T
ĠVer de
Ġship builder
ĠAS IC
Ġremain der
Ġcomplet ing
Ġhous ed
Ġpract ical
Ġdep ots
Ġob s
Ð² ÑĤ
ĠWil ey
Ġrecogn izable
Ø± ÙĬ
ĠBen elux
tt i
tt p
ĠBo oth
ĠBo ise
wh ile
ĠBir la
ĠSpr inger
ĠJe ep
Ġshow ing
Ġjo ining
Ġgraph ical
Ġcr ores
Ã¨ res
IN E
ĠRet irement
ãĤ¹ ãĥĪ
Ġhuman itarian
ĠOut fit
ĠOl iv
ĠCas ablanca
Ġorigin ates
fl u
Ġkey board
ĠId ol
ĠArch ive
ĠKn ives
ĠSup reme
ĠComm and
ĠEv il
Ġfinanc es
orm ally
ĠBrown ing
ĠAÃ© ri
ĠBu ena
Ġ185 1
Ġ185 7
Ġstat ement
Ġstat istical
áĢ º
ET RO
Ã§ ao
ĠEle ven
Ġge ospatial
ĠCharl eston
Ġhy giene
Un ion
ĠBerg er
ĠDem and
Ġfeed s
ĠSi egel
ĠPay ne
Ġappear ance
Ġview ed
åľ °
Ġcontribut ion
ĠRoc he
ĠEss ential
Tr Ã¸ndelag
Ġwatch maker
ĠWall ace
Ġparticip ated
Ġbott ler
ĠDyn am
Ãº n
Ãº bl
ĠDream s
ĠMov ies
ĠHarris burg
Ġtal ented
ĠAst ro
Ġsal on
oly bden
Ġhydro gen
alo osa
Ġins olv
ĠDun l
ĠHan shin
Ġresid ences
Ġsens ing
ĠLind say
label s
ĠZh ong
ĠBow l
ĠBow en
ĠDom oded
ĠBurn s
Ġmodu le
ĠDu P
ĠRef ining
èĪªç©º åħ¬åı¸
Ġpredec essors
Ġà® ¤
ĠGram m
ĠInnov ative
Ġconvers ation
ĠSab ah
ĠLim it
ĠTre k
ĠNap les
ãĥĨ ãĤ£
Bus ch
ĠFoot wear
ĠMall orca
ĠProm otion
ĠVen ice
ĠNic ol
ĠPrinc ipal
Ġfront man
Ġju ices
Ġsurf ing
ĠLaur en
å¤ ©
ĠIng ersoll
Ġkn ives
Ġflav or
Ġoccup ied
æĺ ł
ĠEmer g
ĠWorth ington
trans port
Ġadapt ations
Ġhands ets
ĠRain bow
ĠIntellig ent
Ġdog s
ĠZen ith
Ġflo ors
ĠHug o
ĠAlban ian
ĠStra uss
ĠHunt ington
ĠCos mos
ĠWheel er
ĠJama ican
ĠDix on
ĠDix ons
ĠNan jing
ĠTrib une
Ġupd ated
Ġutil ized
ĠShare Point
Ġcontrovers y
Con nect
Ã©l Ã©
ĠAnch or
Ġcounter part
ĠBeg inning
serv er
Ġbath room
ĠSecret ary
ĠSD K
ĠMaid stone
Ġninet eenth
Ġrecip ient
product s
iffe isen
ĠFerro v
gro ve
ĠCarm el
ĠPars ons
ĠMidd les
Ġanalyz es
Ġacceler ate
ĠKem p
Ġphotograph ers
ĠGroc ers
Ġlands cape
ĠPip eline
Ġdealership s
Ġarrang ement
Ġarrang ements
Pol ish
Ġdess erts
Ġcondom inium
Ġfilter ing
å·¥æ¥Ń æłªå¼ıä¼ļç¤¾
Ġoccasional ly
éīĦ éģĵæłªå¼ıä¼ļç¤¾
Ġster e
Ġpuzz le
Ġdur able
ĠDram men
ĠKad okawa
Ġrend ering
æ² ¹
Ġinject ion
ĠCly de
ĠGib raltar
Ġenjoy ed
ĠAdministr ative
Ġguarant ee
ÑģÑĤÐ² Ð¾
æĶ ¾éĢģ
ĠMÃ© xico
Ġnoteb ook
ĠEthiop ia
àµ į
Ġmax im
æ¨ Ĥ
ĠPens ke
Ġgath ering
ĠStav anger
ĠMalay alam
Ġsuperv ised
apur am
Ġscal able
å¸ Ĥ
ĠTaj ik
ĠAppal ach
Ġvacc ines
Hold ings
ĠCrÃ©d it
Ġsuffer ed
Ġinters ection
íĬ ¸
Ġconserv ative
ĠTurkmen istan
ĠUndert aking
ĠSpok ane
ĠTets udÅį
Ġwast ewater
ĠLj ubl
ystall ine
ĠHindust an
ĠBAF TA
Ġjuris d
ĠBlizz ard
ĠSingapor ean
olybden um
7 00
7 000
9 6
B ro
B ay
B ridge
C s
C ore
D av
D onald
F ly
F ound
F ort
G L
H e
H ome
I B
I CA
I rish
J ohn
K R
K n
L F
L e
M F
M R
M c
M in
M ap
M agic
N Y
N ep
O per
P art
P ack
P rior
R ide
S al
S ign
S yn
S mith
S QL
T e
T ek
T ouch
U D
V E
V ol
W ork
Y P
a q
b ers
b und
b ana
c ross
c ert
c ott
c ussion
f ive
h ampton
h thalm
i ery
j ian
j uku
k it
l ord
l aunched
m berg
o ards
p ose
s ub
t om
x im
£ ¼
¥ ŀ
È Ļ
Î ²
Î ³
Ï Į
Ð £
Ñ Ī
Ø ´
ç Ľ
è ¥¿
Ġ u
Ġ à²
Ġ esc
in formally
Ġt in
Ġt ug
Ġt end
Ġt ender
or ms
is ers
at to
at lantic
Ġc ord
en ergy
en eration
Ġs od
Ġs ax
Ġs olve
it ants
it ives
ic hel
Ġb arg
Ġb iscuits
Ġb irth
Ġf o
Ġf us
Ġf ran
Ġf unk
Ġf avor
Ġf aith
Ġw el
Ġw ool
Ġw inem
Ġw edding
ro v
ĠC out
ĠC ors
ĠC ards
ĠC inem
ĠC ultural
ĠC ura
ĠC otsw
Ġm al
Ġm arg
Ġm asc
Ġm oped
Ġm oment
ĠS J
ĠS as
ĠS per
ĠS ep
ĠS ob
ĠS ure
ĠS IM
ĠS DI
ĠS TAR
ĠT il
ĠT ad
ĠT ate
ĠT abl
ĠT oh
ĠT ales
ĠT aun
ĠT ung
ĠT ambo
ĠT esco
ĠA DA
ĠI ris
us alem
il arly
Ġl od
ĠM end
ĠM ines
ĠM oth
ĠM ash
ĠM au
ĠM ystery
Ġd ent
Ġd ish
Ġd ead
ĠB le
ĠB art
ĠB ates
ĠB ach
ĠB SE
ĠB ones
ĠB oot
ĠB alf
ĠB read
ĠB orders
ol in
ol ith
ad ed
Ġwas hing
ĠP BS
ĠP enh
am ation
am ins
am ental
id uc
ĠThe ater
ch air
ĠL ed
ĠL al
ĠL um
ĠL end
ĠL ok
ĠL oy
ĠL oth
ĠL SE
ĠL umber
ĠL itt
ĠL oud
ĠL ottery
ĠG C
ĠG S
ĠG ia
ĠG overn
ĠG aul
ĠG aut
ĠR ije
ĠF O
ĠF ry
ĠF inanc
ers e
ers h
est i
Ġre pe
Ġre prints
Ġre agents
st e
st ations
Ġfor t
Ġfor ex
ĠN ure
ĠN ix
ĠN ett
ĠN FL
ĠN GO
Ġn eck
ĠD ust
ĠD ex
ĠD orn
ĠD ental
ĠD irty
em on
em ont
ab ank
ig m
Ġon wards
ĠH O
ĠH im
ĠH ess
ĠH anc
ĠH eat
ĠH umber
ĠH CL
ĠH enson
Ġth ought
Ġg etting
oc s
oc ent
ĠU C
ĠU ral
ĠU PS
ĠW W
ĠW is
ĠW ass
ĠW ach
ĠW ink
ĠW ax
ĠW aste
Ġst reets
ain ment
ĠJ h
ĠJ ag
ĠJ ard
ĠJ ake
ĠJ olla
ĠJ ÃŃtuÃ¡n
up a
ĠK A
ĠK er
ĠK ia
ĠK end
ĠK ris
ĠK now
ĠK Äĵ
ĠK ramer
ĠK iwi
Ġr ing
Ġr ings
Ġr ise
op f
op ia
op oul
op tic
ine ken
ĠSt ations
ĠSt ill
Ġcon st
ĠO v
act iv
act ice
Ġv ote
ac i
ac ia
ac cess
ac quired
ew ard
Ġal arm
ip ur
ich annel
ĠV O
ĠV ince
ĠV erve
ect ions
od ing
ĠUn ilever
ĠCh ips
io x
end on
end orf
Ġch ina
Ġch lor
Ġch amber
Ġch urches
av in
av ision
Ġprov ed
ang ers
Ġk ept
Ġsp ices
Ġsp elling
ong e
man i
ĠNew market
ĠEn er
Ġex ception
Ġtr ibut
ov sk
Ġsh ore
Ġsh orts
Ġsh ooting
ĠY um
ĠY emen
ĠY unnan
ĠBr no
ire ann
ond o
ĠRec ently
Ġpart ial
ĠAl ice
ĠAl ta
ĠAl most
ĠAl bu
ik an
ik ing
Ġsu it
ĠAr i
mun e
ĠAn tal
ãĥ ¤
ãĥ Ĭ
ãĥ ı
ron e
Ġem ig
Ġem issions
Ġinv ention
int egr
sh af
elect ronic
che stra
Ġy ield
Ġcoun sel
ĠZ ug
ĠZ ak
ĠTh ur
ĠTh iel
ĠTh ales
Ġ18 000
Ġret ro
ĠBrit t
ĠEx cel
ĠEx changes
ĠEx xon
Ġco aster
Ġelect ed
Ġelect rom
az oo
Ġass ign
ĠMar i
ĠMar ion
ĠMar cel
ĠTr inity
Ġop hthalm
com be
Ġab andon
ĠCon stitut
ĠCon rad
Ġsec ret
Ġcustom s
ĠTrans fer
Ġact u
ĠCent ennial
Ġdiv ested
Ġlead s
ern et
ĠIs a
ĠCl ive
ĠCl over
etro l
Ġ6 1
amp oa
Ġsc anning
Ġsc ope
ĠAd rian
ĠPl at
ĠPl ans
ipp o
Ġrel igion
umb o
ĠOr chard
Ġhold ers
Ġ8 1
19 50
Ġinc orporation
ĠIndustr ie
ĠÐ ĵ
ins ki
Ġcol umn
Ġadd itives
Ġmod ification
Ġmod ifications
ĠEast man
Ġexp atri
Ġfund amental
ĠDec ker
yd ay
ĠStud ents
Ġdom ains
Ġpop corn
ĠMay er
ĠQu arter
Ġmet allurgical
ĠRep resent
ĠMal ibu
Ġtit anium
Ð° Ð·
ĠPol ynes
Ġsim ilarly
ĠAll an
ĠAll ison
Ġsign age
ĠAc er
Ġdo ctors
ĠBar ney
Ġschedu le
Ġ10 1
Ġintegr ity
Ġintegr ator
ĠWh ampoa
Ø§ Ùħ
Ø§ ÛĮ
ĠReg istry
ĠReg ulation
itt al
ĠComp aÃ±
ĠHe ineken
ĠPer forming
ĠAg ain
ĠAg usta
Ġhand crafted
ĠRe ference
ĠEm peror
ĠAb ra
ĠGr avity
Ġdec ree
isc uit
Ġrem ember
Ġrem ix
à® ²
ĠAv ions
ĠWill ow
Ġactiv ist
à¸ ¡
Ġ13 000
Ġdef in
hold ing
ĠMil pitas
uch s
Ġbi ography
Ġbi otech
ĠDes ktop
Ġavail ability
ĠPre t
erb oard
ĠBlack stone
Ġcap ability
Ġvis ibility
omet ers
ĠGeorg ian
Ġpat ron
ĠDo ÄŁ
Ġinst ance
SC I
ĠInstitut ion
Ġcollect ors
ĠInt esa
ĠPal ma
ĠPal estinian
ĠGreen ville
Ġ188 1
AC T
Ġmicro controll
Ġmicro process
ĠCont act
Ġship yards
oph ile
ĠPost g
Ġhous eb
ĠNo el
ask in
ĠMag net
Ġtruck ing
ĠPublic is
Ġpract icing
gy Åį
Ġconf ir
TE M
ĠÃ ĩ
ĠSur in
ME S
Ġpaper backs
ĠDesign s
Ġcatalog ues
ĠBo ats
ĠSky pe
à¦ ²
aut omatic
ĠHill man
Ġweek day
Ġvol leyball
ĠØ§ ÛĮ
Ð» Ð¸
ĠBill board
Ġ186 1
uj i
ĠHy att
ĠMy ers
da o
Ġaccount ancy
fl ug
ĠCre ation
ĠCre ations
ĠCam era
Ġnorth western
ĠTim othy
ĠComm uter
ãĥ¼ãĥ Ī
ĠWe iss
ĠMod els
iat ric
Ġtheat res
Sh op
ĠHal o
ĠCit izen
ĠFar r
Ġgrad uated
à° °
Ġinsp ir
Ġglass ware
str Ã¶m
ĠHun ting
ĠGal axy
ĠMerc ure
Éª n
Ġconduct ing
Ġ× Ĳ
ĠHam mer
ĠDa wn
Ġconstruct or
can ica
ĠJose f
ĠChamp aign
ba o
Ġte ens
Ġunderg raduate
Ġparticip ate
ĠMcC orm
ĠMarc os
Ġfind ing
ĠSat urn
ĠDream cast
Ġput ting
ĠLes lie
ĠEcon omics
ĠAst ra
ĠLev in
ĠBrad ley
ĠCorn ing
Ġà¤ ¨
Ġaggreg ation
ĠTem pl
çĶ »
Ġins ulation
ĠShip ley
Ġposition ing
à¥ Ģ
iagn ost
Ġ36 5
ira eus
Ġimplement ing
ĠChap el
Ġbreak s
Ind ustr
å· Ŀ
å· ŀ
augh t
Ġhor izon
ĠEnerg ia
ĠPil s
ĠPil ot
ĠBurn ing
oty pe
Ġprivat isation
Ġpain ting
Bl ack
uh r
ĠClear ing
ĠMus ik
ĠBak u
Ġscreen ing
ĠRem ington
ĠRem ote
ĠKey stone
Å¡ t
ĠPack aging
ĠOlymp ia
Ġinsur ers
ĠDrug s
Ġschol ars
ĠJer usalem
Ġcurr encies
Ġrif le
Ġenh anced
Ġsurv iv
Ġsurv iving
ĠSin clair
ĠMu ham
Ġnut rit
ĠJun iper
ĠSociet Ãł
ĠBull et
Ġspe aker
Ġregistr ar
Ġrob otic
ĠClin ical
æĺ Ł
Ġsail ing
ĠEmer y
Ġamplif ier
ĠSN K
ĠMong olian
ĠMedic are
Ø¨ ÙĬ
ĠPi per
Ġpetrochemical s
å± ±
ĠPur ple
Ġchild hood
ĠTrad itional
ĠStrateg y
Ġveget arian
ĠISP s
Be fore
ĠHann a
à§ ĩ
ĠSeg undo
ĠMort on
Ġbiom ass
col m
trad ed
ĠMV NO
ĠKum ar
Ġcommission ed
Ġcaus es
izh ia
ĠHein z
aud io
Ġdraw ing
ĠPf izer
ĠPool e
ĠHas bro
ĠRein surance
Ġsew ing
ĠElek tr
Soci et
Ġlapt op
Ġgam ers
Ġsynthes is
haus en
Ġtable ware
Ġheads ets
Ġbrain child
ĠBott ling
ÐĲÐ Ĺ
èı ¯
èı ±
Ġtag line
ĠFel ix
Ġnan otechnology
ĠBj Ã¸r
ĠWik ipedia
Ġloudspe aker
Ġintern ally
ĠBec ause
ĠLuz on
Ġfocuss ed
ĠDeer field
ĠCraw ford
ĠFis cher
ĠHend erson
ĠSpare banken
Ġinaug ural
Ġhors es
Ġcomment ary
Ġopin ion
ĠLeicester shire
ĠDrag ons
ĠKaw asaki
ĠPrest ige
Ġcommit ment
ĠIslam abad
ĠNom ura
ĠWarwick shire
Ġsights eeing
ĠCres cent
ĠZim mer
ĠTril ogy
ĠCarp enter
Ġpattern s
ĠMush room
Ġdepend ing
ĠIniti ative
ĠEffect s
quer que
ĠTac oma
ĠAar hus
ĠAlc atel
Ġdemerg ed
Ġappe al
ĠBurk ina
Ġfulf ill
Ġtoil et
ĠZapor izhia
ĠAmÃ© rica
Ġbackp acks
å£ «
Ġlad ies
ĠPug et
Ġalle ged
ĠAmst rad
Ġfundra ising
Ġaerona utical
ĠGÇĶf Ã¨n
å³ ¶
ĠKow loon
Ġwher eby
ĠSaund ers
ĠWilts hire
ĠCharlott esville
mec canica
ĠIly ushin
ĠBaj aj
ĠPegas us
ĠDort mund
ĠDoming o
ĠArsen al
ĠPrud ential
ĠSaras ota
Bulg arian
Ġnecess ary
Ġjun ior
ĠMarse ille
ĠDuP ont
Pack ard
ĠCura Ã§ao
ĠCotsw old
ĠRije ka
ĠNure mberg
ĠWach ovia
opoul os
ĠAlbu querque
ĠAntal ya
4 000
A head
C U
C he
C oun
C ons
D en
D ec
D ay
D ata
E Z
E uronext
F ire
G e
H o
H ost
K line
K az
L og
L ondon
M ind
M etro
M its
M aker
N W
O pt
O pen
P re
P ty
P ath
P lay
R ob
S an
S ing
S erb
S erve
V s
b order
c u
c io
c asts
d og
e ur
f est
g on
h aca
i em
i eg
l ation
l av
l ings
m ap
m ates
m ath
n ce
n ard
r io
r Ã³
s che
t em
t ogether
u il
u ous
u erei
v d
w ord
y x
y Ã¨
¦ ĸ
» åħ¬åı¸
Â ´
É «
Ë ł
Ð Ĺ
Ñ ħ
× Ĳ
å ¾
ç ģ
è ²
è ½
ì Ĥ¬
í ħ
Ġ á
an agan
in f
in ator
er ra
Ġt ips
Ġt rop
Ġt unnel
ed gling
Ġin active
Ġin exp
at ore
at hens
and al
Ġc ub
Ġc ul
Ġc ogn
Ġc ivic
en k
ar az
ar oo
al er
Ġs en
Ġs eam
Ġs ought
Ġs ulf
Ġthe ory
it ec
as u
as ian
as co
as ys
ic ious
ic ularly
ic iled
om at
Ġf ountain
Ġp owers
Ġp leas
Ġp oultry
ing house
ro te
ĠC arg
ĠC PC
ĠC VS
ĠC ricket
Ġm ent
Ġm ystery
ĠS ed
ĠS ver
ĠS end
ĠS ard
ĠS ylv
ĠS PC
ĠS eason
ĠS isters
ĠS coo
ĠS aints
el ong
el ight
ĠT J
ĠT omp
ĠT ub
ĠT ip
ĠT ell
ĠT ib
ĠT een
ĠT BS
ĠT NT
ĠA ver
ĠA TA
ĠA FC
ĠA uction
ĠA IG
ĠI f
ĠI AC
ĠI MAX
us ers
il icon
Ġl td
Ġl abs
Ġl ager
ĠM ow
ĠM ant
ĠM uk
ĠM Ã³
ĠM ode
ĠM aker
ĠM ove
ĠM echanical
ĠM oment
Ġd erm
ĠB N
ĠB und
ĠB ast
ĠB ors
ĠB uk
ĠB ih
ĠB eta
ir s
ad as
ad ora
ĠP Z
ĠP ron
ĠP uro
ĠP ale
ĠP eel
ĠP ages
ĠP AR
ĠP ipe
am on
ut i
Ġto wer
ch un
ĠL S
ĠL l
ĠL ia
ĠL air
ĠL uck
ĠL argest
ĠL ego
ĠL isted
ĠL erner
ĠG i
ĠG j
ĠG if
ĠG Åįng
ĠG iro
ĠG raf
ĠG ourmet
ĠR M
ĠR ik
ĠR AD
ĠR iding
ĠR uhr
le an
le et
le af
ĠF os
ĠF ountain
ĠF iber
ĠF usion
ĠF rozen
ĠF AA
ĠF ertiliz
ĠF rog
ers tone
est ial
est ine
Ġre wards
Ġre asons
Ġfor erunner
ĠIn land
ĠN em
ĠN ast
ĠN ile
ĠN eal
ĠN az
ĠN BA
Ġn g
Ġn u
Ġn ep
Ġn arrow
ĠD F
ĠD X
ĠD op
ĠD ual
ĠD iet
ĠD alian
ab h
ab out
ig y
ig roup
tr am
ĠH ord
ĠH ap
ĠH air
ĠH af
ĠH err
ĠH icks
ĠH ockey
ĠH VAC
Ġg ases
ĠIt haca
Ġan arch
im p
im er
im ax
im ento
ot ec
ot ely
ĠW ick
ĠW att
ag netic
qu ently
Ġst im
Ġst ret
ain ed
ĠJ as
ĠJ eb
ĠK B
ĠK ra
ĠK ann
Ġr id
ul um
op le
ud s
ĠO u
ĠO w
ay as
act ic
Ġv ict
Ġv ending
ac s
ac ronym
os an
Ġpr icing
Ġpr iced
ts ch
ip el
ip hol
um ann
ĠV eg
ĠV ari
ĠV Ã¤
ĠV ita
if i
if ul
if ting
ep ing
ect ing
ect ious
od er
og i
og ul
ell an
ĠUn o
ob ar
ark iv
own a
ĠCh ance
ĠCh itt
ĠCh atham
Ġch airs
pl ates
evel oper
Ġsp ending
Ġloc k
ong s
man aged
ĠEn de
Ġex porters
eb ox
Ġtr end
ant ine
Ġsh ale
Ġsh ape
âĢ ²
ust ics
ond s
ĠRec ycling
Ġest ates
ric ulum
ĠAl tr
ens a
ach t
Ġres umed
ru z
ru its
ĠAr d
ĠAs sur
ãĥ ¢
Ġun manned
ĠCo ors
Ġother wise
ĠSh ark
ĠSh ops
sh i
Ġro ot
aw ar
Ġunder went
ĠZ ip
ĠPro d
Ġtrans formation
pro p
pro ved
uc le
Ġ18 40
ash a
ash er
hen g
aj evo
Ġag ro
az ioni
red ging
ge on
Ġall oy
Ġall oys
ri ot
ĠSp ice
ĠSp ider
ĠSp ector
Ġass igned
Ġfl own
Ġfl ower
co ast
Ġcar riage
Ġcar pet
ĠTr uth
Ã© mon
ets k
ĠPh on
ĠPh nom
inn ey
ĠCar son
ĠCar lo
ĠCon ver
ĠCon cepts
ĠTrans Link
Ġact ual
ĠBl anc
ĠBl vd
ĠTel ec
Ġgen eal
ern e
eng ined
Ġup market
ĠAd olf
Ġam en
ĠPl ain
ĠPl um
ipp ers
Ġrel ation
Ġrel ief
ĠBro ken
ys sey
ĠOr chestra
Ġprof essors
yn amic
Ġ8 9
ĠAm algam
ĠWest inghouse
ĠAut ob
ĠAut hor
ĠBe ing
amb a
Ġpres ervation
Ġmod er
Ġ100 0000
Ġprogram mable
Ġappro aches
ĠGu elph
ĠJan et
Ġ9 1
Ġ9 7
olv ing
Ġpar cel
ĠMal colm
Ġlicens ee
Ġsim pl
Ġsign als
ĠSch iphol
let own
Ġdel isted
ĠMin as
ĠDr ake
EO S
raz er
ĠPenn y
ĠAp ps
ĠInter est
ĠDel uxe
ean ing
Ġadvertis ed
Ð¸ Ñı
ĠSk ip
ĠSk og
ĠSk ys
ĠSk ull
ĠHe idel
ĠEl k
ĠAg ri
ĠRe eves
ĠAb solut
ĠGr ass
ĠSm ash
ior gio
CA D
ograph ies
pres ent
à® ¯
à® ±
Ðµ Ð¼
Ġty res
à¤ Ĥ
Ã¡ s
Ġcomm ittee
ĠPark ing
ĠPark way
Ġ16 000
Ġfact or
Ġmotor way
ful ly
Ġpol ymers
Ġ14 5
Ġgrow er
Ġgrow ers
Ġlog os
ĠSun shine
ĠGl am
ĠGl enn
ĠMed i
ĠMed ell
ĠDes ert
ĠDes eret
ÃŃ as
ĠBlack burn
ĠTurk u
ĠMetro polis
Ġvis it
ĠFin meccanica
cel or
Ġref iner
ãĥ¼ ãĤº
ĠShe ikh
Ġphot ographer
ĠMad onna
Ðº ÑĤ
Ġexpl oring
aid u
ĠSim ulations
ĠGreen wood
fol io
Ġtour ists
Ġatt ack
ĠMart ins
Ġext ent
Ġext ending
Ġpress ing
ĠVer d
200 5
Ġcas k
éĻ ħ
ä¸ ľ
Ġlo op
ĠSal zburg
Ġconf l
ef lyg
Ð² Ñĸ
Ġfire wall
rol a
ĠMo j
Ġentrepreneur ship
RO UP
Ġbo il
Ġdeb ts
ĠPat ent
ME A
Ġjust ice
æľīéĻĲ ä¼ļç¤¾
ĠMark ham
Ġsl ot
Ġsl ides
à¦ ¨
à¦ ¿
ĠWater bury
Ġportfol ios
bank ing
ĠPan ther
kt ops
off ice
Ġvol tage
ĠManufact urer
ES CO
ĠFair banks
ĠHel i
Ġ28 00
Ġsw ing
Ġcard iov
ĠBill ings
Ġso ups
ather ine
Ġmass ive
ĠOut let
Ġant enna
Ġlif etime
199 6
ĠBas eball
ĠOrgan izations
ĠGro ove
Ġsyn chron
ĠDJ M
Ġche es
ĠEv an
RE N
Ġsit com
ĠGood rich
ĠToy o
Ġperiod s
ĠBu ilt
ĠNav ig
ĠCit adel
ĠCit rix
ĠCit igroup
Ġ185 2
Ġ185 8
ĠWork ers
ĠOm ega
ĠEle ment
ĠEle ph
ĠEle ktro
ĠAz tec
ĠMatt el
Ġconcentr ation
Al though
Ġ× ŀ
ĠEver ett
äº ¤
apt ist
ĠLeg acy
Ġconstruct ions
ĠAppl iance
ĠConsult ancy
Ġexperim ent
ĠFed Ex
Ġparticip ates
For ce
ĠMem ory
ĠEll iot
Ġshe ll
ĠHills boro
ĠØ§ÙĦØ ¬
ĠØ§ÙĦØ ³
ĠStep hens
iot ics
ĠTri Star
ĠRoll ins
ĠFer din
ĠHyd e
ĠLes ter
ains bury
ĠCorn er
Ġ184 1
Ġ184 7
ĠCO O
ĠHans a
Ġstream s
Ġprotect ing
ĠFuj ian
yth ing
Ġless er
Ġless ons
ĠFour th
Ġnav ig
Ġbout iques
Ġwat ers
ĠBa illie
ĠLow ell
Ġdi abetes
Ã¢ n
ĠJo ey
Ġgreat ly
ÑģÐº Ð°
ÑģÐº Ð¾Ðµ
leg al
Ġattorn ey
ĠKr ak
ĠBra athens
ĠNC R
ĠPetro chemical
Ġfail ing
ĠBloom field
ĠDom ino
Ã´ ne
Ġ183 8
ĠControl s
Ġconcern ing
ĠStephen son
ĠGod rej
ĠIv eco
do ors
ĠServ is
ĠInnov ations
ĠWolf e
Cl ass
ĠLag una
ĠDick inson
ĠCel tic
ĠDar ren
ĠKim ber
ãĥĨ ãĥ¬
ige on
ĠBlu eb
ĠMcG ee
ĠSmall Cap
ĠKel owna
Ġsett ings
Ġsett led
ĠRon ald
ĠFreder ic
Ġtim ber
ĠCab ernet
ĠRead y
ãĥķ ãĤ
ĠBernard ino
ĠRa iffeisen
Ġundert aken
Ġdiscover ing
ĠAvia ciÃ³n
ĠCommod ity
Ġchips ets
agu ar
Ġdrum s
ĠPo etry
arch y
Ġbio f
ĠSign ature
ĠAy ala
Ġpens ions
ĠBav arian
Ġcompress ed
å± ķ
ĠZen iMax
ĠScr ipps
ĠMann heim
ĠRu pert
Î» Î»
Ġfunction ing
Ġpers pective
Ġillustr ations
Ġcrowd sourcing
Ġcrowd funding
ĠClar ence
ĠMcL aren
Ġtablet op
Äĥ u
ĠMembers hip
ĠPap a
ambo at
ĠSqu ad
ĠHistor ically
Ġer otic
ĠCream ery
Ġrecruit ing
Ġderiv ative
ĠKum ho
Ġcheck ing
è¨ Ĭ
ĠTong a
ï¼ Ī
æ° ´
Ġcigar ettes
ĠTit le
Ġninet een
Soci Ã©tÃ©
Ġswim ming
ĠHoney well
Bel g
lit erally
ĠNest lÃ©
ĠQuant um
Ð½Ð° Ñı
Ag der
Ġuns igned
ĠMiy ajima
pass enger
Rec ord
Ġwin eries
ĠTram way
Ġelement ary
chin en
ĠRI SC
ĠEy es
ĠWiz ard
ĠPed ro
ĠÐ£ ÐºÑĢ
åĲ Ī
atis f
Ġexc av
ĠCompet ition
ĠSeas ons
ĠShep her
Ġpredict ive
Ġphilanthrop ic
ĠFerr ari
ĠQing dao
ĠOmn ibus
Europe an
Ġwalk ing
ĠUnib anco
Ġexceed ing
ĠÅł k
Ġnightcl ub
Act ive
ĠMarl borough
ĠØ´Ø± ÙĥØ©
Ġfemin ist
ĠTroms Ã¸
ĠCompan hia
Ġchair ed
Ġpurs ue
ĠKole je
cool ed
ĠIdent ity
ä¹ Ŀ
ĠESP N
ĠChÅ« Åį
Ġkios ks
Ġinj ury
ĠAppar el
ĠSymph ony
ĠTuc son
ĠTheod ore
ĠCaled onian
eoph ysical
ĠSkop je
Ġrefin eries
Ġinstruct ional
ĠFlugzeug bau
Ġswe ets
ĠCey lon
ĠBov espa
Ġproced ures
ĠRid ley
Ġspark ling
ĠØ§ÙĦØ¹ Ø±
Ġlaund ry
Ġinhab itants
ĠThir uv
Ġtransmit ters
ĠAvian ca
ĠSecur itas
ĠÃīd itions
wid th
åĵ ģ
review ed
Ġmb H
ĠSpor ve
agas car
Ġdisapp ear
êµ Ń
ĠCai xa
ĠFub on
ĠHond uras
ĠPeterb orough
ĠDomoded ovo
ĠLjubl jana
Nep ali
Ġremember ed
Ġnutrit ional
Serb ian
Ġtrop ical
Ġinexp ensive
ĠHeidel berg
Ġcardiov ascular
1 60
2 50
3 50
5 6
8 1
A v
B H
B an
B est
B ell
B oston
C or
C ompany
C raft
C enter
D ev
D anish
E qu
F DA
G aisha
H a
H y
H en
H ung
J ay
L G
L ith
L AN
M a
M ain
M ill
M ex
M ade
O f
O MX
P D
P ak
P ress
P rodu
S a
T B
T W
T ex
T one
W F
W el
W ind
W ave
X O
a ise
b ard
b eam
b ras
c ultural
d ar
d ivision
f il
f acing
g ang
g old
g rand
g ence
g ger
h igh
h oods
h angul
i F
i ology
j on
j un
k ill
l ion
l ÉĻ
l iche
m issions
m eaning
n ote
o ter
o ia
o anga
r l
r at
r il
s Åį
s bury
s worth
s ervices
t ter
u et
v ig
v ex
v Ã¤
w el
w ords
® Ø·
Ã ®
Å £
Ê ²
ã Ģ
å ĴĮ
é ¾
é ĺ
ê ³
Ġ ic
Ġ áĢ
ĭ ±
Ŀ Ĵ
in Äĥu
Ġt ort
Ġt asting
he on
he art
Ġa usp
and ez
Ġc ir
Ġc ock
Ġc ause
Ġc ylinder
ar illo
al ine
Ġs ay
Ġs pl
Ġs ands
Ġs occer
it ar
it ex
ic at
ic ators
om as
om ew
om ach
Ġb ip
Ġb ird
Ġb aking
Ġf inger
Ġw agon
Ġw inter
Ġw rite
Ġp ell
Ġp ads
Ġp astr
Ġp neum
re p
ĠC ip
ĠC red
ĠC ake
ĠC ris
ĠC app
ĠC ove
ĠC umberland
Ġm ac
Ġm ale
Ġm ount
Ġm orning
ĠS ell
ĠS ina
ĠS pro
ĠS ale
ĠS amp
ĠS yl
ĠS ett
ĠS ka
ĠS iber
ĠS plit
ĠS ainsbury
el p
el en
el ecom
ĠT j
ĠT ut
ĠT od
ĠT ide
ĠT eng
ĠT roll
ĠA J
ĠA TV
ĠA NA
ĠA ston
ĠI k
un til
Ġl in
Ġl ect
Ġl amin
ĠM X
ĠM es
ĠM ent
ĠM ey
ĠM yst
ĠM ile
ĠM ember
ĠM Ã¼
ĠM EC
ĠM itch
ĠM echan
ĠM Ã©d
ĠM anga
ĠM TN
ĠM orning
Ġd ensity
ur ion
ĠB G
ĠB are
ĠB erman
ĠB ax
ĠB amb
ĠB Ã¶
ĠB rant
ĠB akers
ĠB izz
ĠB ali
ĠB aja
ĠB uilder
ir ah
ir atory
et o
et cher
ter ed
ter ran
ter ior
ad ata
ĠP O
ĠP and
ĠP iv
ĠP ound
ĠP ain
ĠP ike
ĠP ump
ĠP VC
ĠP ermanent
ĠP iraeus
id al
ĠThe n
ĠL us
ĠL ol
ĠL ay
ĠL ions
ĠL enn
ĠL inn
ĠL eop
ĠL ung
ĠL arge
ĠG N
ĠG us
ĠG ul
ĠG ug
ĠG one
ĠG DF
ĠR A
ĠR um
ĠR end
ĠR age
ĠR ite
ĠR ue
ĠR ise
ĠR amb
ĠR ider
ĠR uth
le igh
le man
ĠF ang
ĠF ile
ĠF ind
ĠF ever
ĠF AR
ĠF ruit
ĠF utures
ĠF aso
ers k
est own
est ock
Ġre ar
Ġre aches
st ay
st eel
st uffs
ĠN A
ĠN er
ĠN ana
ĠN oor
ĠN IC
ĠN aft
ĠE man
ĠE sk
ĠD ob
ĠD unn
ĠD NS
ĠD iagnost
Ġas phalt
ab o
ig in
ia o
per to
ĠH ag
ĠH ast
ĠH ano
ĠH eller
Ġg um
Ġg ather
oc he
ĠU PC
im ir
im ens
du ll
ot es
ĠW ess
ĠW agon
Ġst adium
ĠJ C
ĠJ ub
ĠJ ume
ĠJ AP
up pet
ĠK ut
ĠK ag
ĠK ine
ĠK av
ĠK ant
ĠK ass
ĠK arm
ĠK ale
Ġr is
Ġr ented
ul os
ĠSt em
ĠSt ap
ĠSt ard
ĠSt ick
ĠSt reets
ud ge
ĠO ran
Ġhe aring
ate x
art e
art en
art ing
Ġv e
Ġv iral
um ers
ĠV W
ĠV ec
ĠV og
ĠV iz
ĠV ocal
if iers
ĠUn ix
ill and
ib or
ib ur
ĠCh il
ĠCh am
ĠCh ard
ĠCh ery
ĠCh ung
ak y
Ġor ange
Ġor ient
av ors
ard i
Ġsp ans
ĠAir plane
ĠAir Asia
Ġac re
ra er
ber us
clud ed
ĠEn field
Ġex cellent
pr iced
Ġtr io
Ġtr ams
Ġat tribut
Ġdis band
ign on
ant ara
eg s
eg an
eg ral
Ġsh ap
Ġsub st
Ġsub mitted
ĠY as
Ġen ough
abl o
Ġpl ane
our se
olog ic
Ġcomp ensation
Ġmarket places
echn ical
Ġspecial ly
Ġcl ay
Ġcl oth
rand s
erg o
ĠAl am
ĠAl ien
Ġsu itable
ru ck
ĠAr uba
ĠAr celor
Ġar bit
ock en
Ġdes pite
Ġdes ktops
Ġ3 30
ĠCal der
ĠCal cut
ãĥ Ħ
ron aut
Ġem p
Ġem power
int a
int ensive
ĠCo up
ĠCo hn
ty pe
ĠSh r
ĠSh ane
ĠSh ibu
ĠSh awn
ĠSh annon
Ġro uters
ĠZ yn
ĠPro te
urr y
Ġcont ests
ĠEx el
ĠEx act
Ġco inc
ĠPr ak
Ġ5 500
Ġag gressive
ry n
Ġout reach
ict ed
ĠMar co
ĠMar vin
ll er
âĢĻ âĢĻ
co x
Ġcar sharing
ets Ã¤
Ġph osph
Ġim p
Ġim press
ĠSw az
ĠMan or
Ġop pos
inn ell
ĠCar re
ĠCar ib
Ġmult ichannel
ĠCon st
ĠCol in
ram id
Ġact ed
ĠBl air
ĠBl ake
Ġfam ed
Ġper mission
ĠCl uj
ĠFl o
ĠFl owers
ĠFl etcher
Ġsev enty
ĠSan ct
Ġinter modal
ĠAd ler
Ġrel iability
umb ria
ĠAt eliers
ĠOr th
ĠUnivers ities
Ġcharter ing
ĠMon arch
ĠAm nesty
19 29
rit z
ĠÐ ¤
ĠÐ Ľ
ĠBe auty
ĠRes idential
Ġmod ified
Ġmod elling
Ġdigital ly
ck er
ott ing
Ġmed ication
Ġdr ain
osp ice
yd e
ĠGu adal
ĠMid way
ĠMid night
Ġdom iciled
ĠBus an
ĠQu art
Ġmet res
egr ass
ĠX S
ĠX er
Ġadv ancement
ĠPol o
ĠPol skie
Ġmon iker
ĠEd ison
ĠAll ianz
Ġsign ings
ĠSch uster
Ġacc ompan
ĠLe f
ĠLe Ã³n
Ġ12 3
ĠTV s
Ġsing ing
reg ional
ĠReg ulatory
ĠRe form
ĠRe ports
ĠAb dull
ĠGr ame
ĠAnd re
ĠSm ok
Ch rist
Ch rysler
ĠBrew er
Ġdec lin
Ġanal ys
CA A
ËĪ t
Ġrem otely
ĠMac Donald
ĠAv ant
Ðµ Ð»ÑĮ
ĠMer ck
ĠIT C
à¤ Ł
Ġ15 0000
SA T
ĠMor i
hold er
ĠInvest ig
ĠLat ter
ĠIm port
ĠIm provement
ĠGl ad
oss i
oss il
bre ad
Ġlit res
ĠSa ab
ĠChrist ie
ape ake
ĠCarol ine
MA C
St ream
Ġfre eware
Ġrock ets
ĠGold berg
ĠRich ter
ism ar
rup p
Ġcap s
Ġaudio visual
omet ry
Ġterm inated
yt es
ĠStar r
ãĥ¼ ãĤ¯
Ġpost s
Ġpost ed
åħ ī
Ġlight weight
ĠMad agascar
Ġsix ty
na ÅĦ
ĠGo ose
Ġexpl ore
Ġval ve
hi ro
ĠSim ply
Ar ts
Ar thur
AC E
Ġtechn icians
Ġext ends
Ġdem ographic
200 4
ĠTw enty
Ġfoot age
Ġfoot print
ĠBell South
Ġaer op
Ġprinc iple
esp ite
ĠAct iv
Ġrep ublic
Ġrep osit
ĠOp us
ask an
ĠMag na
Ġtruck load
Ġmar ried
ĠSal am
ĠBur sa
ĠBur undi
sc ure
Ġimport ance
iev e
ĠÃ ģ
Ġentrepreneur ial
ĠBen z
ĠAcc ra
ĠPat erson
IS T
ME X
vent ions
ĠDesign er
ĠOper a
ĠAutom ated
Ġspec ulative
ĠInf otech
ĠProv iders
ĠProv incial
we ig
Ġhom ewares
Ġtext book
Ġel ite
ĠKh arkiv
ĠBy ron
ĠCommun ities
ĠSmith s
onn ay
IA A
Ġ27 0
Ġ27 00
Ġvide og
Ã¨ s
ĠFund ing
ĠRet urn
roll ing
ĠMy th
Sp ot
ibr ation
ĠRh in
ĠRh Ã´ne
ĠLo ad
ĠCzech oslov
ĠId eas
ĠBas ement
ĠCarl son
ĠOrgan ic
iven ess
Ġpos ters
eth ylene
ria ges
Ġcoach ing
Ġcoach builder
ĠLin er
ĠØ ª
ĠØ ¯
Ġsit uations
ĠTy res
Ġbr ake
ĠOk anagan
ĠAÃ© rea
ason ic
ĠKar en
à° ¾
Ġtrademark ed
ID E
ĠSyn ergy
Ġcompos ition
Ġge ological
Un til
ĠHa as
ÐĲ Ð²Ð¸Ð°ÐºÐ¾Ð¼Ð¿Ð°Ð½Ð¸Ñı
ĠMe iji
Ñĥ Ð´
ĠEver green
be ing
Ġcirc a
ĠSant os
ĠNort e
ĠHam m
ĠHam mond
Ġpercent age
Ġclean ers
ĠMic he
ĠHard core
ĠUl ster
Ġse ized
ĠAC MI
writ ten
ĠHamburg er
ĠChamp agne
tel ecom
ĠMas cot
Ġparticip ants
ĠMcC oll
Ġbott ling
ĠFree port
ĠDev il
ĠDev ice
erst while
Ġchief ly
ĠAsh land
ĠAsh ton
ãģ ®
ĠAcadem ic
pect ed
ĠAst or
Ġsal ad
ĠSar ajevo
Ġ184 5
tron ik
ĠKy iv
ĠSr l
Ġhydro carbon
Ġdownload ed
ĠRad ar
ãĥ« ãĥ¼ãĥĹ
ĠAff inity
su per
Ð¾Ð¼ Ð¾Ð±
ĠShin juku
ĠLu igi
ĠHan over
ĠMaster Card
Ġdisp ens
ĠDomin ion
ĠHis p
Ġexpress ion
ĠCypr iot
ĠNY C
Ġturb oprop
Ġ65 000
ĠKl uwer
Ġ183 5
Ġ183 9
ĠClear water
ãĤ¨ ãĥ³ãĤ¿
ĠTour ing
ĠNag asaki
ĠBos ch
ĠRub y
ĠEP s
ĠKey nes
ĠCad bury
Ġdon ors
ĠBall antine
Ġà® ķ
ĠWel ch
åĽ½ éĻħ
Ð± Ñ
ĠDam on
Ġeth ical
EE E
ĠHeart s
ĠHeart land
Ð°Ñ Ĺ
gi ate
anth a
ĠRober to
Çİ n
ĠMol son
Ġep onymous
ĠPrim arily
Ġsurv ived
Ġsurvey s
Ġsurvey ing
mos phere
Ġfold ing
ĠSche me
ĠZamb oanga
Ġcur ated
Ġkn ife
ĠLink ed
publ ished
publ isher
ĠPow der
ĠJud y
ĠLiving ston
Ġprototy ping
ĠSK Y
Ġrein for
pel in
ĠTH Q
pert ino
Ġflo at
åį Ĺ
ĠMP EG
ĠLG BT
ĠNi elsen
ĠStra ight
Ġenthus i
ĠAÃ©re o
het ics
ĠTÅį kyÅį
ĠHab ib
ĠHorizon te
ĠHav illand
Ġsimul ations
Ġrefriger ators
ĠAdvis ors
åŃ ¦
ĠAtt ack
Ġord inary
ĠProp eller
Ġess ential
ĠJoy ce
ĠOg den
Ġneg ative
ĠHerman n
izh ou
Ġrot ary
æ° Ĺ
Ġcigar ette
ĠHutch inson
ĠUtil ity
industr ial
connect ed
Ġswitch ing
fre ight
Ġanalyt ic
cons umer
Ġsew er
rec ord
ĠBee f
ĠMichel le
ĠChes apeake
Ġanth ologies
Ġimmun e
Ġamalgam ated
Ġtro ubl
ãĥ¡ ãĥ³ãĥĪ
ansk rit
roscop y
Ġremov al
Trad er
ĠEditor ial
ÐµÐ» Ðµ
Ġphotograph s
Ñĩ Ðµ
ĠSv enska
ĠPB X
ĠGamb ia
ĠFa ith
ä¸ī èı±
ĠRelations hip
Ġcorrespond ing
Af ric
Cont inental
çī Ī
Ġtask ed
Ġherb s
Ġherb al
ĠRT Ãī
ĠAccount ing
Ġmatch ing
igen ous
ĠTurb o
Ġans wer
ĠKw ik
ãĤ½ ãĥķãĥĪ
Ġpuzz les
ĠCyr il
ĠCyr illic
ĠCraw ley
ĠÐº Ð¾Ð¼
lic ensed
Ġes presso
Ġinaug ur
Ġdam age
ĠHid den
ĠBron x
Ġopin ions
Ġdeterm ine
Ġencompass ing
Network s
ĠMade ira
ĠPeer less
develop ed
ĠDn B
Ġinterpre tation
ĠBeech craft
Ð°ÑĨ Ð¸Ð¾Ð½
ĠCu pertino
ĠPok Ã©mon
ĠKod ak
ĠYuk on
ĠText ile
atern ity
Ġgeograph ical
Ġcategor ized
ĠDestin ation
ĠKens ington
Ġunif orms
ĠMonitor ing
Ġrefurb ished
Par amount
Ġtom ato
Ġov ens
ĠPleas anton
ĠTowns end
ĠKnox ville
ãĥĽãĥ¼ãĥ«ãĥĩãĤ£ãĥ³ãĤ° ãĤ¹æłªå¼ıä¼ļç¤¾
Tem plate
Ġseap lane
ĠChal et
Ġkabush iki
Ġassort ment
Ïī Î½
Ġbow ling
Ġly rics
ĠFerg uson
Ġaccur ate
Ġbiod iesel
Ġencrypt ion
ĠBatter y
Ġforens ics
ĠYer evan
Ġperm its
Ġdereg ulation
Ġscholar ship
ĠPoz naÅĦ
ĠDamp sk
Ġsuppress ion
ĠHarro ds
ĠAbram s
ĠBree ze
ĠFuk ui
ĠDans ke
ĠDres den
ĠAerod rome
Ġantiv irus
ĠWolver hampton
Õ¡ Õ
Ġfon ts
ĠPhel ps
Ġprol ific
ĠRif le
ĠOde on
produc ing
ĠOutfit ters
ĠEmerg ency
Ġmoped s
ĠMau i
ĠHanc ock
ĠCompaÃ± ÃŃa
ĠEmery ville
ĠMÃ³ vil
Ġderm at
Ġnep hew
Ġamen ities
ĠMedell ÃŃn
Ġboil ers
ĠEleph ant
ĠThiruv an
®Ø· ÙĪØ·
Ġpastr ies
perto ire
ĠHast ings
ĠHano i
ĠJume irah
ĠCalcut ta
ĠShibu ya
ĠCzechoslov ak
' re
+ +
0 3
0 8
1 20
8 000
A er
A ng
A DA
B V
B ur
C E
C roat
D D
D G
D em
D ade
D isc
F in
F ar
G eo
H op
H arm
I Q
I celand
K M
K N
K h
L L
L ight
L aunched
M at
M ark
N ord
P ubl
P ark
R K
R adio
S e
S ystems
T y
T ai
U X
U g
V O
V is
W S
W al
X L
Z one
a a
a ic
b ara
b eck
c ro
c ards
c ience
d ham
f s
f us
f red
f ired
f ighting
f ahr
f isher
f leet
g s
g ars
g irl
h awk
j ong
j Ä«
l ong
l ery
m p
m ay
m atic
n ith
n atural
n ius
p he
p ine
p ack
p ath
r ac
r ong
r agon
s er
t itled
u ana
v id
w as
w oods
w owe
y ou
¹ ¿
Ï ĩ
Ð ĵ
× §
Ø ²
â ģ
ç µ
ç ½
ç İ
è ¼
è ĩ
ì ķ
Ġ uk
Ħ ë
Ļ ¨
an ese
in v
in x
in ia
in ations
er on
Ġt ast
Ġt ie
on o
he son
or Ã©
ed e
is in
is closed
Ġin ner
Ġin struction
Ġin clusive
and om
Ġc akes
Ġc ymb
Ġc afe
Ġc ricket
Ġc obalt
Ġo un
Ġo sc
en b
en o
en za
en stein
ar re
ar ians
al b
al at
Ġs at
Ġs aving
Ġs earches
Ġs atisf
it is
it ations
it Ã©
it ama
as aka
ic i
ic it
ic ient
ic ulture
om es
om ori
Ġb ur
Ġb one
Ġb ills
Ġb uff
Ġb alls
Ġb idd
Ġf ares
Ġf avour
Ġw rote
Ġp e
Ġp ork
Ġp alm
Ġp seud
Ġp henomen
ĠC S
ĠC U
ĠC ure
ĠC over
ĠC air
ĠC iel
ĠC Ã³
ĠC CM
ĠC FO
Ġm it
Ġm ort
Ġm ature
ĠS ich
ĠS ame
ĠS iam
ĠS Ã¶
ĠS IP
ĠS ES
ĠS ON
ĠS RI
ĠS anskrit
el age
ĠT ic
ĠT act
ĠT ort
ĠT ull
ĠT iff
ĠT eva
ĠT atar
ĠA i
ĠA SE
ĠA dul
ĠA OC
ĠA achen
ĠI F
ĠI J
ĠI K
ĠI AS
ĠI MI
ĠI MS
ĠI NC
ĠI GA
un i
un ter
us ions
il Ã¤
il ateral
Ġl i
Ġl ac
Ġl ens
Ġl ooks
Ġl aid
Ġl agers
ĠM ish
ĠM av
ĠM ok
ĠM ue
ĠM eas
ĠM Ã¡
ĠM oe
ĠM IC
ĠM TS
ĠM alls
ĠM Äģ
ĠM AT
ĠM ED
Ġd ock
Ġd upl
ur ide
ĠB es
ĠB id
ĠB um
ĠB ard
ĠB ok
ĠB ash
ĠB oll
ĠB ung
ĠB ally
ĠB BS
ĠB iscuits
ir ano
et r
et ed
et own
et ra
ter ian
ter son
ol s
ad an
ĠP H
ĠP ing
ĠP ran
ĠP anc
ĠP ie
ĠP ace
ĠP oul
ĠP DA
ĠP urch
ĠP iano
ut ica
ĠThe ss
Ġh all
Ġh iat
ĠL od
ĠL ange
ĠL one
ĠL uch
ĠG ael
ĠG ius
ĠG uns
ĠG ospel
ĠR R
ĠR ig
ĠR uf
ĠR ous
ĠR ings
ĠR oul
ĠF ig
ĠF land
ĠF ife
ĠF ris
ĠF DA
ĠF Ã¡
ĠF urther
ers ton
est ro
Ġre b
Ġre charge
st all
st wowe
Ġfor em
Ġfor ef
iv ar
ĠN il
ĠN ec
ĠN eed
ĠN ote
ĠN AT
ĠN eck
ĠN ishi
ĠE W
ĠE f
ĠE z
ĠE ber
ĠE ure
ĠE TF
Ġn arr
Ġn ormally
ĠD il
ĠD oc
ĠD ill
ĠD ire
ĠD OS
ĠD rey
ĠD BA
ĠD ancing
ĠD illon
em ploy
em ann
ab erg
ig ma
ig ua
ĠH Q
ĠH ere
ĠH amb
ĠH avel
ĠH ollow
ĠH Ã¤
ĠH urst
Ġth anks
Ġth oroughbred
Ġg ad
Ġan g
ub u
ub ert
oc hem
ĠU P
ĠU d
ĠU mb
im m
por o
ĠW ear
ĠW itch
ĠW auk
ĠW EA
ĠJ y
ĠJ ab
ĠJ arden
ĠJ PM
ĠJ SW
ĠJ upiter
ĠJ aguar
ĠK K
ĠK i
ĠK iel
ĠK oz
Ġr ule
Ġr appers
ul ous
ine e
Ġman ner
ĠSt on
ĠSt ay
ĠSt age
ĠSt able
ĠSt amp
ĠSt adium
ud es
ĠO H
ĠO M
ian e
ian i
ian chi
Ġhe nce
Ġv oc
ac el
ac ao
os oft
os ystem
ew a
ran e
ip an
um u
ĠV E
ĠV ance
ĠV isc
ĠV IA
ĠV OD
ĠV PN
ep r
od s
od al
od ox
og ors
ĠUn ity
ob s
ob ooks
ug a
ug es
ib ilities
ĠCh air
ĠCh ocolates
ist ant
ak s
Ġor che
Ġch at
Ġch ocolates
pl and
ear l
av n
av ers
av ier
Ġbe ans
so on
igh ing
Ġsp a
Ġsp r
Ġair ed
Ġcom fort
ĠInc heon
ĠEn c
Ġex terior
eb ol
pr ent
Ġtr i
Ġtr ikes
Ġtr ying
ĠInd y
ĠInd ies
for s
Ġdis ability
Ġdis put
eg g
eg en
Ġrecord er
ĠY ves
ĠY eti
ĠBr end
ĠBr enn
ĠBr avo
Ġen z
Ġen rich
Ġpl ate
ond issement
anc ers
ĠRec re
Ġcomp ut
Ġspecial ties
erg lass
ood les
Ġover haul
ack le
ous and
ous ins
ens ch
ru yt
ĠAr ia
ĠAr ista
ĠAr go
ĠAr mani
Ġar gu
Ġdes ire
Ġ3 70
ĠAn c
ĠAn on
ĠAn il
ĠAn ad
Ġcons cious
Ġmain line
Ġund isclosed
pe ople
Ġun cle
Ġem ission
ĠCo in
ĠSh or
ĠSh il
ĠSh am
ĠSh rop
ĠSh aan
Ġreg eneration
sh ot
sh are
sh Ã¬
Ġro aming
Ġro asting
ĠLtd a
che ner
enc o
Ġj ourney
ĠZ ions
ĠZ oo
ĠZ appa
Ġent rance
ĠTh ousand
urr ing
oth ermal
uc ci
ĠAustral asian
Ġwell s
hen t
aj ara
ĠPr actice
Ġsup erst
az ione
Ġtrad er
ĠSp in
ĠSp ade
oper ation
oper ability
âĢĻ .
Ġcar b
Ġcar riages
Ã© ric
Ġph ase
Ġim porters
ĠSc out
ĠQ west
ĠCon stru
ĠCon cept
ĠCol ruyt
Ġcustom izable
ĠBl ade
Ġgen omics
Ġper cussion
eng then
ĠCl aro
ou x
ĠFl at
ĠFl ip
Ġinter state
Ġinter iors
Ġfinancial ly
Ġsc enic
ĠPl ug
ĠPl astics
umb ent
res ter
ĠFor ever
ĠFor ward
ĠFor rester
Ġtransport ed
ax oS
af a
yn et
ular s
ĠAm es
ĠAm bul
ĠAm Law
19 00
ĠAut hors
Ġstr uggling
inc are
Ġresearch ing
ĠÐ ±
ĠÐ ĺ
ĠWar rington
uck er
ĠBe ast
ĠPar all
Ġpres idential
raph ics
ĠRes olution
Ġexp ans
Ġlic enced
ĠDec k
ĠDec ision
Ġbooks eller
Ġmet er
ĠGen ius
ĠDis co
Ð° Ð»ÑĮ
ĠX ML
ĠMich a
Ġadv ises
Ġadv ances
ĠDe k
Ġresp ond
Ġresp iratory
ĠSch a
ĠSch midt
ars k
Ġacc omp
Ġacc ompany
ĠLe ft
ĠFlor ence
ga ard
ĠDr ess
Ġschedu les
Ġbl u
Ġbl ades
ham s
ĠMass ey
ĠInter face
Ġapp ellation
ĠSing le
ij n
ij uana
ĠDel ha
Ġ10 7
Ġ10 9
ĠWh arton
ats un
ĠReg al
ĠReg ent
ĠReg ions
ĠCor man
ĠPer Ãº
ĠEl i
ĠEm por
by terian
ĠAer ial
Ġshop pers
ĠAnd or
ĠAnd rÃ©
Ġtop ic
ËĪ v
Ġend e
Ġanim ations
à® ¨
ĠMac B
ĠAv ex
ĠAv iva
ĠAv alon
Ġhard wood
ĠMer ry
ĠMer iden
TA C
Ġcomm ence
aim ah
uch Ã¢
ĠSun n
ĠIm ages
ĠSec ure
ĠMotor en
Ġgu est
Ġgu ard
omb ie
IC T
St ore
ism s
ĠSA IC
Ġvis iting
ĠStr ip
ãĥ¼ ãĤ·ãĥ§ãĥ³
Ġindivid ually
Ġmodel ed
SC M
ĠCons umers
Ġval ley
Ġval uable
ĠInt ell
Ġband width
ĠPal estine
Ġbuy er
Ð¾Ð ¹
ĠGreen b
Ar ch
Ġstand alone
Ġsem inal
Ġsem inars
ĠCont emporary
Ġdem ol
ĠPres ently
ĠPres byterian
ĠCD C
ĠCr us
ĠCr im
ĠTw isted
ĠPost a
TC L
ĠMos k
ĠCy cl
ĠCy press
Ġany thing
Ġconsum ables
uz e
Ġlo ose
ĠSal omon
ĠBur d
ĠBur mese
Ġred evelop
ĠÃ Ĩ
ĠPlay ers
10 1
Ġgl ider
Ġgl oves
ĠPat terson
osh an
Ġcollabor ations
ĠInf ogr
aint ree
ĠSky West
Ġsk illed
aut hor
PS U
AR M
Ġweek days
ĠManufact ure
ES S
ĠKh od
ĠCap stone
Ġbel ief
Ġlast ing
onn ie
ĠLand es
uj a
iag gio
ãĤ¹ ãĥĨ
Ġselect ive
ĠCle m
ĠOut side
Ġovers een
Ġovers eeing
Ġ35 0000
ĠLo ans
Å« pu
fl ix
ĠCam den
ban i
Ġcoffee house
Ġadvis or
ĠSup ers
ĠBh ut
ãĥ¼ãĥ ī
Th rough
ĠEv ents
ÙĪ ÙĬ
Ġmodern ization
ĠKe ep
Ġtax es
Ġmail ing
ĠSev ern
ĠStan sted
Ġconcept ual
Ġ185 5
ĠPe ach
ĠGar age
well ings
Ġfr ies
Ġgr ind
otter ies
Ġassemb les
Ġprop os
ĠOak ville
ĠAk ron
ĠBah n
ĠHa ifa
ĠWood stock
Ġassist ing
ĠGal ile
ĠMerc ado
part icularly
Éª t
Ġ× Ķ
ĠMob y
ĠEver ything
ĠRest on
ĠKal yan
ĠMir amax
Ġse ating
ĠAC E
ãĤ¢ ãĥ«
ĠRand all
Ġcompil ed
Ġexperim ents
vis or
ĠDyn asty
ĠUs er
ĠTri ad
ĠMov ing
ĠBrad y
ĠOld ham
Ġ184 8
Ġ184 9
Air craft
ĠKy Åį
Ġspecif ications
à¹ Ħ
ĠRad iant
ĠAff l
ĠDun can
ĠOwn er
Ġdiss emin
Ġattract ion
Ġadop tion
Ġneighbor hoods
ĠColl abor
ĠCare er
Ġmix es
Ġmix ers
ĠOd yssey
Ġcer em
ĠPen ang
ĠEric sson
val ue
ĠÄ Ģ
ĠCorpor ations
ĠMind anao
Ġfrequ ent
Ġbass es
Ġcharacter ized
ĠSom alia
Ġmark ing
ĠPear ce
Ġrad ar
ĠNam co
ĠKl aus
ĠKit ty
Ġdiagn osis
ĠAdd ison
Ġcour ts
ĠHD TV
ĠDep ression
198 3
198 7
198 9
ĠDiamond s
ĠÐĲ Ð²Ð¸Ð°ÐºÐ¾Ð¼Ð¿Ð°Ð½Ð¸Ñı
ĠOb s
ĠAgric ole
TR AN
ĠMA X
Ġconvers ions
ĠCell ars
Ġfacilit ating
Î¿ ÏĤ
ĠDar win
ĠFab rik
Ġwholesal ing
ĠCert ification
ĠRod ney
gor od
ĠBed fordshire
Ġearn ings
mith Kline
Ġcompris ed
anth apuram
ĠKenn eth
Sc ale
ĠCer berus
ĠPrim us
Ġsurv ival
ĠExper imental
ĠMess aging
Ph arm
ĠLaur ent
Ġcoup ons
ÙĪØ ¯
ĠJacob s
ĠJun o
ãĥ© ãĤ¤
aza ar
ĠMcK ay
ĠÃī ireann
Ġfib erglass
ĠKÅį gyÅį
Ġrob ots
Ġsail plane
ĠHub ert
ĠStein berg
Ġheat ers
Ġtransform ers
ĠSchw eppes
å® ī
Ġcompar able
áĥ Ĳ
Ġtrol leys
ĠEsp oo
Ġchamp agne
Ġadvoc ate
Ġdram as
ĠNar ita
obb ies
ĠGrey hound
ĠNi Å¡
Ġhyd rop
ĠLead er
ĠGa umont
Ġnick named
ĠDix ie
Ġsynd icated
ĠNan os
Ġassess ments
ĠMoroc can
ĠSag a
ĠLic ence
Ġchall enge
ĠRE IT
Ġincorpor ate
ĠBlock buster
Ã¦r ings
ĠDist illery
ĠCanton ese
Ġrot or
Ú© Øª
Ġscoo ter
ĠBush nell
ÅĦ stwowe
ĠSC E
Ġlab our
Ġinvestig ations
kh art
Ġcab inet
ĠCine plex
ĠFern ando
ĠCran e
Ġlim its
Ġscr ipt
ĠMidd letown
Ġanalyz ing
Ġdeg rees
Ġsynthes izers
ĠUlt ima
á» ĩ
ĠGy ro
Ġyach t
Ġprincip als
ĠBish op
ĠGamb le
ĠHÅį sÅį
Ġste ering
Ġbehavior al
direct or
Ġwa fer
Ġfranchis ee
Ġlearn ed
abil ia
Ġchap ter
alon iki
ĠAkt iebolag
ĠBec ker
ĠBug atti
ĠDim ension
rug ated
ĠCob ra
ĠSME s
Ġdess ert
Ġhamburg er
Ġmattress es
Ġcann ot
Ġpow der
Ġlib eral
Ġeval uate
Ġmiss ile
ĠSap poro
åĭ Ļ
Ġsleep ing
ĠBald win
ĠFul bright
ĠStro ud
ĠAlleg heny
Ġartis an
Ġepis odes
Ġburg ers
ĠAX A
ĠGir ard
ĠJiang su
ĠZy vex
ĠClif ton
ĠClif ford
Ġintermedi ary
ĠTyco on
Ġnightcl ubs
Ġbound aries
Ġfun eral
ĠNin ja
ĠWhe at
Ġvocal ist
ĠAlp ine
ĠZep pelin
Ġshel f
Ġrom ance
Ġadhes ive
Ġadhes ives
ĠAco ustic
Ġlique fied
ĠMang alore
ĠBicy cle
ĠGon z
ĠVil nius
ĠBeaver ton
Ġrecommend ations
æĪ Ĳ
Ġcinem at
Ġdiction aries
stand ard
ĠNant ucket
ĠDut ton
ĠEmpres as
Ġanalyst s
ophon ist
ØµØ± Ùģ
inform atics
ĠVM ware
ĠConstruct ions
Ġcalend ar
ĠSNC F
ĠFro st
manufact uring
Ġincent ive
ĠKamp ala
ĠSwans ea
ĠCamel ot
Ð°ÑĪ Ð¸Ð½
Ġmicroscop es
Ġtall est
Ġdash board
ĠLug ano
ĠLibre ville
å¯Į å£«
Brit ish
Ġbull et
ĠBly th
Ġrecycl ed
ĠCoimb atore
ĠComer cial
Ġincarn ation
ĠSrb ija
åĩº çīĪ
ãĤ¸ãĥ£ãĥĳ ãĥ³
main ly
Ġinfrastr uctures
Ð²ÑĤ Ð¾Ð¼Ð¾Ð±
ĠMiddles ex
Dav id
cert ified
Ġsax ophonist
Ġfus elage
Ġmasc ot
Ġlod ging
ĠJard ine
ĠKÄĵ jÃ¬
iox ide
Ġophthalm ic
Ġabandon ed
ĠDoÄŁ an
ĠSurin ame
Ġfulfill ment
Kaz akh
Mits ubishi
Sing apore
è½ ¦
Ġcub ic
Ġsen iors
ĠTomp kins
ĠBih ar
ĠDop pel
ĠHord aland
ĠAmalgam ated
ãĥĨãĥ¬ ãĥĵ
ãĥķãĤ ¡
ĠShepher d
Ġausp ices
ĠChard onnay
ĠZyn ga
ĠSwaz iland
ĠThiruvan anthapuram
Ug anda
Ġosc ill
ĠMue ang
ĠThess aloniki
Ġhiat us
ĠGius eppe
ĠRoul ette
Ġforem ost
ĠShrop shire
ĠShaan xi
axoS mithKline
ĠAmbul ance
ĠDelha ize
uchÃ¢ tel
ĠInfogr ames
0 4
A z
A dam
B o
B io
B eat
B AN
C F
C y
C op
C onn
C ircle
D ef
D VD
D espite
E p
E DA
E astern
E ye
F R
F ED
F low
G G
H ER
I F
L D
L y
L ocated
L atin
M ag
M ore
M ah
M EC
M obil
N ation
O p
O ther
P E
P at
P rom
P age
P eople
P aul
Q A
R NA
S J
S at
S earch
S hip
S ense
T om
T own
W ar
W right
a am
b age
c os
c rom
c urrently
d ard
d ock
d ance
d ata
d rawn
e ffic
e ffect
f en
f eng
g ie
g rain
g reens
h il
h ub
h ane
h orse
h aven
k l
k us
k et
k nowled
l ocated
l ocal
l ocation
m our
m aid
n ost
n ick
n uk
n ews
p al
p ain
p age
r v
s an
s ang
s ign
s ville
s pring
t re
u o
u ËĲ
v ignon
w op
w ah
w eed
y i
y ah
y uan
¨ ¼
· ¯
Ã Ł
Ä Ļ
Î Ń
Ð Ľ
Ø Ń
à º
å Ĩ
å ī
å Ļ¨
è ³
ì ļ
ì ŀ
í Ķ
Ġ ÑĤ
Ġ err
Ġ à´
Ġ erstwhile
Į ìĿ
Ķ ë
Ķ íĦ°
ł ë
an ch
an ormal
in an
in ent
in ction
er l
er ty
Ġt ile
he ter
es ame
es ha
or ous
or ious
Ġa rom
Ġa ids
ed ic
ed ge
ed ition
is o
Ġin her
at ile
and el
Ġc ow
Ġc ust
Ġc ores
Ġc ycl
Ġc asting
ar co
ar ati
al u
al us
Ġs id
Ġs ending
Ġs isters
Ġs essions
as earch
ic ol
ic iency
om ed
Ġb und
Ġb urr
Ġb omb
Ġb edding
Ġb ibli
Ġf at
Ġf ell
Ġf idelity
Ġf ashions
Ġf ruits
Ġw rest
Ġw orship
Ġp ies
Ġp ine
Ġp ink
Ġp ocket
ro ve
re ck
ĠC ag
ĠC ary
ĠC ull
ĠC aff
ĠC rist
ĠC AC
ĠC ables
ĠC MC
ĠC NC
ĠC RC
ĠC SL
ĠC TO
ĠC aja
ĠC umbria
Ġm ight
Ġm ental
Ġm ould
Ġm atter
Ġm asters
Ġm olybdenum
Ġm ogul
ĠS S
ĠS ain
ĠS ok
ĠS ue
ĠS co
ĠS Ã©
ĠS ys
ĠS Ã¼
ĠS CO
ĠS ara
ĠS ymb
ĠS IG
ĠS SL
ĠS overeign
ĠS oho
ĠT ail
ĠT ry
ĠT ale
ĠT une
ĠT ape
ĠT MS
ĠT rance
ĠT anger
ĠA al
ĠA us
ĠA man
ĠA SC
ĠA leg
ĠA omori
ĠI p
ĠI w
ĠI EEE
ent own
ent een
un ica
us es
il ian
Ġl ear
Ġl ights
ĠM ID
ĠM AP
ĠM amm
Ġd ough
Ġd redging
Ġd ioxide
ur en
ĠB E
ĠB H
ĠB ac
ĠB out
ĠB urr
ĠB one
ĠB ett
ĠB ona
ĠB order
ĠB MC
ĠB AM
ĠB unn
ĠB ingham
ĠB org
et z
et al
et ers
Ġwas h
ĠP le
ĠP ig
ĠP ant
ĠP ern
ĠP aint
ĠP itch
ĠP yth
ĠP HP
ĠP iaggio
ch arg
Ġh arn
Ġpro st
ĠL ik
ĠL oh
ĠL ille
ĠL ister
ĠL att
ĠL IN
ĠL inks
ĠL ulu
ĠL earn
ĠL viv
ĠG und
ĠG up
ĠG ap
ĠG ong
ĠG raft
ĠG eek
ĠG iorgio
ĠR ies
ĠR ew
ĠR are
ĠR aven
ĠR ieber
ĠF R
ĠF oy
ĠF ixed
ĠF ries
ĠF ibre
est ate
Ġre actors
Ġre opened
st ory
iv ian
ĠIn ver
ĠIn ternal
ĠN T
ĠN it
ĠN amed
ĠN ull
ĠN EX
ĠN ils
ĠN itro
ĠN vid
ĠN Ã¦rings
ĠE T
ĠE h
ĠE at
ĠE itz
ĠE aton
ĠE esti
Ġn aming
Ġn inth
ĠD w
ĠD ed
ĠD ents
ĠD oyle
Ġas p
em ed
em ium
ab ar
ab ol
tr af
ĠH E
ĠH F
ĠH og
ĠH ex
ĠH eal
ĠH eng
ĠH ado
ĠH ald
ĠH aus
ĠH ague
Ġg ent
Ġg em
Ġg oth
Ġg igs
Ġg eophysical
Ġan ch
ub en
oc ar
oc om
oc hemical
ĠU FC
ĠU AV
im ar
im arily
ot el
ot to
ot one
ot ainment
ĠW av
ĠW ant
ĠW ired
ound Ã©
ag g
ess es
ĠJ O
ĠJ ur
ĠJ ain
ĠJ ill
ĠJ elly
up an
up pets
ĠK ess
ĠK oo
ĠK FC
ĠK PN
Ġr ar
Ġr ents
Ġr ising
th ouse
ul i
ul in
ul er
op us
ine au
Ġman ip
ĠSt ories
ud d
ĠO c
ĠO mar
ĠO rem
ĠO asis
act s
act er
art i
Ġv ul
Ġv iable
Ġv irus
ac iones
ew orth
ran ked
Ġpr ize
ts u
um ina
ich t
ich ung
ĠV y
ĠV or
ĠV ee
ĠV arian
ĠV ault
ĠV nuk
if ies
iz io
ob ank
are x
ill ers
ill ary
ib an
ib ly
ĠCh anc
ĠCh ick
ĠCh att
ĠCh ats
ĠCh orus
ak in
ak is
ak ukan
Ġor bital
Ġind igenous
end en
end om
Ġch ron
Ġch oice
Ġch oose
pl ant
ore x
cl oud
cl amation
Ġprov en
port e
Ġk ick
Ġk aisha
out s
Ġac knowled
Ġ201 6
land a
ok ee
old ing
ech t
ech ten
Ġex ha
ĠGroup s
Ġtr unk
Ġtr aced
Ġtr actor
Ġdis established
ugh t
eg ra
Ġrecord ers
Ġsh ock
Ġsh oot
ĠY ur
ĠY osh
ĠBr es
ĠBr ave
âĢ ³
Ġen erg
Ġen roll
Ġen cycl
Ġpl acing
anc he
ĠRec overy
oy ama
Ġcomp ly
echn ik
ass en
Ġcl ick
ere in
ĠAl ter
ĠAl ps
ĠAl enia
ĠAl askan
ik in
ik yo
ik awa
ĠCan non
ens burg
ach ing
ff iti
Ġar med
Ġdes k
ĠAn ab
ĠAn ony
ĠAn na
ĠAn cona
ĠCal d
ĠCo chin
ĠSh a
ĠSh out
ĠSh ack
form ers
ee j
enc ore
ight ly
ĠZ ach
ĠTh umb
pro fits
les h
oth o
ĠBrit ann
hen d
aj er
aj as
Ġco ordination
ĠPr as
ĠPr ide
ĠPr uss
az aki
Ġeng r
ge ons
ĠSp ac
Ġwork place
Ġwork stations
ĠMar tha
ind ependent
âĢĻ )
ĠFran ck
Ġcar tridge
ĠTr end
Ġequ ip
Ġequ ally
fer rous
ĠSw atch
ĠMan x
ĠCar tridge
Ġab ras
ĠSc ream
ĠQ at
Ġbro ke
Ġbro ken
ĠBl ak
ĠBl itz
ĠBl oss
Ġbook stores
Ġnot ori
ĠTel em
ĠTel emark
ĠTel evis
Ġgen e
Ġpre f
ĠCl imax
ĠFl ux
Ġsev ere
In fo
Ġinter actions
Ġsc enes
Ġsc andal
ĠAd a
ph ib
Ġhigh ways
Ġhigh light
Ġrel oc
Ġev olution
res hold
amed a
ĠFor rest
ĠAt tic
ĠOr bit
ĠOr dn
ĠCoun t
ĠMon k
ĠMon mouth
ĠAm os
19 39
ĠWest chester
ĠWest lake
Ġinc umbent
Ġstr ugg
Ġstr engthen
Ġproject ors
ush an
se quently
ten ham
ĠÐ ¥
ĠWar burg
ĠJohn s
ĠBe acon
Ġcol onial
Ġnational ized
Ġnational isation
Ġmod est
ĠEast on
Ġprogram mer
Ġexp ect
lo op
ĠPhil osoph
ĠGu ys
Ġbroad er
Ġmin imum
Ġmin iatures
sp ot
sp ecial
ĠAng st
ĠQu ick
Ġmet eor
Ġmet asearch
ath lon
ĠHar lem
ĠDis k
oot en
ĠPol k
ĠPort al
gl ass
ka isha
ĠSch n
ĠSch ering
Ġsche mes
ĠLe igh
ĠAc claim
ĠManag ers
æłªå¼ıä¼ļç¤¾ ãĤ¨
Ġ12 6
Ġ12 8
Ġ12 0000
Ġdo ctor
ĠBar rel
Ġqu artz
Ġeduc ate
ĠFilm works
market ing
ĠRepublic an
ĠInter Continental
Ġintegr ating
ĠWh itt
ĠWh ole
con struction
Ð½ Ñĸ
ĠSk inner
uk em
itt ance
ĠCor on
ĠCor re
ĠAngel o
ĠPer f
ĠPer iod
als a
ĠSe afood
ĠSe iko
Ġrefer ring
ĠAg ile
ĠAg ents
ica id
Ġle agues
Ġdec ks
Ġend ow
à® ļ
ĠAv on
Ðµ Ð´
Ðµ Ð³
Ġparent ed
Ġty re
Ġty co
Ġcompet ency
ĠTur tle
à¤ ¡
à¤ ¤
à¤ ª
à¤ ¹
à¸ Ķ
Ġcomm and
tal a
ĠRed mond
oor weg
Ġfact o
ĠLat ino
ĠIm m
ĠGl axoSmithKline
oss a
ĠLa o
ĠLa urel
ĠMed al
ĠMed icaid
Ġbi ographies
ve z
ĠHealth Care
Ġcredit ors
IC s
Ġfre emium
igg er
Ġtravel ing
omet hing
ĠWilliam son
ĠIr kut
yt echn
ĠGeorg es
ĠStr and
ĠStr uctures
Ã¸ re
ĠMet am
ĠMad ras
Ðº ÑĨ
ĠInstitut ional
âĢĿ ).
ĠSam my
soft ware
Ġexpl ores
ĠÂ °
Ġturn key
Ġno ir
ores cent
18 00
SP s
ĠDi G
ĠFT TH
Ġdem os
Ġpress ed
ĠVer itas
ĠTw ins
ĠWeb s
ĠWeb site
ĠOp s
ĠMag netic
Ġcontroll er
OS CO
ĠSal aam
ĠCA M
Ġce ase
app ist
Ġconf usion
ef in
ĠQuebec or
Ġbo asts
Ġclaim ing
ĠAcc ident
ĠTom as
ĠTom orrow
ĠSur v
ĠSur face
ĠAutom atic
ĠStev enson
ĠNe uchÃ¢tel
Ġfin ishing
ĠBo hem
Ġ22 000
à¦ °
Ġsk is
aut iful
Ġinnov ator
Ġfurn aces
ĠEr ie
Ġcert ifications
Ġweek end
ĠCommun ist
ÉĻ s
ĠHel en
ĠHigh er
ĠWal nut
ĠBoy d
head s
hel f
Ġground breaking
ĠEqu atorial
Ġcop y
Ġdrug store
Ġroll s
ÙĨ ÙĬØ©
ĠAT R
ĠHy brid
Sp ec
Sp ain
ĠSE B
Ġant ique
ĠRh ino
ĠRh ythm
Ġacadem ics
Ġmeas ures
199 1
ĠId eal
ĠCre ator
ĠRog aland
Ġeffect ively
ĠGro ep
ĠGro ton
ĠRos es
ĠRos ario
ĠKn ock
Ġadvis ers
ãĥ¼ãĥ ł
Ġche ap
Ġbar bec
Ġappar atus
ĠTy son
ĠEmir ate
wer ft
wer ks
Ġz ine
ĠSon ny
ĠColle ges
ĠFred rik
ĠCit ibank
ĠGar ry
Ġpromin ently
Ġcle antech
ĠFar oe
Ġauthor ing
à° ¿
ĠHung ry
Ġassemb lies
ĠUp on
Ġconver ged
ĠClass ical
ĠSyn apse
ĠNet flix
ĠAk asaka
ĠAnim als
Ñĥ Ñģ
Ñĥ ÑĢÐ³
Ġfeed stock
urs or
Ġrev olv
Ġæ ĺ
ÉĽ n
Ġ× Ļ×
ĠHospital s
äº ŀ
ĠRetail er
ĠPop ol
ĠJord anian
Ġclin ic
Ġcrit eria
ĠAppl iances
Ġcontribut or
Ġse ismic
ĠAC T
Ġcharg es
ĠOpt ions
Ġcontinu ity
ĠGrup po
ĠMas chinen
Ġunderg o
Ġbott le
ĠMur tala
ĠØ§ÙĦØ ®Ø·ÙĪØ·
ãģ ¡
Ġachiev ing
aco ustic
ĠEcon om
ĠVis a
ĠSar at
Ġ184 4
Ġran ch
Ġcooper ates
AP M
Ġbox ing
ĠCO M
ĠSr ps
ĠBad ger
Ðŀ Ðŀ
styl ised
çĶ £
Ġgar ment
Ġobject ives
à¹ ģ
ĠLi u
ĠLi ability
ĠRad ical
à¥ Ī
ĠCook e
ĠCook ing
ĠShen yang
ĠBa er
Ġattract s
éĽ» æ°Ĺ
ĠLu anda
Ġimplement ed
va art
Ġfar mer
ĠDomin icana
ĠOd essa
Ġmedic inal
ĠKir by
ãĤ¸ ãĤª
ãĤ¸ ãĤ§
Ø§Ø ¯
Ø§Ø ³
ĠWilliams burg
pa olo
ĠGra eme
Ä± n
Ġmark s
ĠPil ip
Ġoptim ize
Ð´ Ð¿
Ġ38 00
Ġregard less
Î¹ Î±
Ġ183 6
ĠBeng ali
ĠHels ing
ĠChang chun
198 2
Ð¾ÑĢ ÑĤ
Ïģ Î±
Ïģ Î¬
Ġbrows ers
ĠHay nes
Ã± a
ĠCad ence
ĠFle etw
ĠPack ard
ĠHell o
ĠWolf gang
ĠBeat les
ĠLag er
ĠMit re
ĠGran ite
Ġproble m
icks burg
ĠCir rus
ĠFab er
ĠEmb raer
Ø§ÙĨ Ú©
Ġdepart ure
ĠRod rig
gor ica
Ġgovern ing
ĠJer ome
æĸ ¹
æĸ ĩ
éĢ ł
ĠCer amics
ĠJul ian
ĠPrim ary
ĠCP U
Ġdrum mer
ĠSer ious
Ġgarden ing
ĠKo Ã§
Ġimmig rants
ĠAbb ots
ĠTerminal s
ĠMons anto
ĠPa ÅĦstwowe
ĠDoll s
ĠKan agawa
Ġadvoc ates
ĠDaimler Chrysler
Ġtail oring
ĠNar vik
fr ills
grow th
Ġtram way
ĠMS N
ĠGa ia
ĠWol ters
ĠJenn ings
Gen eral
ĠGer ard
Ġì Ĺ
Ġpick up
pur pose
ĠBelarus ian
Ġsimul ator
ĠAdvis or
ĠAtt ica
ĠCav al
Ġà¸ Ī
Ġà¸ ļ
Ġsour ced
ĠNut rition
è¨ Ń
ĠBeg gars
ĠInv ict
ĠKrist ian
ĠKrist ians
ĠPhys icians
Ġdraw s
ĠRac ine
Ġliv estock
ĠPath Ã©
ĠRud olph
ĠHert z
ĠUni Credit
ĠConf ederation
ĠKaiser liche
ĠAPI s
ĠVert ical
ĠElek tra
ĠBab cock
Ġhour ly
Ġgam eplay
Ġanth ology
ĠBeck ett
ĠLut her
ĠBry ant
ĠBrass erie
Ġremov ed
Ġgrand son
Ġcouncil s
Ġlaws uit
ĠChel tenham
cre ated
ĠPon ce
ĠHob art
Ġtre ating
Ġpoll ing
ĠWyn dham
ĠThorn ton
ĠÃħ land
Ġdetect ive
Ġhar vest
ĠHank yu
Ġaltern ate
Ġaltern atives
Ġchap ters
Ġaccept ed
process ing
éĥ ½
ĠMust ang
ĠHir sch
Ġpreserv ing
ĠØ¨ Ø§ÙĨÚ©
åĬ Ľ
ĠTir ana
Ġstring ed
Ġcritic ism
Ġcann abis
ĠSerg e
ĠBalk ans
ĠGust af
Ġrend ered
Ġcandid ate
pir acy
ĠCrit ical
Ġstamp s
Ġshoo ters
åĭ ķ
æĶ ¿
ĠCM OS
ĠEven ing
ĠDaw son
ovi Äĩ
ĠÎĳ Îµ
distribut ion
è£½ ä½ľ
¸ë ¨¼
ĠTand berg
ĠPod gorica
ĠFeat ures
ĠOce ania
ĠShot en
uwer ij
Ġpizz as
ĠKind le
Ġtrav ellers
Ġantib odies
ĠAthlet ic
ãĥį ãĥĥãĥĪ
Ġprep are
Ġchampionship s
Rom anian
hist or
åł Ĥ
ĠCe irano
ĠLiter ature
Ġgy ps
Ġendors ed
prem ise
Ġroyal ties
ä¿Ŀ éĻ
LIN K
ìł ľ
Ġcere al
ĠSau vignon
ĠVlad imir
Ġrestric ted
ĠSequ oia
Ġsomet ime
Ġrecapital izations
Ġventil ation
Ġtut oring
ĠFarn ell
ĠNig el
ĠNept une
ĠDew ey
Ġconsider able
ĠCla ude
Ġcabin ets
á¹ Ń
åŁ º
ĠTreat ment
Ġnitro gen
ĠObl ast
Ġegg s
ikai wa
ĠAnh ui
ĠProduc ers
ãĤ° ãĥ«ãĥ¼ãĥĹ
ĠNovel ty
Ġgrass roots
Product s
Wer ke
ĠÙĩ ÙĪ
Ġwag ons
ĠAeron Ã¡
ä¸Ĭ æµ·
Ġperiodical s
ĠYamag ata
OEM s
Ur du
Ġtreas ury
Ġpenc ils
ĠGenn ett
Ġyarn s
Ġtelescop es
Char les
ĠStraw berry
Ġextens ively
ĠFerrov ie
tom obil
ĠBalf our
ĠDorn ier
shaf en
Ġelectrom echanical
ĠConstitut ion
ĠPolynes ian
Ġconfir med
ĠØ§ÛĮ Ø±Ø§ÙĨ
ĠFarr ar
Ġinspir ation
Ġhorizon tal
ĠPils ner
ĠMuham mad
Societ Ãł
Pre viously
íħ ĮìĿ
Ġseam less
Ġpleas ure
Ġrid ership
ĠFerdin and
ĠÅłk oda
ĠCarre four
ĠGuadal ajara
ĠXer ox
Ġreposit ory
ĠLinked In
Afric an
Ġinaugur ated
Iceland ic
may r
nith ological
inv asive
Ġoun ces
Ġforef ront
ĠEure ka
ĠDire c
ĠWauk esha
ĠJPM organ
Ġenz ymes
ĠAffl iction
ĠDoppel mayr
sign al
ĶíĦ° íħĮìĿ
ĠAleg re
ĠPyth on
ĠNvid ia
ĠEitz en
ĠHado op
ĠChats worth
Ġexha ust
Ġnotori ety
ĠOrdn ance
¸ë¨¼ íĬ¸
ĶíĦ°íħĮìĿ ¸ë¨¼íĬ¸
) :
. :
0 7
1 50
3 000
A H
A W
A X
B R
B ase
B ean
B VC
B esides
B uy
B uilder
C TA
C SC
C anton
D e
D on
D NA
D IA
E F
E ston
F ab
F air
G V
G ro
G ate
H igh
I CO
K D
K L
K e
K aisha
K ids
L at
L ite
L abs
M ay
M ate
M ich
M od
M ania
M ayer
N ov
N AS
O K
O O
O ct
R un
R ep
R ock
R eal
S k
S am
S port
S ys
S core
V od
V ox
V iew
W B
W estern
X C
a Éª
a quin
b al
b ay
c up
c apital
d ate
d igital
d yne
e ets
f ar
f el
f rew
f lex
g n
h t
h y
h ar
h are
h off
h oven
i ËĪ
j ust
k k
k on
l us
l ap
l ast
l ite
l itz
m ut
m ix
m embers
m itt
m ode
n abr
p ian
p ell
p ak
r n
r t
r ide
r bach
s z
s ens
s ru
s ons
s ix
s ales
s by
t it
t ee
t les
u ity
v at
v ance
w on
w itz
x ic
y k
y ourself
z an
¦ ı
Ã Ĺ
Å ĵ
É £
Ê Į
Ì ¯
Ì į
Î ¶
Ï į
Ñ ĺ
Õ «
× ¡
× ©
× ª
× ł
å ĳ
å Ŀ
æ Ľ
ç ķ
ç ¾İ
ç ¥ŀ
è ¦ĸ
é «
é Ł³
ì £¼
ï »
Ġ ;
Ġ @
Ġ íķľ
an sha
in ian
er k
er er
Ġt er
Ġt ents
Ġt ier
on ance
he e
he ll
or bital
Ġa qu
Ġa vi
is burg
is phere
Ġin land
Ġin line
at u
at ro
at ten
Ġc a
Ġc ott
Ġc ats
Ġc atch
Ġc oke
Ġc rypt
ar lem
Ġs ight
Ġs olv
Ġs of
Ġs ense
Ġs ym
Ġs oph
ic ante
om u
om ers
om nia
Ġb ud
Ġb ears
Ġb ibl
Ġf itted
Ġf illed
Ġw alls
Ġp un
Ġp iv
Ġp ig
Ġp anc
Ġp erman
Ġp ush
Ġp itch
Ġp iston
Ġp iece
ing don
re el
re ement
re ciation
ĠC V
ĠC oc
ĠC one
ĠC ave
ĠC BC
ĠC rad
ĠC atch
ĠC SI
ĠC ivic
Ġm agn
ĠS ew
ĠS ank
ĠS ik
ĠS emb
ĠS lo
ĠS ever
ĠS EO
ĠS BC
ĠS oon
ĠS ally
ĠS EC
ĠS IA
ĠS ika
ĠS CM
ĠS RL
ĠS auer
ĠS Ã¸n
el i
ĠT ep
ĠT av
ĠT IM
ĠT AL
ĠT andy
ĠT ogo
ĠT oho
ĠT Ã©lÃ©
ĠA ch
ĠA ft
ĠA TS
ĠA NZ
ĠI FC
un te
un ya
us ing
il eg
il ight
Ġl ime
Ġl ots
Ġl ikes
Ġl iner
Ġl enders
ĠM K
ĠM am
ĠM ia
ĠM ul
ĠM ous
ĠM af
ĠM AC
ĠM ango
Ġd ra
Ġd raft
Ġd ams
Ġd iner
ur ved
ur rect
ur iku
ĠB J
ĠB is
ĠB am
ĠB ound
ĠB ess
ĠB ech
ĠB uc
ĠB ury
ĠB ars
ĠB oo
ĠB rea
ĠB enton
ĠB askin
ĠB aptist
ir an
et to
ter ra
ol u
ol en
ol it
ĠP I
ĠP s
ĠP om
ĠP ell
ĠP orn
ĠP aw
ĠP hen
ĠP aj
ĠP ott
ĠP SP
ĠP sy
ĠP oker
am co
ut ies
Ġto urn
id den
ch airs
Ġh ill
Ġh ull
Ġpro se
Ġpro sper
ĠL T
ĠL id
ĠL ign
ĠL ime
ĠL amp
ĠL ips
ĠL illy
ĠL ening
ĠL aunch
ĠG w
ĠG in
ĠG ut
ĠG le
ĠG ian
ĠG ros
ĠG ull
ĠG Ã¼
ĠG EC
ĠG unn
ĠG uth
ĠG Wh
ĠG esellschaft
ĠG ROUP
ĠR up
ĠR ov
ĠR ou
ĠR BC
ĠR ebec
ĠR ibb
ĠR TL
le k
le ad
ĠF E
ĠF Y
ĠF i
ĠF ame
ĠF aw
ĠF eng
ĠF eel
ĠF ein
ĠF MC
ĠF inger
ĠF iji
Ġre built
Ġre actor
Ġre pertoire
st o
st ep
st able
st aff
ly le
ĠN ing
ĠN ost
ĠN ice
ĠN ever
ĠN izh
ĠE as
ĠE el
ĠE ly
ĠE PC
ĠE isen
Ġn oodles
ĠD M
ĠD R
ĠD ab
ĠD eg
ĠD ales
ĠD Ãł
ĠD anger
em ic
em ination
ab it
ab ody
ig ars
ec co
tr ak
ĠH I
ĠH M
ĠH es
ĠH ugh
ĠH ire
ĠH ust
ĠH our
ĠH oy
ĠH ick
ĠH uss
ĠH ou
ĠH TC
ĠH osh
ĠH urt
ĠH obby
ĠH SD
ĠH UB
Ġg ap
ub ai
ow ay
ĠU R
ĠU se
im age
por a
por e
ĠW and
ĠW arm
ĠW itt
ĠW AN
ĠW alls
qu ir
Ġst all
ĠJ A
ĠJ M
ĠJ P
ĠJ um
ĠJ ans
ĠJ inn
ĠJ ade
ĠJ ules
ĠJ ockey
erv iew
up t
ĠK v
ĠK ud
ĠK ik
ĠK ee
ĠK ry
ĠK itt
ĠK Ã¼
ĠK ato
ĠK EPCO
Ġr ut
Ġr ivers
Ġr aces
Ġr acks
Ġr pm
op y
op ing
op oly
Ġman hwa
Ġman ned
ĠSt al
ĠSt ell
ĠSt ark
ĠSt out
ĠSt ena
ĠSt adt
ĠO D
ĠO le
ĠO uter
ĠO TE
Ġe ikaiwa
ac ity
ac os
ac les
ac chi
os at
ran ton
ran ty
Ġal ign
ts ilÃ¤
ĠV L
ĠV u
ĠV ed
ĠV Ã¡
ĠV oss
ĠV ega
ĠV ector
ĠV II
if fer
ect ive
ect ors
og ical
og akukan
ell or
ĠUn ip
ob us
tern oon
arg as
ank a
ib atsu
ĠCh o
ĠCh un
ĠCh ill
ĠCh ange
ĠCh iang
ist icated
Ġor al
end al
Ġbe an
meric al
ang or
Ġsp end
Ġsp oken
Ġrec ipe
Ġrec urring
Ġair ships
all ow
Ġcom ments
ĠEn v
ĠEn core
Ġex ceeded
eb o
eb urg
ost i
ost ok
ast a
ast ro
Ġat mosphere
ĠInd ependence
for est
Ġdis mant
ov ate
Ġsub mit
Ġsub ordin
ĠY ears
ĠBr une
Ġen cl
Ġpl ac
our ism
ex us
olog ically
oy arsk
ass ador
Ġest im
Ġsubs ea
orn ado
ĠAl s
ĠAl ain
ĠAl ameda
Ġover head
ack ing
ens ha
ach ine
Ġres urrect
idi ary
ĠAr iel
Ġad jo
Ġad vert
tain ing
ĠAs pen
Ġ3 25
Ġap prent
ĠAn tar
Ġund ers
pe are
ãĥ ¦
Ġun con
Ġun ve
ron i
Ġem bro
ĠSh an
ĠSh ari
ĠSh akes
ĠSh ooting
aw ak
enc ian
Ġunder water
Ġunder writing
ĠZ F
ĠZ el
ĠZ omba
Ġcre ativity
ons on
ĠPro c
ĠPro ct
ĠPro ton
ĠPro hibition
ĠTh ing
ĠTh ys
ĠTh ane
Ġtrans actional
Ġcont ents
uc cess
ĠBank er
Ġ18 26
Ġret ention
ily n
ash o
eal e
ĠEx eter
ĠEx pos
aj ors
Ġco ated
ĠPr ed
ĠPr at
Ġtrad itions
Ġfilm ed
ge ois
iss on
iss ur
ict ly
ict ions
ann in
ĠSp irits
ĠMar oc
ĠMar qu
ĠMar ian
ĠMar coni
ĠMar ilyn
Ġfl ood
Ġfl owers
co ats
ĠTr as
ĠTr unk
ãĤ ¬
fer encing
ĠMan as
ĠKing fisher
ĠCar lyle
com es
com ics
ĠCon ven
ĠCon tra
ĠCon nell
ĠCon quest
ition ing
ĠCol ony
Ġlist ening
ier a
ier o
Ġcent red
ĠBl ink
ĠCent urion
her ic
her land
ĠTel es
ĠTel us
Ġpre ced
ern ess
ĠCl er
ĠCl ient
sur ed
ĠFl ower
ĠFl aming
Ġappl ic
ĠSan of
ĠSan paolo
Ġinter disciplinary
Ġinter operability
Ġsc ar
Ġsc rew
eh an
ph an
urg y
Ġam phib
Ġ7 500
ĠBro d
ĠBro ker
ink el
Ġev angelical
ĠFor g
ĠOr igin
yn amics
Ġstore front
ino x
ĠAm d
ĠAm ber
ĠAm way
rit ical
Ġstr ess
ĠTex tron
Ġlaun ches
ne ft
ne utral
ĠGe os
ĠÐ ¾
ĠÐ Ķ
ĠÐ Ń
ĠWar p
ĠWar rant
ĠBe a
ĠBe am
ĠBe alls
ĠPar l
Ġlocal ization
Ġadd iction
Ġmod ems
Ġcorpor ates
ĠNov os
Ġmed ieval
Ġprogram mers
Ġdr ill
osp heric
Ġbrew ers
lo or
ailway s
Ġhome owners
sp ace
ĠBus ch
ĠBus ker
Åį jo
Ġreal time
ĠMay a
ĠMay field
ĠMay fair
ux ili
Ġpar am
Ġpar liament
ĠQu ik
ĠQu inn
Ġmet ering
ĠMal Ã©
eas ibility
ĠGen ie
ĠHar b
ĠX D
ĠX in
ĠX press
ĠX tra
ĠPol aris
ĠEd dy
ĠSch iff
ĠSch oen
ĠSch ae
ars ity
let e
Ġcontract ion
ĠMex icana
ĠBar row
ĠBar ajas
ford s
Ġinf ring
Ġinf ectious
Ġbl ade
Ġline ar
ĠPenn ey
reg ular
ĠVal le
ĠSing leton
ĠTor rent
Ġsuccess es
ĠEst ado
Ġ10 6
Ø§ ÙĬ
Ø§ ÙĤ
ĠMc E
cr est
cr ipts
uk uro
ĠPer l
ĠEl etro
ĠSe is
ĠSe aw
ĠRe k
ĠAb el
ĠAb uja
ĠSm el
ĠSm ile
Ġtop ped
Ch annel
Ġdec re
ËĪ d
ËĪ h
ËĪ É¡
aff le
ler oi
cept or
ĠWill is
ĠWill ie
Ġvari ations
ÑĢ Ð°Ð½
ĠIT N
ĠChar ity
Ġtrain ed
Ġtrain ers
à¸ ¥
ĠRed dy
ĠRed stone
Ġ13 4
Ġdef ault
Ġdef inition
Ġ11 5
ĠRo ch
Ġnatural ly
Ġpol es
Ġpol ar
ĠOs nabr
Ġdiffer ence
Ġlog istic
cent ral
Ġaff ected
Ġaff ecting
ĠIm pact
ĠLa ugh
Ġdifferent i
ĠDes mond
ĠMot ive
ection ery
ĠSa o
ĠSa us
ĠSa ud
ĠPre p
ĠHol z
ĠHol ly
azz a
erb oards
omb ia
berg er
berg en
IC S
St orm
rup pen
ĠSA BM
ĠPC S
Ġvis its
Ġpersonal ised
oo ter
Ġterm in
Ġcoll ateral
Ġref ined
hol e
ĠStar wood
ãĥ¼ æłªå¼ıä¼ļç¤¾
ek t
ĠShe ep
ĠTelecom s
Ã¸ ya
ĠMet ron
ĠMet allurgical
ĠMad h
ĠSil ent
ĠSil vio
Ġsix teen
Ġarch iving
Ġcollect or
ĠGo To
Ġturn ing
ĠRom s
Ar landa
ĠRock ford
AN T
ĠChe ung
AC S
Ġatt ended
Ġcolle giate
pol it
ĠMart ial
Ġ21 0
ĠWind ham
ĠCr ash
rop ology
ĠDirect ory
IP A
IP O
ĠBell a
ĠBell s
esp read
ĠAct s
ĠWeb b
ĠOp portun
ĠNo ah
uz hou
Ġlo ading
ĠSal mon
ano oga
Ġob serv
ĠUt recht
ĠWil lys
Ġ23 000
ĠKen yan
Ġpresent ations
ĠLaw son
ĠLaw yers
Ġcollabor ates
ĠArt ificial
ĠNe u
ĠNe igh
Ġdist inction
ĠInf ra
ĠBo one
ĠProv o
Ġsk ill
Ġsk incare
Ġinnov ators
ĠWater town
Ġfurn ishing
ĠEr ich
AR C
AR D
Ġel der
ĠPan asonic
PC L
ĠKh oday
ĠHel ix
Ġshow case
Ġ80 2
ĠWal greens
Ġ28 0
Ġ28 000
ĠNord strom
Ġliter acy
Russ ia
Ġvide ocon
Ġdocument ation
ĠSteel e
à¯ Ī
Ġinitial ism
uj u
ÙĨ Ùĥ
ĠAT I
BM V
ĠSE L
da ÅĦ
Ġovers ee
Ġrepl ication
Ġrepl ica
Ġrepl icas
ĠOl sen
Ġ35 000
Ġant iques
Ġeight een
ĠCas cade
ĠVol ga
Ġlif ts
199 9
ĠArch ie
ĠTa vern
ĠHaw ker
ĠKn ife
rant i
ĠBh arti
ĠTim ber
ĠMa ver
ĠMa ersk
ĠMa estro
ĠComm ons
Th omas
ĠWe ing
ĠWe ight
ĠWe ird
ĠØ £
mar ines
Ġbr ight
ĠPriv at
500 000
ĠAÃ© ro
ĠBu ick
ĠNav i
SO FT
ĠBre tt
ĠHal le
Ġtransfer ring
Ġ185 4
ĠPe ac
ĠPe abody
Ġcomplex es
ĠMat heson
ĠFar id
áĢ ¬
áĢ Ļ
Ġfr actional
ĠSand wich
Ġglass es
Ġconver ts
Ġprop eller
Ġprop ulsion
ER T
ĠCamp aign
ĠAnt igua
ĠSn ell
ĠEle v
Ġge o
Ġinfl amm
Un like
ĠHa arlem
ĠAz iz
ĠDem on
ĠWood land
ĠSpecial ized
Ġassist ant
ĠGal way
ĠGal actic
ĠMerc er
Ġtra ff
ãĤ¯ ãĥĪ
Ġliquid ity
Ġrev ival
Ġæ Ŀ
ĠBook store
ÉĽ t
ĠArm our
äº ķ
ĠCable vision
ĠKal am
ĠCong lomerate
Ġcrit ics
ãĤ¢ ãĤ¤
EL S
ĠRand olph
ĠEss ar
ĠEss el
Tr ip
Tr ade
Ġwatch making
Ġte amed
Ġexecut e
ĠDisc s
à¯į )
Ġparticip ant
vis ible
Ġpip ing
For mer
ĠBol t
NS S
NS W
Ġshe ep
ĠØ§ÙĦØ ¨
ĠRen Ã©
ĠRen frew
ĠIC E
ĠLes otho
ĠWat ers
ĠWat kins
ĠLev ine
Ġsal ons
ĠSar awak
Ġ184 2
Ġ184 6
ĠTob y
ĠFr ame
ĠFr Ã©d
ĠJet star
Ñĸ Ñı
ĠTem po
ĠFire arms
Tel ugu
Ġgar ner
ĠLi echten
ĠRam on
ĠDun edin
ç© ¶
ĠOwn ership
Ġattract ing
Ġadop ting
Ġdi ode
ĠJo aquin
Ġdisp ensing
Ġresid ence
ĠConc rete
ĠGreg g
Ġfabric ated
ĠOd d
Ġbreak up
Ġbak eries
Ġwe ighing
Ġwealth y
ĠGra ce
ĠVo ices
ĠSom erville
ĠAM D
ĠStart up
Ġinvent ing
ĠBi otechnology
Ġ800 000
Ġpul led
ĠGall en
Ġbul bs
ĠDom ain
ĠLion el
Ġcook ies
ĠWinn er
ĠKarl sru
edd ings
Ġstar ch
198 4
Ġdomin ate
ãĤ¨ ãĤ¢
Ġbrows ing
Äĵ ng
èĪªç©º æľīéĻĲåħ¬åı¸
Ġà® µ
Ġforest s
Cl ick
Ð± Ð¸Ð½
Ġseek ers
ĠTre vor
ĠAx is
claim ed
ĠOlymp ics
Ġlat he
ĠAlt air
Ġkitchen s
ĠProm ethe
ĠRod gers
ĠWeek end
ĠPrior ity
Ġsett lements
arus ian
Ġvision ary
ĠNow adays
ĠIntegr ity
Sc ope
hop per
ĠMol ec
Ġep ic
Ġdiscover ies
ĠSel angor
Ġenh ancing
ĠProgram s
ĠProgram me
Ġlas ers
ĠCa uc
ĠCa isse
Sw iss
ĠBird man
ĠSer p
ĠAqu a
ĠAqu ila
Ġcur riculum
Ġclear ance
Ð°Ð½ Ðº
Ġoccup ational
Ġbio informatics
ĠEmer ging
ĠHub ei
Ġmotors ports
ĠTA G
ĠFast est
ĠNas ional
ĠStein way
ĠSchw ab
ĠIns omnia
ĠJud ge
Ġexhib itions
Ġamount ed
yster ies
áĥ ĺ
ĠMold e
Ġprototy pes
ÅŁ inÄĥu
Ġcapt uring
Ġencour ages
Ġfall ing
ĠPi etro
ĠBB VA
ĠShel by
å± ĭ
aron i
Ġpoly ethylene
inch u
ĠCatal an
ĠCatal yst
ĠCatal onia
ĠCatal unya
Ġflo ated
Ġflo ating
ĠDayton a
åį İ
ĠMagn olia
Ġveget able
ĠLead ing
ĠEth an
ĠHil ary
ĠGuy ana
ĠChampionship s
Ġtem plates
Ġcit izen
ĠTest ing
ĠHann over
ĠUN IX
ĠNamib ian
ĠTÅį h
ĠHok uriku
Ġcool ers
Ġanalog ue
ĠLic ense
197 9
ĠHistor ical
bad en
Ġsequ encing
Ġweap on
ĠCJ SC
ĠGrow ing
ĠGrow ers
ĠVers ion
ener ative
ĠTec nica
Ġregga eton
Comp uter
ĠLA TA
ĠWorcester shire
ais al
Ġsnow boarding
ĠTalk Talk
ĠBin ani
ĠChi ÅŁinÄĥu
ĠGem ini
ĠPhys ical
ĠPhys ics
Ġtub ing
Ġninet ies
Ġattempt ed
ĠLiqu id
Ġaccommod ate
Ġarr ays
Ġarr ondissement
ĠThr issur
ĠConf ectionery
Ġcoordin ates
Ġcoordin ating
Ġacceler ator
ĠOrb ital
Bel arusian
ÏĢ Îµ
á» ķ
ĠSey mour
ĠIber ia
ĠLeh man
ĠDart mouth
iment os
Ġadap ters
Re illy
ĠBil bao
ĠNak ed
ĠHarm on
Ġbackground s
Ġfrag rance
çĻ ¼
ĠSut herland
ĠDal ton
ĠAlumin um
Ã¤r tsilÃ¤
Ġdispos able
direct ed
pass ed
Ġtre ated
Ġpoll ution
ĠSid ney
ĠLiv re
à¸Ń à¸£
Ġpotato es
Ġmechan ics
ĠMO TR
Ġdial ogue
ĠBj Ã¶r
Ġrehab ilit
ĠSteak house
ĠAccount ants
Ãłng ÅįngsÄ«
Gold wyn
ĠAkt iengesellschaft
Ġhaul age
ĠDong feng
ĠWed g
ĠYa oundÃ©
ĠGeoff rey
à¹Ģ à¸Ń
Ġans wers
ĠEns emble
Ġsupplement al
Ġcod ing
ĠBalk an
ĠPav ilion
ĠNorthampton shire
ĠAerop lane
åĪ ©
ĠPast a
ĠHors ham
ocon ut
Ġcomed ies
ĠCompos ite
ÐµÑĤ Ð°Ð»
Ġguarant eed
Ġcanc elled
ĠBene fit
Ġcommit ments
å»º è¨Ń
Ġburg er
ĠFeat ure
Ġgate way
Ġnoteb ooks
ĠÐ¼ Ð°ÑĪÐ¸Ð½
ĠEthiop ian
Ġsugg est
Ġpizz eria
ĠIA TA
iling ual
ĠGur Å«pu
ĠØ´Ø± Ú©Øª
æ©Ł æłªå¼ıä¼ļç¤¾
ĠCum mins
ĠCott age
ĠKell ogg
ĠOcc up
ĠProdu kt
ĠPCC W
ĠNederland se
Cre ated
Elect ric
ĠBuild ers
ĠPOS CO
ĠHaz el
Ġvit amins
ĠChu o
sec ond
ĠMÃ¼n chen
Ġdiction ary
ĠGov t
ĠHod der
ĠKash mir
Ġrug by
Ġindirect ly
Ġdescend ant
Ġdescend ants
chel les
ÑģÑĮ Ðº
Ġupgrad ed
Eng ine
Ê» i
Ġza ibatsu
Ġcere als
Ġmir r
Ġmanual s
Ġconvey or
ĠCher okee
ĠKrasn oyarsk
ĠStephan ie
ĠBY D
ĠBent ley
Ġannoun cement
Ġrenov ation
Ġexplos ives
Ġmemor abilia
ĠAffili ated
ĠEin stein
ĠWies baden
Ġstakehold ers
ĠChronic le
ĠMusl ims
ĠAxi ata
ĠEspaÃ± a
æ±½ è½¦
Ġseas ons
ĠMys ore
ĠLun ar
ĠHep burn
Ġalph abet
Ġclimb ing
Ð¸Ð»ÑĮ Ð¼
ĠSkate boards
ĠAerof lot
Ġsolic itors
ĠRele ases
ĠUzbek istan
Off ice
Pres ident
clin ical
ĠArtis an
ĠAnk ara
ĠGuarant y
ĠAerol ÃŃneas
ĠMurd och
ãĥĹãĥŃ ãĥĢ
dep th
deal er
çłĶ ç©¶
Ġpep per
ĠBiot ech
ĠFalk land
ĠEi endom
ĠDens hi
ĠHs inchu
Ġcontr ast
ĠSeab oard
ĠLaver da
Ġarchae ology
ĠDunl op
Ġà®¤ à®®
ĠAppalach ian
ĠTabl et
iduc iary
ĠGaul le
ĠNett buss
ĠKend all
activ ated
Ġtribut e
ĠIsa ac
ĠAbra ham
ĠMcCorm ick
è² ¨
araz uka
ĠTib et
ĠPZ L
ĠLia oning
ĠGif ford
ĠHap ag
Ġstret ch
ipel ago
Ġdisappear ed
Hung arian
Lith u
éĺ ª
ĠBakers field
ĠDiagnost ics
Ġris ks
ĠSanct uary
Ġaccompan ied
ĠHisp ano
ãĤ¨ãĥ³ãĤ¿ ãĥĨ
ĠCzechoslovak ia
âģ Ħ
Ġtast es
ĠCÃ³ rd
ĠSich uan
ĠAdul t
ĠDrey fus
Ġgad gets
Ġdisput es
Ġargu ably
Ġgrind core
ĠGalile o
Ġcerem ony
á»ĩ t
Conn or
crom bie
ĠSÃ¼ d
ĠMamm oth
eworth y
ĠVnuk ovo
ĠChanc ellor
ĠChatt anooga
Ġacknowled ged
ĠAnony me
ĠPruss ia
Ġtyco on
Ġbarbec ue
ĠPopol are
ĠAbbots ford
ĠÎĳÎµ ÏģÎ¿
ĠDirec TV
Eston ian
Ġsoph isticated
Ġbibl ical
ĠLening rad
ĠRebec ca
Ġadvert ise
Ġunve iled
ĠShakes peare
ĠSanof i
Ġamphib ious
ĠBusker ud
ĠOsnabr Ã¼ck
ĠSABM iller
Ġvideocon ferencing
ĠFrÃ©d Ã©ric
ĠLiechten stein
ĠKarlsru he
' m
0 2
3 10
5 8
8 7
A viation
A TS
A kt
A OC
B G
B s
B ob
B ang
B ook
B etween
B razil
B ooks
C it
C ru
C oll
D J
D i
D ocs
E ach
E ss
F N
F r
F ix
F IN
F rog
G ame
G ear
G rid
G IS
G eor
H Q
H an
H VAC
I DA
J A
J e
K I
K ey
K alb
L Y
L i
L aur
L ux
L earning
L ocal
M s
M ir
M otor
N o
N ap
N IC
N etherlands
N ote
N OC
O ld
O ps
O range
O cean
P U
P OS
Q T
S N
S l
S o
S on
S ol
S ale
S ME
S BI
S pring
S ervices
S alem
T i
T w
T ap
T imes
T EC
T ools
U E
U F
V ict
V OD
W L
W R
W ay
W ire
W ater
Z A
a ebol
b el
b un
b ut
b est
b ag
b illion
b etween
b ody
c ery
c ie
c ustom
c amp
c irc
c ollo
c ritical
e u
e em
f inanc
f inger
f inder
g ames
g erald
h ut
h um
h ang
h ini
h erst
i ola
i ËĲ
i Äĩ
j en
j am
j Ã¶
j ani
j aya
j illo
k ke
k osh
l r
l al
l ain
l ive
l Ä±
m ov
m ult
m ah
m ys
m otor
m ills
m ospheric
n is
n itz
p ot
p ex
p oon
p Ã´
r if
r ath
r uten
s v
s le
s ubs
s mall
t in
t land
t ext
t Ã¡
t ze
v it
v od
v ana
w i
w it
w il
w ings
w ana
y g
y al
y ap
y me
y Å«
¹ Ø©
º æłªå¼ıä¼ļç¤¾
Ä ħ
Ð Ķ
Ð ķ
Ñ Ĺ
× ¤
× ŀ
× Ł
å ¨
å İ
ç ´
ç ¦ı
è ´
é Ĳ
í Ļ
í ļ
Ġ ~
Ġ Ò
Ġ ign
Ġ Ø±
Ġ åı°
Ġ Ù¾
ī Ðµ
Į Ģ
Ķ ¨
an an
in burg
er en
er ator
Ġt v
Ġt ell
Ġt aver
on line
he ws
es ters
or io
or ist
or fer
Ġa f
Ġa Ã©
is cher
at an
at ica
Ġc ompan
Ġc ros
Ġc easing
Ġc ircle
Ġo w
Ġo ven
Ġo wing
en as
en et
en port
ar ro
ar etta
al p
al an
Ġs ort
Ġs ake
Ġs ample
Ġs amples
Ġs rl
it ely
as er
ic ur
ic les
ic one
ic ator
om ac
om obile
Ġb le
Ġb ure
Ġb ios
Ġb atch
Ġb oys
Ġf it
Ġf ight
Ġf ert
Ġf rench
Ġf airs
Ġf ooth
Ġf auc
Ġf ossil
Ġw ish
Ġw orn
Ġw ired
Ġw ax
Ġw ars
Ġw rong
Ġw eddings
Ġp y
Ġp our
Ġp ie
ing ers
re porting
ĠC ic
ĠC em
ĠC Ã©
ĠC NA
ĠC RO
ĠC OR
ĠC elebr
ĠC PL
ĠC CL
ĠC igar
Ġm a
Ġm us
Ġm outh
ĠS H
ĠS ill
ĠS ark
ĠS yst
ĠS ass
ĠS olv
ĠS aul
ĠS ung
ĠS SA
ĠS arn
ĠS val
ĠS CI
ĠS ohn
ĠS occer
el ius
ĠT art
ĠT ant
ĠT ee
ĠT ann
ĠT umb
ĠT yn
ĠT Ã¡
ĠT oon
ĠT of
ĠT oo
ĠT ourn
ĠT AN
ĠT iny
ĠT EL
ĠT CI
ĠT ango
ĠT apes
ĠT Ãľ
ĠA et
ĠA MS
ĠA IR
ĠI c
ent in
ent ral
un o
un ik
omp ton
us o
us hed
il in
il or
il ip
il ene
Ġl ie
Ġl ingu
ĠM R
ĠM Y
ĠM om
ĠM ater
ĠM ie
ĠM SE
ĠM ado
ĠM yr
ĠM ER
ĠM DC
ĠM undi
ĠM ETRO
Ġd or
Ġd ated
Ġd os
Ġd ust
Ġd ependent
Ġd ream
Ġd ipl
ur ai
ĠB L
ĠB M
ĠB S
ĠB ue
ĠB ans
ĠB iel
ĠB AC
ĠB aus
ĠB AT
ĠB EL
ĠB ento
ir as
Ġ1 19
ol ation
ol ver
ol ex
ol ese
ol iet
ad in
ad on
ĠP D
ĠP M
ĠP ag
ĠP um
ĠP emb
ĠP ax
ĠP AL
ĠP owers
ĠP uzz
ĠP add
ĠP osit
ĠP esc
ĠP Ãºbl
am y
am ine
am atsu
id ery
id ency
id ige
ch on
ch io
ch ool
Ġh f
Ġh am
Ġh os
Ġh alt
Ġh ole
Ġh iring
Ġh ttp
Ġpro te
ĠL E
ĠL on
ĠL om
ĠL ac
ĠL ance
ĠL ily
ĠL Ã¼
ĠL ounge
ĠG es
ĠG el
ĠG est
ĠG um
ĠG ork
ĠG ak
ĠG ore
ĠG ann
ĠG era
ĠG ift
ĠG ump
ĠG iga
ĠG avin
ĠG daÅĦ
ĠR D
ĠR d
ĠR und
ĠR ang
ĠR ans
ĠR aid
ĠR TS
ĠR AM
ĠR atings
ĠR WE
ĠR idg
ĠR MB
le b
le ader
ĠF D
ĠF are
ĠF ill
ĠF oll
ĠF SM
ĠF ellow
ĠF eld
ĠF uzz
ĠF Ã©n
ĠF enton
ĠF uchs
ĠF ritz
ers tr
ers hus
est hes
Ġ2 200
Ġre production
Ġre clamation
st orage
iv i
ĠIn form
ĠIn fer
ĠIn gl
ĠN M
ĠN R
ĠN es
ĠN al
ĠN ad
ĠN ish
ĠN ame
ĠN ach
ĠN ij
ĠN TL
ĠE CO
ĠE ve
ĠE MC
ĠE wing
Ġn a
Ġn it
Ġn ights
Ġn ormal
ĠD D
ĠD G
ĠD H
ĠD L
ĠD P
ĠD ion
ĠD up
ĠD ang
ĠD AE
ĠD SB
ĠD RAM
ĠD ipl
ĠD VB
Ġas h
Ġas k
Ġas pir
em i
em aker
em pts
ab illy
ig ible
ec onom
Ġon shore
ĠH A
ĠH L
ĠH j
ĠH os
ĠH umb
ĠH atch
ĠH alk
ĠH app
ĠH imal
ĠH SPA
Ġg od
Ġg astro
ĠU pt
ĠU TV
ĠU TC
im ex
im inal
ot ors
ĠW ert
ĠW igan
ĠW igg
ĠW Ã¼r
ĠW eld
ĠW Ã¤rtsilÃ¤
ev eral
ag ong
ag lia
qu a
qu ake
qu ially
Ġst atic
Ġst ability
ial e
ĠJ ad
ĠJ em
ĠJ ian
ĠJ ah
ĠJ VC
ĠJ oliet
up per
ĠK M
ĠK T
ĠK Y
ĠK ep
ĠK ob
ĠK ron
ĠK int
ĠK ino
ĠK ung
ĠK ota
ĠK eter
ĠK ahn
ĠK Ã¶n
ĠK ooten
Ġr ally
ul s
ul us
op ers
op ark
op edia
ĠSt re
ud en
Ġcon ventions
ĠO G
ĠO MV
ĠO yster
ĠO NE
ĠO KB
ay ed
ay Ä±n
ate au
ish able
art is
Ġv ascular
ac ion
os er
os evel
ew orld
ap a
ap ple
ip a
ip lex
um et
um ns
ĠV H
ĠV R
ĠV ad
ĠV ind
ĠV erm
ĠV erb
ĠV IS
ĠV illa
ĠV antage
ĠV ogue
ĠV erein
ĠV annin
og e
og ie
ell as
ĠUn itary
ĠUn win
Ġproduct ive
tern ity
ft en
ĠCh Ã¡
ĠCh ili
ĠCh ateau
ist or
Ġind efin
end ish
end ra
Ġch o
Ġch ose
Ġch ambers
Ġbe ats
cl ick
Ġ20 6
abel a
orpor ate
Ġk os
Ġk illed
Ġsp as
Ġsp am
Ġsp ray
Ġsp eeds
Ġsp awn
ail able
out e
Ġair s
ra ce
ong a
hed ral
ber ries
ok s
man ship
man tle
ĠNew bury
ĠEn rique
eb ank
ast ar
ĠInd us
Ġdis co
ov ens
ign y
ant an
ant es
eg on
eg ade
Ġsub division
ĠY O
ĠY i
ĠY es
ĠY ek
ĠY ayÄ±n
ĠBr ink
ĠBr aintree
Ġen ric
Ġpl ain
ex ual
ex cept
ex cluding
anc ies
Ġcl ip
Ġcl ones
Ġcl uster
ric o
ĠAl ess
ĠAl co
ĠAl arm
ĠAl ison
ĠAl can
ĠAl icante
ik ken
ĠNor m
ĠNor ges
ĠCan n
ĠCan aria
ĠCan aan
ens idige
ach a
ional e
ru ter
ru ction
ĠAr v
tain s
ĠAs c
to uch
Ġ3 80
Ġ3 40
ĠAn at
ĠAn ita
ater inburg
ĠCal vin
Ġun ites
Ġun released
ron ts
Ġem ble
Ġinv o
ĠSh un
ĠSh ak
ĠSh ok
ĠSh int
ĠSh ue
ĠSh ake
ĠSh ifty
ĠSh ogakukan
sh irt
Ġro w
Ġro les
Ġro aster
Ġro oted
Ġro wing
che k
ee f
ee per
Ġy oga
ue uil
ie i
Ġform ulation
ĠZ ap
ĠZ av
ĠZ aw
ĠZ ombie
ĠTh an
ĠTh in
ĠTh uring
ĠTh ought
ĠTh urs
Ġtrans national
Ġtrans parent
Ġtrans atlantic
ina ir
ĠBank a
Ġ18 30
Ġ18 11
Ġ18 16
Ġ18 22
aj an
Ġag ing
az ard
az awa
Ġnetwork ed
Ġout lying
ĠUS SR
red ible
iss erie
Ġstor ing
ans i
ĠEuro s
Ġall ied
ri um
Ġorgan ising
ann is
ĠSp elling
ĠSp oorweg
ĠMar x
ĠMar ino
ah an
Ġnew er
Ġ4 60
Ġ4 80
oll er
oll en
oll ar
ĠNorth land
ĠNorth umberland
Ġweb c
ĠTr enton
ĠTr actors
air ies
ĠPh D
ĠMan uel
enn as
ĠCar ry
com m
Ġenter tainer
ĠSc ania
ĠSc ene
ĠSc orp
ĠSc ranton
ĠCon vers
Ġbro wn
ition ed
ĠCol t
ĠCol es
ross e
ĠBl og
ĠBl ank
ĠBl iss
ĠBl och
ĠBl uth
ĠCent ra
Ġbook mark
Ġnot e
Ġnot eworthy
Ġdiv ing
her o
Ġfam ili
ĠTel ev
Ġint ends
Ġper mitted
