{"<|endoftext|>":0,"!":1,"#":2,"$":3,"%":4,"&":5,"'":6,"(":7,")":8,"*":9,"+":10,",":11,"-":12,".":13,"/":14,"0":15,"1":16,"2":17,"3":18,"4":19,"5":20,"6":21,"7":22,"8":23,"9":24,":":25,";":26,"<":27,"=":28,">":29,"?":30,"@":31,"A":32,"B":33,"C":34,"D":35,"E":36,"F":37,"G":38,"H":39,"I":40,"J":41,"K":42,"L":43,"M":44,"N":45,"O":46,"P":47,"Q":48,"R":49,"S":50,"T":51,"U":52,"V":53,"W":54,"X":55,"Y":56,"Z":57,"[":58,"\\":59,"]":60,"^":61,"_":62,"`":63,"a":64,"b":65,"c":66,"d":67,"e":68,"f":69,"g":70,"h":71,"i":72,"j":73,"k":74,"l":75,"m":76,"n":77,"o":78,"p":79,"q":80,"r":81,"s":82,"t":83,"u":84,"v":85,"w":86,"x":87,"y":88,"z":89,"~":90,"¡":91,"¢":92,"£":93,"¤":94,"¥":95,"¦":96,"§":97,"¨":98,"©":99,"ª":100,"«":101,"¬":102,"®":103,"¯":104,"°":105,"±":106,"²":107,"³":108,"´":109,"µ":110,"¶":111,"·":112,"¸":113,"¹":114,"º":115,"»":116,"¼":117,"½":118,"¾":119,"¿":120,"Â":121,"Ã":122,"Ä":123,"Å":124,"Æ":125,"Ç":126,"È":127,"É":128,"Ê":129,"Ë":130,"Ì":131,"Í":132,"Î":133,"Ï":134,"Ð":135,"Ñ":136,"Ò":137,"Ó":138,"Ô":139,"Õ":140,"Ö":141,"×":142,"Ø":143,"Ù":144,"Ú":145,"Û":146,"Þ":147,"à":148,"á":149,"â":150,"ã":151,"ä":152,"å":153,"æ":154,"ç":155,"è":156,"é":157,"ê":158,"ë":159,"ì":160,"í":161,"ï":162,"ĉ":163,"Ġ":164,"Ģ":165,"ģ":166,"Ĥ":167,"ĥ":168,"Ħ":169,"ħ":170,"Ĩ":171,"ĩ":172,"Ī":173,"ī":174,"Ĭ":175,"ĭ":176,"Į":177,"į":178,"İ":179,"ı":180,"Ĳ":181,"ĳ":182,"Ĵ":183,"ĵ":184,"Ķ":185,"ķ":186,"ĸ":187,"Ĺ":188,"ĺ":189,"Ļ":190,"ļ":191,"Ľ":192,"ľ":193,"Ŀ":194,"ŀ":195,"Ł":196,"ł":197,"Ń":198,"an":199,"in":200,"er":201,"Ġt":202,"on":203,"he":204,"es":205,"or":206,"Ġa":207,"ed":208,"is":209,"Ġin":210,"at":211,"and":212,"Ġc":213,"Ġo":214,"en":215,"ar":216,"Ġand":217,"al":218,"Ġs":219,"Ġthe":220,"it":221,"as":222,"ic":223,"om":224,"Ġb":225,"Ġf":226,"Ġw":227,"Ġp":228,"ion":229,"Ġof":230,"ing":231,"ro":232,"re":233,"Ġis":234,"ĠC":235,"Ġm":236,"ĠS":237,"el":238,"ĠT":239,"ĠA":240,"ĠI":241,"ent":242,"un":243,"omp":244,"us":245,"il":246,"ct":247,"ompan":248,"Ġl":249,"ĠM":250,"ation":251,"Ġd":252,"ompany":253,"ur":254,"ĠB":255,"ir":256,"et":257,"Ġcompany":258,"Ġ1":259,"ter":260,"ol":261,"ad":262,"Ġwas":263,"ĠP":264,"am":265,"ut":266,"Ġto":267,"id":268,"ĠThe":269,"ch":270,"Ġh":271,"Ġpro":272,"Ġ(":273,"ĠL":274,"ĠG":275,"ĠR":276,"le":277,"00":278,"ĠF":279,"ers":280,"und":281,"est":282,"Ġ2":283,"Ġre":284,"Ġby":285,"st":286,"Ġfor":287,"iv":288,"ly":289,"ĠIn":290,"ĠN":291,"Ġ19":292,"ĠE":293,"Ġn":294,"ĠD":295,"Ġas":296,"em":297,"ab":298,"ig":299,"ec":300,"tr":301,"ia":302,"Ġon":303,"per":304,"ĠH":305,"Ġth":306,"Ġg":307,"ĠIt":308,"Ġan":309,"ub":310,"ow":311,"oc":312,"ased":313,"ĠU":314,"ce":315,"im":316,"ies":317,"du":318,"ot":319,"Ġit":320,"por":321,"ĠW":322,"ound":323,"ev":324,"ag":325,"ith":326,"qu":327,"Ġst":328,"ial":329,"ess":330,"ment":331,"mer":332,"Ġwith":333,"ain":334,"ĠJ":335,"erv":336,"up":337,"ĠK":338,"Ġr":339,"th":340,"ul":341,"op":342,"ated":343,"ine":344,"Ġprodu":345,"ounded":346,"ord":347,"Ġman":348,"ĠSt":349,"Ġ200":350,"ud":351,"Ġcon":352,"ĠO":353,"ay":354,"act":355,"ian":356,"Ġhe":357,"Ġbased":358,"ity":359,"ate":360,"Ġoper":361,"'s":362,"ervic":363,"ish":364,"Ġe":365,"Ġwh":366,"Ġfounded":367,"art":368,"Ġv":369,"ac":370,"os":371,"ew":372,"ran":373,"ap":374,"Ġal":375,"Ġits":376,"Ġpr":377,"ts":378,"Ġthat":379,"ip":380,"Ġservic":381,"ver":382,"ates":383,"ubl":384,"ited":385,"um":386,"ich":387,"ĠV":388,"if":389,"ep":390,"ork":391,"ect":392,"wn":393,"od":394,"og":395,"arter":396,"Ġhas":397,"ell":398,"ĠUn":399,"ational":400,"iz":401,"ations":402,"ob":403,"are":404,"ill":405,"Ġproduct":406,"tern":407,"uf":408,"rom":409,"arg":410,"ug":411,"ark":412,"own":413,"ank":414,"ft":415,"ib":416,"roup":417,"ĠCh":418,"ame":419,"io":420,"Ġhead":421,"ist":422,"ary":423,"ufact":424,"ak":425,"Ġor":426,"Ġown":427,"Ġind":428,"Ġfrom":429,"ld":430,"ive":431,"end":432,"Ġch":433,"pl":434,"Ġmanufact":435,"ore":436,"Ġfir":437,"ear":438,"quarter":439,"av":440,"ustr":441,"Ġpubl":442,"Ġbe":443,"evel":444,"Ġare":445,"ard":446,"cl":447,"Ġ199":448,"ide":449,"Ġmanufactur":450,"so":451,"Ġ20":452,"abel":453,"Ġprov":454,"meric":455,"port":456,"orpor":457,"ang":458,"Ġheadquarter":459,"Ġoff":460,"oun":461,"ĠAmeric":462,"igh":463,"Ġwhich":464,"Ġservices":465,"Ġlabel":466,"Ġk":467,"Ġsp":468,"ail":469,"ĠAir":470,"out":471,"Ġdevel":472,"Ġrec":473,"Ġbus":474,"Ġloc":475,"Ġlarg":476,"Ġac":477,"Ġair":478,"all":479,"Ġ201":480,"Ġcom":481,"ra":482,"land":483,"ong":484,"hed":485,"ĠUnited":486,"line":487,"ber":488,"Ġprovid":489,"ĠInc":490,"ok":491,"clud":492,"ical":493,"arket":494,"ure":495,"old":496,"man":497,"ech":498,"Ġinclud":499,"ĠNew":500,"ĠEn":501,"Ġex":502,"eb":503,"ĠGroup":504,"pr":505,"ost":506,"ast":507,"Ġtr":508,"Ġat":509,"ĠInd":510,"Ġalso":511,"for":512,"nown":513,"ions":514,"Ġdis":515,"iness":516,"ov":517,"orld":518,"Ġdevelop":519,"ign":520,"ugh":521,"ant":522,"eg":523,"ines":524,"Ġrecord":525,"ternational":526,"Ġlargest":527,"ĠAmerican":528,"etw":529,"Ġsh":530,"Ġsub":531,"ĠY":532,"Ġowned":533,"ĠBr":534,"ware":535,"âĢ":536,"Ġknown":537,"ult":538,"ire":539,"ust":540,"Ġen":541,"abl":542,"Ġpl":543,"oft":544,"rans":545,"Ġone":546,"ond":547,"orporation":548,"ecial":549,"ished":550,"our":551,"Ġheadquartered":552,"ement":553,"ĠCompany":554,"ex":555,"olog":556,"anc":557,"ors":558,"Ġbusiness":559,"Ġproducts":560,"ĠRec":561,"Ġproduc":562,"ey":563,"oy":564,"Ġcomp":565,"Ġmarket":566,"echn":567,"yst":568,"ass":569,"ĠRecord":570,"usic":571,"Ġest":572,"Ġspecial":573,"Ġcl":574,"ric":575,"Ġpart":576,"Ġus":577,"rand":578,"The":579,"ther":580,"Ġsubs":581,"ere":582,"ort":583,"ĠStates":584,"erg":585,"ile":586,"oftware":587,"ystem":588,"Ġ&":589,"ood":590,"Ġ198":591,"orn":592,"Ġoffic":593,"ĠAl":594,"gan":595,"ik":596,"Ġmanag":597,"ĠRecords":598,"Ġbank":599,"ibut":600,"Ġover":601,"Ġworld":602,"tribut":603,"ĠNor":604,"ision":605,"Ġsu":606,"epend":607,"ack":608,"Ġlocated":609,"ablished":610,"echnolog":611,"ĠCan":612,"ous":613,"ens":614,"Ġfirst":615,"ach":616,"ependent":617,"ional":618,"Ġpriv":619,"ital":620,"Ġres":621,"Ġfirm":622,"ru":623,"ff":624,"idi":625,"Ġmanufacturer":626,"ĠAr":627,"ely":628,"Ġad":629,"ics":630,"mun":631,"tain":632,"ĠAs":633,"Ġsubsidi":634,"ery":635,"to":636,"Ġar":637,"ock":638,"Ġindependent":639,"Ġname":640,"Ġdes":641,"Ġ3":642,"Ġbrand":643,").":644,"ĠCorporation":645,"ual":646,"Ġap":647,"rough":648,"ĠCanad":649,"based":650,"ilm":651,"ance":652,"ĠAn":653,"over":654,"Ġcons":655,"Ġpublish":656,"Ġairline":657,"ater":658,"Ġmain":659,"ompanies":660,"age":661,"etwork":662,"Ġoperates":663,"Ġdistribut":664,"Ġsoftware":665,"ating":666,"ite":667,"Ġund":668,"Ġestablished":669,"illion":670,"pe":671,"ĠCal":672,"ãĥ":673,"ook":674,"outh":675,"ames":676,"cess":677,"eral":678,"Ġun":679,"ton":680,"ron":681,"Ġem":682,"Ġservice":683,"Ġinv":684,"imited":685,"int":686,"Ġindustr":687,"td":688,"ome":689,"ĠCo":690,"ty":691,"ications":692,"ities":693,"Ġthrough":694,"Ġother":695,"ĠSh":696,"able":697,"Ġreg":698,"Ġcompanies":699,"ĠIts":700,"sh":701,"Ġro":702,"form":703,"ĠLtd":704,"Ġsubsidiary":705,"elect":706,"ember":707,"ange":708,"che":709,"Ġdesign":710,"ild":711,"aw":712,"ĠAustr":713,"ee":714,"Ġy":715,"ue":716,"Ġtheir":717,"ings":718,"enc":719,"Ġmusic":720,"ie":721,"Ġunder":722,"edia":723,"Ġform":724,"Ġcoun":725,"ight":726,"Ġj":727,"ĠZ":728,"ĠInternational":729,"ace":730,"Ġcre":731,"way":732,"Ġent":733,"ons":734,"ĠPro":735,"ĠTh":736,"Ġproduction":737,"Ġincluding":738,"Ġtel":739,"ĠCalif":740,"Ġtrans":741,"ina":742,"ĠCaliforn":743,"pro":744,"echnology":745,"ĠCalifornia":746,"les":747,"ents":748,"Ġ197":749,"erman":750,"urr":751,"oth":752,"Ġcont":753,"uc":754,"ence":755,"ince":756,"ead":757,"ĠBank":758,"Ġchain":759,"ai":760,"ĠLimited":761,"Ġ18":762,"ĠAustral":763,"uro":764,"inal":765,"Ġwell":766,"Ġret":767,"ily":768,"ree":769,"ash":770,"ase":771,"ĠYork":772,"obile":773,"Ġsystem":774,"apan":775,"ĠBrit":776,"eal":777,"ĠEx":778,"Ġmore":779,"hen":780,"aj":781,"Ġspecializ":782,"Ġco":783,"ĠJapan":784,"ĠPr":785,"Ġelect":786,"Ġ5":787,"Ġpublic":788,"Ġprovides":789,"Ġag":790,"Ġsup":791,"ry":792,"Ġrele":793,"oci":794,"az":795,"Ġnetwork":796,"Ġgroup":797,"Ġcountr":798,"Ġmanagement":799,"urrent":800,"Ġeng":801,"ivers":802,"Ġout":803,"ĠUS":804,"ĠSouth":805,"ately":806,"Ġtrad":807,"red":808,"one":809,"Ġfilm":810,"ise":811,"ideo":812,"ge":813,"ploy":814,"ĠBritish":815,"raft":816,"iss":817,"Ġstor":818,"ĠGerman":819,"ans":820,"Ġretail":821,"ĠEuro":822,"rew":823,"Ġall":824,"ction":825,"Ġdevelopment":826,"Ġemploy":827,"Ġwere":828,"ri":829,"Ġbu":830,"ator":831,"ict":832,"Ġinvest":833,"Ġorgan":834,"ann":835,"ros":836,"ĠSp":837,"Ġwork":838,"Ġformer":839,"Ġass":840,"Ġthan":841,"cial":842,"ĠCity":843,"ĠCom":844,"ĠMar":845,"ĠEng":846,"oper":847,"ah":848,"fter":849,"els":850,"ll":851,"inanc":852,"Ġinternational":853,"Ġheadquarters":854,"ondon":855,"lob":856,"Ġsuch":857,"ĠCanada":858,"eat":859,"ind":860,"ering":861,"Ġfl":862,"ave":863,"ĠLondon":864,"âĢĻ":865,"Ġnew":866,"Ġ4":867,"Ġacqu":868,"oll":869,"co":870,"tainment":871,"ĠEurope":872,"iginal":873,"een":874,"ĠNorth":875,"Ġoperated":876,"Ġvideo":877,"ĠAirport":878,"Ġweb":879,"Ġstart":880,"Ġcurrent":881,"ower":882,"ocus":883,"Ġyear":884,"mercial":885,"Ġstud":886,"ĠFran":887,"Ġoffices":888,"Ġaut":889,"Ġbeen":890,"Ġcar":891,"ious":892,"craft":893,"Ġtw":894,"tis":895,"earch":896,"ĠTr":897,"Ã©":898,"ets":899,"air":900,"Ġgame":901,"arm":902,"ix":903,"Ġhad":904,"ice":905,"ative":906,"Ġ196":907,"Ġph":908,"Ġequ":909,"Ġprivate":910,"ory":911,"ĠUK":912,"ãĤ":913,"Ġim":914,"lobal":915,"Ġfocus":916,"olut":917,"inancial":918,"fer":919,"Ġtechnology":920,"ren":921,"ĠSw":922,"ĠPh":923,"round":924,"ĠMan":925,"overn":926,"ired":927,"ime":928,"ick":929,"Ġop":930,"ajor":931,"ĠIndia":932,"ĠOn":933,"Ġmillion":934,"000":935,"stru":936,"ustom":937,"Ġmost":938,"ĠKing":939,"enn":940,"Ġcommercial":941,"Ġonline":942,"inn":943,"ĠCar":944,"com":945,"lect":946,"ouse":947,"Ġoperating":948,"munications":949,"Ġmult":950,"uss":951,"Ġstores":952,"ade":953,"Ġmajor":954,"Ġenter":955,"Ġab":956,"Ġbec":957,"ĠSc":958,"overnment":959,"oh":960,"Ġserv":961,"ĠQ":962,"ĠCon":963,"Ġbro":964,"ese":965,"Ġsec":966,"ition":967,"Ġoperations":968,"uter":969,"Ġde":970,"ĠCol":971,"ĠEnter":972,"Ġlist":973,"Ġtwo":974,"eed":975,"ram":976,"Ġcustom":977,"ĠTrans":978,"Ġact":979,"ier":980,"ross":981,"Ġcent":982,"Ġgames":983,"Ġformed":984,"Ġafter":985,"ĠBl":986,"ject":987,"ĠCent":988,"Ġwho":989,"ata":990,"wide":991,"Ġbook":992,"change":993,"Ġsm":994,"ization":995,"evision":996,"Ġnot":997,"Ġdiv":998,"iel":999,"Ġprovider":1000,"Ġlead":1001,"etween":1002,"Ġoriginal":1003,"her":1004,"Ġinto":1005,"Ġinclude":1006,"Ġmobile":1007,"ale":1008,"Ġfam":1009,"dom":1010,"ĠTel":1011,"Ġgen":1012,"Ġint":1013,"Ġprim":1014,"Ġper":1015,"vi":1016,"Ġpre":1017,"ern":1018,"ific":1019,"ments":1020,"Ġengine":1021,"eng":1022,"Ġstarted":1023,"Ġ2007":1024,"son":1025,"ĠChina":1026,"ĠIs":1027,"ety":1028,"irect":1029,"ĠCl":1030,"Ġhave":1031,"stit":1032,"apital":1033,"Ġbetween":1034,"Ġcountries":1035,"ĠAustralia":1036,"SE":1037,"Ġsince":1038,"ĠFounded":1039,"ou":1040,"hes":1041,"Ġvar":1042,"Ġindustry":1043,"ports":1044,"Ġacquired":1045,"etro":1046,"Ġbut":1047,"Ġaircraft":1048,"sur":1049,"ĠKingdom":1050,"arly":1051,"olutions":1052,"Ġup":1053,"omot":1054,"ĠAmerica":1055,"ert":1056,"ĠFl":1057,"Ġmanufacturing":1058,"Ġappl":1059,"Ġcurrently":1060,"Ġprivately":1061,"Ġsev":1062,"Ġ6":1063,"Ġsell":1064,"Ġ2010":1065,"In":1066,"ures":1067,"Ġ195":1068,"ergy":1069,"Ġmerg":1070,"ĠSan":1071,"ural":1072,"Ġpublishing":1073,"amp":1074,"ough":1075,"Ġinter":1076,"Ġfinancial":1077,"ecom":1078,"Ġsc":1079,"Ġ2008":1080,"ency":1081,"eh":1082,"uring":1083,"Ġsystems":1084,"duct":1085,"ales":1086,"Ġnow":1087,"ium":1088,"Ġglobal":1089,"ights":1090,"Ġ2012":1091,"ĠAd":1092,"emb":1093,"ph":1094,"its":1095,"urg":1096,"Ġ2006":1097,"aur":1098,"Ġmedia":1099,"Ġam":1100,"hip":1101,"ĠPl":1102,"ake":1103,"Ġ2011":1104,"Ġ7":1105,"Ġsmall":1106,"ĠGre":1107,"ipp":1108,"urn":1109,"igital":1110,"Ġpublisher":1111,"til":1112,"ĠServic":1113,"Ġhigh":1114,"Ġ2009":1115,"ipment":1116,"eries":1117,"aun":1118,"oint":1119,"ington":1120,"Ġrel":1121,"yl":1122,"Ġfound":1123,"ĠBro":1124,"ose":1125,"ternet":1126,"te":1127,"ĠStock":1128,"ident":1129,"ied":1130,"eop":1131,"ys":1132,"Ġhis":1133,"ink":1134,"Ġlisted":1135,"umb":1136,"Ġev":1137,"Ġrest":1138,"ees":1139,"lines":1140,"surance":1141,"ners":1142,"res":1143,"ĠItal":1144,"ĠSystem":1145,"ield":1146,"Ġacross":1147,"Ġ$":1148,"ards":1149,"ĠEntertainment":1150,"ley":1151,"Ġcreated":1152,"ĠThey":1153,"Ġelectron":1154,"amed":1155,"Ġ2013":1156,"ury":1157,"ĠFor":1158,"pt":1159,"Ġtelevision":1160,"rap":1161,"ĠAt":1162,"ĠOr":1163,"ĠGermany":1164,"Ġbuild":1165,"Ġprof":1166,"Ġequipment":1167,"Ġoffice":1168,"ĠUnivers":1169,"ĠMusic":1170,"ĠExchange":1171,"Ġstate":1172,"Ġtransport":1173,"eople":1174,"Ġcharter":1175,"ax":1176,"mon":1177,"Ġaround":1178,"Ġdistribution":1179,"af":1180,"Ġused":1181,"led":1182,"inese":1183,"ĠAf":1184,"yn":1185,"Ġhold":1186,"Ġproduces":1187,"Ġstore":1188,"Ġ8":1189,"Ġsold":1190,"ĠJoh":1191,"Ġpur":1192,"Ġnon":1193,"ĠJapanese":1194,"Ġdeveloper":1195,"ants":1196,"Ġopen":1197,"Ġwebs":1198,"Ġdivision":1199,"ility":1200,"ized":1201,"ull":1202,"Ġed":1203,"Ġ2005":1204,"stitut":1205,"Ġworldwide":1206,"formation":1207,"istr":1208,"une":1209,"ĠCoun":1210,"ino":1211,"ĠMon":1212,"Ġproduced":1213,"ular":1214,"Ġboth":1215,"ĠAm":1216,"Ġgovernment":1217,"ĠCanadian":1218,"Ġinvestment":1219,"19":1220,"Ġwhen":1221,"ool":1222,"ĠWest":1223,"Ġcomputer":1224,"rit":1225,"Ġseveral":1226,"ania":1227,"Ġsolutions":1228,"Ġfamily":1229,"ner":1230,"ises":1231,"umber":1232,"Ġrun":1233,"Ġcorporation":1234,"Ġheld":1235,"Ġmany":1236,"Ġ194":1237,"ublic":1238,"atform":1239,"Ġinc":1240,"struction":1241,"owned":1242,"rench":1243,"ters":1244,"ced":1245,"gram":1246,"ĠAut":1247,"otor":1248,"Ġuntil":1249,"ene":1250,"ĠAfric":1251,"Ġfac":1252,"Ġstr":1253,"Ġyears":1254,"ĠTex":1255,"Ġleading":1256,"Ġlaun":1257,"Ġbillion":1258,"Ġproject":1259,"row":1260,"tract":1261,"Ġemployees":1262,"au":1263,"Ġfood":1264,"Ġ192":1265,"tists":1266,"Ġwhol":1267,"Ġ2000":1268,"Ġoffers":1269,"arily":1270,"ĠWorld":1271,"ĠIndian":1272,"ched":1273,"ĠNational":1274,"Ġearly":1275,"Ġstudio":1276,"ĠRuss":1277,"Ġthey":1278,"ĠâĢ":1279,"enture":1280,"ays":1281,"Ġbecame":1282,"ases":1283,"Ġcommun":1284,"Ġmarkets":1285,"ush":1286,"Ġoperator":1287,"inc":1288,"umer":1289,"se":1290,"ven":1291,"ral":1292,"ne":1293,"ten":1294,"Ġresearch":1295,"ĠUSA":1296,"Ġcall":1297,"Ġneed":1298,"Ġformerly":1299,"ĠGe":1300,"ranch":1301,"ĠAirlines":1302,"ĠEngland":1303,"ĠIndustr":1304,"Ġthree":1305,"ĠÐ":1306,"Ġann":1307,"Ġ2004":1308,"LC":1309,"ĠWar":1310,"Ġproducer":1311,"ĠElect":1312,"Ġprimarily":1313,"ĠJohn":1314,"uck":1315,"ĠBe":1316,"ĠPar":1317,"amb":1318,"Ġ193":1319,"alth":1320,"Ġpower":1321,"Ġpres":1322,"ike":1323,"ins":1324,"ience":1325,"Ġlocal":1326,"Ġrange":1327,"ient":1328,"Ġdirect":1329,"Ġthroughout":1330,"raph":1331,"ox":1332,"Ġcol":1333,"nect":1334,"ĠRes":1335,"Ġadd":1336,"ĠHold":1337,"Ġnational":1338,"ĠTexas":1339,"Ġmod":1340,"Ġdigital":1341,"Ġorganization":1342,"50":1343,"Ġrestaur":1344,"ck":1345,"erm":1346,"Ġcorpor":1347,"Ġplatform":1348,"Ġbegan":1349,"Ġ100":1350,"merly":1351,"ĠEast":1352,"ĠMedia":1353,"ication":1354,"ĠNov":1355,"Ġreleased":1356,"ĠAustralian":1357,"ĠFrench":1358,"Ġnumber":1359,"ocial":1360,"Ġspecializes":1361,"iqu":1362,"ott":1363,"fit":1364,"ches":1365,"ces":1366,"Ġmed":1367,"Ġcustomers":1368,"Ġmov":1369,"Ġprogram":1370,"Ġexp":1371,"Ġprocess":1372,"Ġart":1373,"ands":1374,"Ġlaw":1375,"Ġdr":1376,"osp":1377,"Ġartists":1378,"Ġhealth":1379,"erson":1380,"ĠAss":1381,"Ġpeople":1382,"Ġspecializing":1383,"Ġfund":1384,"ios":1385,"Ġwebsite":1386,"Ġlic":1387,"essional":1388,"thers":1389,"ille":1390,"rid":1391,"adio":1392,"Ġmanufactures":1393,"ister":1394,"Ġbrew":1395,"Ġabout":1396,"Ġappro":1397,"lo":1398,"ĠPhil":1399,"ehic":1400,"embers":1401,"ones":1402,"Ġmak":1403,"ĠDec":1404,"Ġautom":1405,"yd":1406,"ife":1407,"Ġdata":1408,"Ġaccess":1409,"Ġarea":1410,"ĠGu":1411,"ĠStud":1412,"Ġbroad":1413,"ĠJan":1414,"Ġindustrial":1415,"iam":1416,"Ġsecond":1417,"Ġoriginally":1418,"AS":1419,"Ġgas":1420,"Ġmarketing":1421,"Ġ9":1422,"Ġmin":1423,"Ġ1999":1424,"ĠMid":1425,"Ġ2001":1426,"lands":1427,"ever":1428,"itation":1429,"cast":1430,"ĠBel":1431,"Ġsuppl":1432,"Ġbest":1433,"Ġowns":1434,"ailway":1435,"Ġonly":1436,"Ġtelecom":1437,"Ġhome":1438,"orporated":1439,"sp":1440,"¤¾":1441,"Ġproper":1442,"ĠInternet":1443,"Ġseries":1444,"Ġdom":1445,"ĠBus":1446,"ible":1447,"Ġoil":1448,"Åį":1449,"Ġlater":1450,"Ġconstruction":1451,"ues":1452,"echnologies":1453,"ĠVir":1454,"epart":1455,"Ġpass":1456,"ony":1457,"Ġreal":1458,"ply":1459,"Ġfour":1460,"Ġlarge":1461,"Ġpop":1462,"ices":1463,"Ġconsult":1464,"Ġcontro":1465,"Ġsect":1466,"Ġsales":1467,"icro":1468,"ĠAng":1469,"Ġbanking":1470,"ĠMay":1471,"Ġregional":1472,"ives":1473,"ĠKong":1474,"Ġengineering":1475,"It":1476,"ico":1477,"olv":1478,"formerly":1479,"Ġinformation":1480,"ux":1481,"ories":1482,"Ġpar":1483,"Ġagency":1484,"Ġpurch":1485,"eam":1486,"Ġ2002":1487,"Ġproviding":1488,"redit":1489,"ĠQu":1490,"Ġ-":1491,"Ġmembers":1492,"ett":1493,"Ġbooks":1494,"Ġsocial":1495,"Ġmet":1496,"Ġprofessional":1497,"tar":1498,"Ġlocations":1499,"egr":1500,"ath":1501,"Ġcity":1502,"Ð¾":1503,"ĠRep":1504,"prise":1505,"ĠMal":1506,"ĠAsia":1507,"Ġ2003":1508,"Ġcalled":1509,"ially":1510,"ĠServices":1511,"eas":1512,"ĠGen":1513,"Ġlaunched":1514,"ĠHar":1515,"Ġtit":1516,"ĠDis":1517,"Ð°":1518,"ĠX":1519,"ĠMich":1520,"profit":1521,"mb":1522,"ows":1523,"ĠHong":1524,"Ġadv":1525,"ç¤¾":1526,"Ġfeat":1527,"Ġvehic":1528,"ober":1529,"Ġlicens":1530,"oot":1531,"ĠPol":1532,"ĠPort":1533,"ĠDe":1534,"Ġmon":1535,"oul":1536,"ount":1537,"uct":1538,"argo":1539,"Ġdeveloped":1540,"ras":1541,"ä¼":1542,"Ġresp":1543,"Ġcapital":1544,"Ġsim":1545,"Ġnear":1546,"ney":1547,"ida":1548,"ĠUniversity":1549,"estern":1550,"Ġcountry":1551,"Ġold":1552,"Ġbase":1553,"ĠEd":1554,"ĠAll":1555,"ĠSystems":1556,"Ġvarious":1557,"ĠProduct":1558,"Ġport":1559,"gl":1560,"ka":1561,"eel":1562,"Ġsign":1563,"ĠSch":1564,"ĠWash":1565,"agaz":1566,"Ġneeded":1567,"ĠJu":1568,"Ġcorporate":1569,"ars":1570,"ilities":1571,"ward":1572,"ªå":1573,"burg":1574,"Ġhouse":1575,"gin":1576,"vious":1577,"ris":1578,"Ġacc":1579,"Ġsche":1580,"ĠChinese":1581,"ä¼ļ":1582,"ĠWashington":1583,"Ġbeing":1584,"let":1585,"Ġdevelops":1586,"ages":1587,"aries":1588,"ĠLe":1589,"Ġfilms":1590,"ĠAfrica":1591,"æł":1592,"ered":1593,"ĠAc":1594,"ä¼ļç¤¾":1595,"Ġenergy":1596,"ana":1597,"Ġ1997":1598,"Ġ1998":1599,"Ġuse":1600,"Ġelectric":1601,"epartment":1602,"Ġpasseng":1603,"Ġventure":1604,"Ġshare":1605,"oods":1606,"ients":1607,"ĠNetwork":1608,"ified":1609,"ĠCounty":1610,"ĠPubl":1611,"Ġflights":1612,"ĠManag":1613,"ether":1614,"citation":1615,"hem":1616,"ĠFlor":1617,"att":1618,"¼ı":1619,"Ġnamed":1620,"Ġentertainment":1621,"ªå¼ı":1622,"æłªå¼ı":1623,"imately":1624,"Ġholding":1625,"ago":1626,"Ġbusinesses":1627,"Ġrout":1628,"Ġinsurance":1629,"Ġdel":1630,"Ġcontract":1631,"æłªå¼ıä¼ļç¤¾":1632,"Ġ12":1633,"ĠMex":1634,"ĠOct":1635,"ission":1636,"Ġwholly":1637,"Ġdo":1638,"Ġmade":1639,"uary":1640,"ĠBar":1641,"lex":1642,"ised":1643,"ĠMin":1644,"iron":1645,"ĠTV":1646,"isha":1647,"Ġpartners":1648,"Ġ1990":1649,"viation":1650,"Ġsells":1651,"Ġqu":1652,"ĠFrance":1653,"elf":1654,"ga":1655,"cy":1656,"itional":1657,"vertis":1658,"Ġretailer":1659,"shire":1660,"ĠLLC":1661,"Ġsuc":1662,"ists":1663,"ĠDr":1664,"Ġhel":1665,"ociation":1666,"ĠItalian":1667,"ta":1668,"ĠGeor":1669,"Ġmember":1670,"ĠJanuary":1671,"Ġschedu":1672,"ĠSu":1673,"eph":1674,"ĠMarch":1675,"Ġapprox":1676,"EO":1677,"ford":1678,"ĠSoftware":1679,"Ġdev":1680,"ird":1681,"ĠPart":1682,"Ġsupport":1683,"ĠDecember":1684,"Ġinf":1685,"ĠKore":1686,"ĠVirgin":1687,"oard":1688,"avel":1689,"Ġapplications":1690,"ĠFlorida":1691,"Ġconsumer":1692,"ĠSwed":1693,"Ġbl":1694,"Ġeduc":1695,"raz":1696,"urb":1697,"iki":1698,"hor":1699,"ites":1700,"ville":1701,"inational":1702,"Ġline":1703,"ĠFilm":1704,"ealth":1705,"urity":1706,"Ġwithin":1707,"ept":1708,"Ġcontent":1709,"ham":1710,"market":1711,"aul":1712,"isco":1713,"Ġamong":1714,"Ġjoint":1715,"Ġmultinational":1716,"ĠOctober":1717,"ĠRepublic":1718,"ĠPenn":1719,"press":1720,"inery":1721,"ĠSoci":1722,"ĠAp":1723,"Ġelectronic":1724,"utical":1725,"ways":1726,"Ġinit":1727,"Ġsing":1728,"reg":1729,"ĠMass":1730,"ĠInter":1731,"uild":1732,"reet":1733,"ĠFranc":1734,"ators":1735,"ĠVal":1736,"Ġbrands":1737,"Ġapp":1738,"Ġapproximately":1739,"rain":1740,"less":1741,"ĠSing":1742,"ij":1743,"ĠTor":1744,"Ġ1996":1745,"Ġsuccess":1746,"ĠEst":1747,"ĠDel":1748,"ental":1749,"ilt":1750,"Ġ10":1751,"ane":1752,"Ġtime":1753,"Ġpromot":1754,"cle":1755,"ĠPress":1756,"bum":1757,"Ġintegr":1758,"ĠWh":1759,"Ġassets":1760,"ean":1761,"Ġ1995":1762,"con":1763,"Ġstock":1764,"iet":1765,"Ġthen":1766,"Ġ50":1767,"Ø§":1768,"anish":1769,"iver":1770,"Ġmainly":1771,"Ġscheduled":1772,"ĠApr":1773,"Ġ1980":1774,"Ġinstitut":1775,"ung":1776,"Ġpublished":1777,"ĠMc":1778,"ĠJune":1779,"viously":1780,"estic":1781,"ats":1782,"cr":1783,"Ġadvertis":1784,"Ð¸":1785,"abush":1786,"Ð½":1787,"Ġmid":1788,"ĠRob":1789,"ĠApril":1790,"Ġsite":1791,"ĠSk":1792,"othing":1793,"Ġgener":1794,"uk":1795,"Ġaud":1796,"ĠReg":1797,"itt":1798,"Ġsome":1799,"ĠCor":1800,"Ġalbum":1801,"ĠDav":1802,"Ġcontin":1803,"ĠComp":1804,"Ġ191":1805,"ollow":1806,"ĠHe":1807,"Ġopened":1808,"ĠAngel":1809,"ĠPer":1810,"ĠEl":1811,"ateg":1812,"Ġbuilding":1813,"ĠJuly":1814,"BC":1815,"ling":1816,"vest":1817,"ealand":1818,"ĠHoldings":1819,"Ġplc":1820,"ĠZealand":1821,"als":1822,"Ġback":1823,"ĠChic":1824,"omotive":1825,"ĠSe":1826,"Ġrefer":1827,"Ġ190":1828,"aterial":1829,"armace":1830,"ylv":1831,"ĠAg":1832,"Ġhand":1833,"atural":1834,"ĠRe":1835,"Ġexper":1836,"ext":1837,"apor":1838,"Ġtrading":1839,"Ġfranch":1840,"ĠEm":1841,"Ġthis":1842,"by":1843,"armaceutical":1844,"Ġhot":1845,"Ġmerger":1846,"Ġexpand":1847,"ĠKabush":1848,"ishing":1849,"ĠAb":1850,"ĠAer":1851,"ĠIll":1852,"Ġfocused":1853,"Ġrespons":1854,"ĠCapital":1855,"Ġhist":1856,"ĠGr":1857,"abor":1858,"Ġren":1859,"Ġshop":1860,"ĠAnd":1861,"Ġmerged":1862,"Ġrelated":1863,"Ġtelecommunications":1864,"ĠChicago":1865,"Ġduring":1866,"Ġusing":1867,"yo":1868,"ĠSm":1869,"Ġi":1870,"ually":1871,"ĠEuropean":1872,"ĠNovember":1873,"Ġproducing":1874,"ylvania":1875,"Ġtop":1876,"Ġestate":1877,"Ġtransportation":1878,"ĠFrancisco":1879,"Ch":1880,"lin":1881,"ĠLos":1882,"ĠTransport":1883,"ĠPenns":1884,"ica":1885,"Ġtool":1886,"ecut":1887,"Ġpassenger":1888,"ĠSept":1889,"Ġle":1890,"ĠBrew":1891,"etts":1892,"tario":1893,"ior":1894,"Ġdistributor":1895,"ĠPennsylvania":1896,"dle":1897,"Ġdec":1898,"Ġanal":1899,"CA":1900,"isc":1901,"Ġfull":1902,"ipal":1903,"Ġ1994":1904,"Ġcare":1905,"ng":1906,"ËĪ":1907,"orth":1908,"ĠOntario":1909,"Ġdif":1910,"ounced":1911,"ically":1912,"Ġcargo":1913,"achus":1914,"Ġfacilities":1915,"Ġdomestic":1916,"ĠSeptember":1917,"itz":1918,"achusetts":1919,"Ġend":1920,"ograph":1921,"ĠMassachusetts":1922,"aff":1923,"Ġshort":1924,"Ġclients":1925,"Ġ'":1926,"ĠAG":1927,"osed":1928,"ream":1929,"pres":1930,"Ġtitles":1931,"Ġrem":1932,"ties":1933,"Ġmagaz":1934,"Ġclothing":1935,"ĠManagement":1936,"Ġbran":1937,"ersey":1938,"ler":1939,"Ġprovide":1940,"Ã¼":1941,"Ġmil":1942,"Ġincludes":1943,"aper":1944,"rist":1945,"ĠAug":1946,"ived":1947,"ker":1948,"ona":1949,"ĠTok":1950,"Ġthem":1951,"Ġanim":1952,"Ġcarri":1953,"Ġserves":1954,"ĠTransit":1955,"razil":1956,"ĠAngeles":1957,"DA":1958,"à®":1959,"Ġlate":1960,"ota":1961,"Ġdisc":1962,"Ġenterprise":1963,"ĠCEO":1964,"Ġmaterial":1965,"Ġlong":1966,"ĠBer":1967,"Ġoldest":1968,"lish":1969,"omer":1970,"Ġsuper":1971,"ship":1972,"eek":1973,"CO":1974,"Ġav":1975,"monly":1976,"apore":1977,"fore":1978,"ising":1979,"ĠMac":1980,"inois":1981,"ĠAv":1982,"ĠKabushiki":1983,"reland":1984,"ĠEnergy":1985,"ĠEnglish":1986,"ĠIllinois":1987,"ĠBrazil":1988,"cept":1989,"ĠWill":1990,"anta":1991,"Ġ17":1992,"Ġdistributed":1993,"Ġregion":1994,"alt":1995,"Ġradio":1996,"Ðµ":1997,"ĠIreland":1998,"Ġhard":1999,"0000":2000,"Ġvari":2001,"Ġpopular":2002,"ama":2003,"Ġreven":2004,"Ġproperty":2005,"min":2006,"olved":2007,"ĠMer":2008,"ĠState":2009,"Ġparent":2010,"ĠAugust":2011,"Ġperson":2012,"evelop":2013,"Ġdesigns":2014,"Ġrelease":2015,"Ġemploys":2016,"Ġty":2017,"ĠGames":2018,"Ġ30":2019,"Ġpurchased":2020,"ucture":2021,"Ġroutes":2022,"ple":2023,"active":2024,"Ġincorporated":2025,".[":2026,"oud":2027,"viron":2028,"icon":2029,"ĠPet":2030,"Ġcompet":2031,"ĠSingapore":2032,"Ġbranches":2033,"ÑĢ":2034,"ĠTur":2035,"ĠIT":2036,"à¤":2037,"igan":2038,"Ġactiv":2039,"Ã¡":2040,"Ġusers":2041,"Ġactive":2042,"Ġ15":2043,"ĠOh":2044,"uel":2045,"Ġcan":2046,"ĠChar":2047,"Ġtrain":2048,"ĠColumb":2049,"Ġrestaurant":2050,"Ġfollow":2051,"iction":2052,"oe":2053,"ĠFir":2054,"ently":2055,"Ġdown":2056,"Ġbrewery":2057,"TA":2058,"ĠJersey":2059,"à¸":2060,"Ġ1993":2061,"Ġcomm":2062,"ooks":2063,"tal":2064,"ĠPark":2065,"ĠRed":2066,"Ġconsulting":2067,"Ġsch":2068,"Ġshar":2069,"oor":2070,"ĠTheir":2071,"SA":2072,"weg":2073,"Ġ13":2074,"Ġdef":2075,"ishes":2076,"Ġ11":2077,"ili":2078,"Ġ16":2079,"ĠRo":2080,"Ġchang":2081,"Ġvariety":2082,"day":2083,"Ġfact":2084,"âĢĵ":2085,"ĠCentral":2086,"Ġprojects":2087,"ĠTechnology":2088,"Ġsubsidiaries":2089,"Ġadvertising":2090,"Ġmach":2091,"Ġmotor":2092,"ĠMor":2093,"Ġconnect":2094,"Ġindustries":2095,"Ġbuilt":2096,"ĠStudios":2097,"Ġnatural":2098,"aged":2099,"aim":2100,"hold":2101,"itor":2102,"Ġareas":2103,"ke":2104,"ĠMexico":2105,"ful":2106,"Ġsports":2107,"ĠCommunications":2108,"operative":2109,"Ġworks":2110,"Ġset":2111,"Ġpol":2112,"ĠUnion":2113,"ĠAirways":2114,"ĠThis":2115,"Ġmedical":2116,"Ġdeveloping":2117,"yle":2118,"Ġ14":2119,"Ġgrow":2120,"Ġ1992":2121,"field":2122,"ĠFort":2123,"Ġelectronics":2124,"ĠTokyo":2125,"ress":2126,"wan":2127,"ĠMil":2128,"ĠInvest":2129,"Ġgro":2130,"Ġwhere":2131,"Ġalong":2132,"vers":2133,"ĠFeb":2134,"ĠOs":2135,"Ġpublishes":2136,"Ġsol":2137,"sour":2138,"wood":2139,"Ġsecurity":2140,"Ġdiffer":2141,"oon":2142,"Ġlog":2143,"Ġreleases":2144,"Ġcommunity":2145,"wegian":2146,"cent":2147,"uch":2148,"ya":2149,"ĠLat":2150,"ĠGovernment":2151,"ips":2152,"ruary":2153,"ĠOhio":2154,"onto":2155,"ĠSince":2156,"istered":2157,"omin":2158,"ique":2159,"ĠTechnologies":2160,"Ġdesigned":2161,"rastr":2162,"ĠFebruary":2163,"Ġvehicles":2164,"ĠDevelop":2165,"ĠMichigan":2166,"uilding":2167,"ning":2168,"Ġrepres":2169,"Ġserving":2170,"Ġaff":2171,"Ġsur":2172,"ĠSun":2173,"ĠIm":2174,"ĠGl":2175,"glomer":2176,"iance":2177,"ize":2178,"ources":2179,"rad":2180,"ĠSec":2181,"ĠMotor":2182,"imes":2183,"Ġstates":2184,"Ġconglomer":2185,"Ġprimary":2186,"Ġfree":2187,"oss":2188,"Ġdeal":2189,"Ġinterest":2190,"ĠLa":2191,"thern":2192,"Ġ500":2193,"Ġnews":2194,"ĠAssociation":2195,"ĠMed":2196,"ĠPaul":2197,"Ġclass":2198,"Ġteam":2199,"use":2200,"side":2201,"ĠToronto":2202,"Ġresponsible":2203,"of":2204,"ĠStreet":2205,"ospital":2206,"bre":2207,"Ġbi":2208,"Ġoperation":2209,"ĠAtl":2210,"Ġequity":2211,"ĠDavid":2212,"Ġdifferent":2213,"ve":2214,"ĠRussia":2215,"Ġhelp":2216,"rastructure":2217,"care":2218,"ĠDes":2219,"ĠElectric":2220,"ĠMot":2221,"ĠHealth":2222,".)":2223,"ara":2224,"Ġfive":2225,"Ġthird":2226,"Ġplay":2227,"der":2228,"itary":2229,"utch":2230,"ffic":2231,"ki":2232,"ĠNorway":2233,"Ġpreviously":2234,"TV":2235,"ĠBelg":2236,"ĠColumbia":2237,"Ġlit":2238,"also":2239,"Ġfield":2240,"ĠPower":2241,"Ġrank":2242,"Ġcontrol":2243,"ought":2244,"ĠBroad":2245,"hemical":2246,"ĠMicro":2247,"Ġgu":2248,"aging":2249,"ĠIndustries":2250,"Ã³":2251,"ection":2252,"ĠProductions":2253,"ĠSa":2254,"ĠDen":2255,"vironment":2256,"Ġut":2257,"ĠMarket":2258,"ĠChrist":2259,"Ġoffering":2260,"ictures":2261,"ĠPartners":2262,"Ġavail":2263,"Ġcredit":2264,"aster":2265,"ĠPre":2266,"angu":2267,"ireless":2268,"ĠItaly":2269,"ĠHol":2270,"erry":2271,"Ġ25":2272,"Ġ189":2273,"azz":2274,"Ġaccessories":2275,"erb":2276,"ape":2277,"ĠCarol":2278,"ÃŃ":2279,"ences":2280,"ined":2281,"omb":2282,"Ġpublicly":2283,"reat":2284,"Ġlike":2285,"ĠGlobal":2286,"ĠWestern":2287,"berg":2288,"ĠService":2289,"ĠKorea":2290,"IC":2291,"MA":2292,"St":2293,"ĠHead":2294,"print":2295,"Ġ1970":2296,"isation":2297,"Ġfre":2298,"ĠHo":2299,"acific":2300,"Ġdevices":2301,"ĠSociety":2302,"ĠBang":2303,"orks":2304,"Ġrock":2305,"Ġtraded":2306,"wear":2307,"ĠGold":2308,"Ġ1991":2309,"Ġbanks":2310,"ildren":2311,"Ġreferred":2312,"Ġexpanded":2313,"ĠFirst":2314,"itions":2315,"ĠMel":2316,"Ġdepartment":2317,"ĠRich":2318,"Ġrailway":2319,"ĠNorwegian":2320,"Ġschool":2321,"ism":2322,"Ġhost":2323,"astern":2324,"Ġwide":2325,"Ġincluded":2326,"ipping":2327,"Ġcities":2328,"Ġbefore":2329,"ĠBlack":2330,"hority":2331,"atch":2332,"Ġlow":2333,"Ġleg":2334,"ado":2335,"ively":2336,"Ġoperate":2337,"Ġgeneral":2338,"mbH":2339,"ued":2340,"igg":2341,"Ġowner":2342,"Ġcommonly":2343,"ecutive":2344,"ĠTurk":2345,"Ġavailable":2346,"rup":2347,"Ġwater":2348,"ĠSA":2349,"ĠMetro":2350,"Ġcap":2351,"ĠMinn":2352,"Ġtotal":2353,"Ġtravel":2354,"ĠArab":2355,"annel":2356,"ĠParis":2357,"ĠPC":2358,"ĠFinancial":2359,"Ġcommunications":2360,"ĠRussian":2361,"casting":2362,"Ġintegrated":2363,"Ġaudio":2364,"Ġtools":2365,"ĠDevelopment":2366,"bor":2367,"za":2368,"Ġvis":2369,"Ġfounder":2370,"ks":2371,"Ġpay":2372,"ades":2373,"etherlands":2374,"ots":2375,"ĠVirginia":2376,"Ġconglomerate":2377,"wards":2378,"Ġothers":2379,"omet":2380,"ĠGmbH":2381,"Ġowners":2382,"Ġpersonal":2383,"oo":2384,"Ġ[":2385,"ĠFin":2386,"Ġ1989":2387,"Ġfirms":2388,"ĠWilliam":2389,"ivid":2390,"Ġprint":2391,"forman":2392,"house":2393,"erland":2394,"Ġterm":2395,"ief":2396,"Ġfocuses":2397,"Ġmining":2398,"cel":2399,"Ġflag":2400,"Ġacquis":2401,"ĠPhilipp":2402,"æľ":2403,"Ġcoll":2404,"Ġautomotive":2405,"ĠMont":2406,"now":2407,"atal":2408,"ĠIr":2409,"Ġbecome":2410,"Ġsector":2411,"yt":2412,"ÙĦ":2413,"onom":2414,"ĠNetherlands":2415,"Ġregistered":2416,"mark":2417,"Ġref":2418,"ians":2419,"istan":2420,"ource":2421,"ĠBusiness":2422,"Ġsingle":2423,"uent":2424,"ured":2425,"Ġorganiz":2426,"ĠPublishing":2427,"ĠGeorg":2428,"hol":2429,"ĠOreg":2430,"Ġcomb":2431,"Ġsupply":2432,"ĠOregon":2433,"unk":2434,"Ġannounced":2435,"Ġchanged":2436,"me":2437,"ĠRailway":2438,"Ġpartic":2439,"ĠEngine":2440,"Ġrestaurants":2441,"ĠStr":2442,"ills":2443,"Ġparts":2444,"Ġfollowing":2445,"ĠCarolina":2446,"bour":2447,"ster":2448,"ĠStar":2449,"tle":2450,"Ġmanufactured":2451,"Ġtrade":2452,"Ġcars":2453,"ĠCenter":2454,"the":2455,"ãĥ¼":2456,"inem":2457,"Ġstations":2458,"Ġmanufacturers":2459,"Ġspecialized":2460,"Ġbought":2461,"Ġfle":2462,"ĠLou":2463,"Ġindivid":2464,"Ġlabels":2465,"Ġinfrastructure":2466,"ea":2467,"ally":2468,"Ġplant":2469,"ashion":2470,"20":2471,"ek":2472,"krain":2473,"med":2474,"Ñģ":2475,"ĠAviation":2476,"ĠInsurance":2477,"Ġsteel":2478,"Ġmanaged":2479,"ixed":2480,"ĠHouse":2481,"aving":2482,"rael":2483,"ministr":2484,"Ġpost":2485,"ĠShe":2486,"ĠRoy":2487,"Ġprovided":2488,"Ġexist":2489,"ĠSuper":2490,"ping":2491,"ĠPictures":2492,"estin":2493,"ĠOne":2494,"ephone":2495,"ming":2496,"åħ":2497,"icy":2498,"aking":2499,"inning":2500,"Ġmodel":2501,"Ġpat":2502,"ada":2503,"Ġrece":2504,"Ġregul":2505,"Ġpharmaceutical":2506,"ĠTelecom":2507,"Ġpartnership":2508,"formance":2509,"Ġiss":2510,"Ġmulti":2511,"ÑĤ":2512,"åı":2513,"Ġlight":2514,"Ġinvolved":2515,"Ġphot":2516,"ĠScot":2517,"Ġmaking":2518,"ĠMalays":2519,"mission":2520,"Ã¸":2521,"ederal":2522,"Ġpack":2523,"ĠSpain":2524,"ĠIsrael":2525,"ĠResearch":2526,"Ġdeliv":2527,"Ġhistory":2528,"ĠâĢĵ":2529,"Ġindividual":2530,"ted":2531,"ĠMet":2532,"ĠMad":2533,"ĠDo":2534,"Ġbuses":2535,"ĠValley":2536,"ms":2537,"Ġinst":2538,"ari":2539,"ĠSil":2540,"Ġprot":2541,"ĠHot":2542,"ĠGeneral":2543,"gaisha":2544,"Ġsix":2545,"ĠIndex":2546,"ĠExpress":2547,"iginally":2548,"SC":2549,"na":2550,"Ðº":2551,"Ġcover":2552,"Ġdivers":2553,"quartered":2554,"asing":2555,"Ġ24":2556,"ĠInstitut":2557,"Ġopt":2558,"Ġsupplier":2559,"Ġalbums":2560,"Ġinternet":2561,"alf":2562,"itect":2563,"âĢĿ":2564,"Ġ1986":2565,"Ġarch":2566,"Ġeducation":2567,"ione":2568,"Ġtraditional":2569,"ĠAdv":2570,"ĠCorp":2571,"Ġlimited":2572,"ĠFound":2573,"Ġcollect":2574,"Ġaddition":2575,"ridge":2576,"nov":2577,"ature":2578,"ĠSam":2579,"ĠGo":2580,"soft":2581,"Ġexpl":2582,"crib":2583,"Ġsupermarket":2584,"Ġec":2585,"ĠCons":2586,"Ġval":2587,"Ġmagazine":2588,"Ġmilitary":2589,"ĠInt":2590,"Ġmanufacture":2591,"aid":2592,"band":2593,"Ġsearch":2594,"itan":2595,"Ġband":2596,"lear":2597,"ode":2598,"vel":2599,"Ġfast":2600,"Ġchildren":2601,"ense":2602,"Ġstrateg":2603,"ĠMiddle":2604,"yr":2605,"adem":2606,"Ġcompon":2607,"ĠIsland":2608,"Ġlicensed":2609,"Ġelectricity":2610,"ĠÂ":2611,"era":2612,"Ġturn":2613,"omen":2614,"ĠRom":2615,"Ġno":2616,"ogn":2617,"oung":2618,"Chinese":2619,"eet":2620,"hi":2621,"ĠTai":2622,"unct":2623,"ĠPal":2624,"ĠPacific":2625,"Ġproduce":2626,"ĠElectron":2627,"itzerland":2628,"ĠSim":2629,"Ġchar":2630,"prises":2631,"Ġenvironment":2632,"BS":2633,"err":2634,"ĠConnect":2635,"Ġinstru":2636,"ality":2637,"Ġrail":2638,"ĠSouthern":2639,"Ġbuy":2640,"olution":2641,"Ð¾Ð":2642,"ores":2643,"Ġaim":2644,"Ġstaff":2645,"oston":2646,"ĠGreen":2647,"Ġaffili":2648,"18":2649,"west":2650,"Ġsouth":2651,"order":2652,"aker":2653,"Ġselling":2654,"Ġsame":2655,"Ġeach":2656,"Ġapplication":2657,"Ar":2658,"fol":2659,"ym":2660,"Ã¶":2661,"Ġtour":2662,"ourn":2663,"atell":2664,"ĠII":2665,"ĠRock":2666,"iger":2667,"ultural":2668,"ĠSwitzerland":2669,"Ġrevenue":2670,"Ġrepresent":2671,"ĠLouis":2672,"AN":2673,"ĠDutch":2674,"Ġstand":2675,"Ġwhile":2676,"Ġ188":2677,"Ġcarrier":2678,"Ġprocessing":2679,"SP":2680,"Ġet":2681,"Ġ1987":2682,"Ġ40":2683,"ĠPak":2684,"ĠDi":2685,"avy":2686,"Ġcloud":2687,"TS":2688,"isions":2689,"Ġsem":2690,"Ġfashion":2691,"ĠChe":2692,"ĠSwiss":2693,"idential":2694,"AC":2695,"Ġatt":2696,"encies":2697,"ĠSweden":2698,"ĠSl":2699,"Ġcolle":2700,"Ġmetal":2701,"ĠGeorgia":2702,"pol":2703,"ring":2704,"Ġtechn":2705,"Ġmicro":2706,"ology":2707,"ĠâĢľ":2708,"ĠTaiwan":2709,"ael":2710,"Ġbands":2711,"ĠMart":2712,"Ġstill":2713,"ĠAircraft":2714,"Ġcreate":2715,"Ġworking":2716,"Ġrenamed":2717,"Ġtest":2718,"Ġtechnologies":2719,"aming":2720,"ĠFrank":2721,"ĠCont":2722,"ĠBoston":2723,"ĠFT":2724,"Ġvia":2725,"Ġext":2726,"Ġautomobile":2727,"rupt":2728,"ci":2729,"icated":2730,"ĠLib":2731,"Ġ21":2732,"Ġrecords":2733,"Ġclosed":2734,"Ġactivities":2735,"Ġthere":2736,"ĠWind":2737,"hester":2738,"EC":2739,"irt":2740,"ĠSpanish":2741,"ĠSony":2742,"Ġdem":2743,"Ġdestin":2744,"acing":2745,"Ġpress":2746,"Ġuses":2747,"ould":2748,"ival":2749,"ivil":2750,"uman":2751,"ĠVer":2752,"Ġbeh":2753,"Ġcenters":2754,"iew":2755,"ena":2756,"Ġbranch":2757,"ĠWith":2758,"Ġship":2759,"ãĥ³":2760,"Ġnetworks":2761,"anning":2762,"åħ¬":2763,"200":2764,"atic":2765,"ĠAS":2766,"ĠDub":2767,"Ġgoods":2768,"ĠPres":2769,"Ġmoved":2770,"Ġremain":2771,"town":2772,"Ġcas":2773,"Ġwent":2774,"ĠCD":2775,"ĠCr":2776,"iles":2777,"ĠBay":2778,"though":2779,"aces":2780,"Ġ/":2781,"Ġaward":2782,"rop":2783,"ĠTw":2784,"ĠDirect":2785,"Ġannual":2786,"Ġfranchise":2787,"Ġwrit":2788,"Ġlines":2789,"ĠMobile":2790,"Ġcomplet":2791,"ĠScott":2792,"anguage":2793,"IP":2794,"Ġfoot":2795,"merce":2796,"oph":2797,"Ġ1988":2798,"ĠAuthority":2799,"MI":2800,"Ġmot":2801,"ĠUniversal":2802,"ĠSwedish":2803,"ting":2804,"ĠPost":2805,"Ġtown":2806,"Ġdistributes":2807,"ĠThom":2808,"Ġassoci":2809,"Ġmultip":2810,"Ġorganizations":2811,"ĠBooks":2812,"Ġhous":2813,"ocu":2814,"ording":2815,"sk":2816,"arl":2817,"ĠBell":2818,"Ġ2014":2819,"Ġexchange":2820,"Ġnewsp":2821,"Ġ1960":2822,"umbai":2823,"ĠRobert":2824,"Ġaer":2825,"ald":2826,"iving":2827,"ulture":2828,"Ġartist":2829,"Ġanimation":2830,"TC":2831,"ison":2832,"ervice":2833,"Ġprinc":2834,"clus":2835,"prene":2836,"Ġmaintain":2837,"Ġmotorcy":2838,"Ġfleet":2839,"preneur":2840,"esp":2841,"reen":2842,"repreneur":2843,"ĠAct":2844,"ĠMos":2845,"ĠWeb":2846,"cles":2847,"Ġ1984":2848,"Ġstudents":2849,"airman":2850,"Ġacquisition":2851,"Ġcable":2852,"Ġlife":2853,"ĠMumbai":2854,"ĠRadio":2855,"Ġrep":2856,"ĠOp":2857,"Ġsupplies":2858,"ĠFilms":2859,"Ġmaterials":2860,"åı¸":2861,"åħ¬åı¸":2862,"ican":2863,"rel":2864,"ĠVict":2865,"Ġshipping":2866,"ables":2867,"iggest":2868,"ĠPhilippines":2869,"ĠPakistan":2870,"rodu":2871,"ĠCredit":2872,"ĠNo":2873,"Ġwhose":2874,"ĠEstablished":2875,"rical":2876,"éĻ":2877,"Ġwireless":2878,"ĠUkrain":2879,"Ġhardware":2880,"ĠMalaysia":2881,"Ġconstit":2882,"ĠIndones":2883,"Ġsuccessful":2884,"time":2885,"ask":2886,"ĠCy":2887,"ĠMag":2888,"Ġany":2889,"istics":2890,"Ġ1985":2891,"Ġconsum":2892,"Ġcontroll":2893,"ĠLatin":2894,"ĠInstitute":2895,"NA":2896,"OS":2897,"uz":2898,"Ġoften":2899,"ĠCro":2900,"ĠSolutions":2901,"ebec":2902,"Ġtruck":2903,"Ġpartner":2904,"Ġimprint":2905,"Ġabbre":2906,"ĠColor":2907,"ospace":2908,"oice":2909,"ä¸":2910,"Ġmar":2911,"ĠBased":2912,"ĠPublic":2913,"anced":2914,"Ġ1983":2915,"tenance":2916,"bus":2917,"Ġchemical":2918,"Ġlo":2919,"Ġpract":2920,"ffee":2921,"Ġcustomer":2922,"viated":2923,"istry":2924,"Ġsee":2925,"ĠSal":2926,"ĠBur":2927,"ody":2928,"Ġevent":2929,"ĠRoyal":2930,"Ġbiggest":2931,"ĠIP":2932,"onsin":2933,"isconsin":2934,"hai":2935,"ano":2936,"ĠCA":2937,"reek":2938,"ĠTelevision":2939,"Ġhealthcare":2940,"ĠHeadquartered":2941,"Ġconstituent":2942,"sc":2943,"anda":2944,"read":2945,"Ġdep":2946,"ĠWisconsin":2947,"Ġspecialty":2948,"Ġbankrupt":2949,"Ġfactory":2950,"ein":2951,"alk":2952,"ĠAfter":2953,"unic":2954,"Ġhospital":2955,"Ġinitially":2956,"LP":2957,"eak":2958,"Ġce":2959,"ĠMain":2960,"Ġred":2961,"uff":2962,"Ġ31":2963,"Ġscience":2964,"gy":2965,"Ġded":2966,"Ġitself":2967,"aka":2968,"ended":2969,"Ġrecording":2970,"Ġresidential":2971,"riend":2972,"ĠDon":2973,"Ġorig":2974,"Ġimport":2975,"Ġtyp":2976,"iev":2977,"Ġhub":2978,"ĠDan":2979,"ĠDigital":2980,"app":2981,"Ã¤":2982,"ining":2983,"ĠSol":2984,"ĠJames":2985,"Ġsimply":2986,"iconduct":2987,"Ġob":2988,"ability":2989,"Ġstation":2990,"Ġconf":2991,"Ġmajority":2992,"Ġsectors":2993,"Ġtraining":2994,"Ġcomponents":2995,"my":2996,"Ġwine":2997,"ĠMary":2998,"Ġoffer":2999,"ront":3000,"Ġstorage":3001,"Ġvehicle":3002,"..":3003,"ef":3004,"tra":3005,"acy":3006,"ĠFTSE":3007,"ny":3008,"ĠAB":3009,"Ġunivers":3010,"Ġengaged":3011,"DAQ":3012,"gent":3013,"Ġwinery":3014,"ĠFre":3015,"Ġ187":3016,"Ġnotable":3017,"Ġprograms":3018,"atellite":3019,"eign":3020,"Ð²":3021,"iny":3022,"Ġmer":3023,"ĠBig":3024,"ĠUt":3025,"alls":3026,"Ġproviders":3027,"Ġmostly":3028,"view":3029,"bourne":3030,"Ġdestinations":3031,"MS":3032,"TE":3033,"ĠÃ":3034,"orts":3035,"road":3036,"ĠSyd":3037,"ĠWil":3038,"ountain":3039,"Ġrecogn":3040,"ĠAlber":3041,"etrole":3042,"ĠQuebec":3043,"iers":3044,"Ġcatal":3045,"ĠSeat":3046,"Ġhaving":3047,"quare":3048,"Ġcomic":3049,"Ġ60":3050,"Ġevents":3051,"ASDAQ":3052,"Ġshares":3053,"etroleum":3054,"arn":3055,"Ġsound":3056,"Ġder":3057,"olf":3058,"ĠDepartment":3059,"epar":3060,"Ġ1982":3061,"Ġengines":3062,"Ġcenter":3063,"Ġfacility":3064,"Ġsites":3065,"ĠPlay":3066,"uxury":3067,"Ġceased":3068,"Ġdedicated":3069,"esota":3070,"itors":3071,"Ġfire":3072,"Ġwill":3073,"Ġpione":3074,"rol":3075,"ĠMo":3076,"ĠBanc":3077,"Ġgo":3078,"ternative":3079,"ancy":3080,"Ġjazz":3081,"Ġentrepreneur":3082,"Ġnetworking":3083,"Ġproperties":3084,"ĠGeorge":3085,"unicipal":3086,"10":3087,"RO":3088,"ato":3089,"Ġ23":3090,"Ġranked":3091,"ĠMinnesota":3092,"Ø±":3093,"Ġbo":3094,"ĠBen":3095,"ĠNews":3096,"Ġclaim":3097,"ĠEngineering":3098,"Ġwomen":3099,"Ġdeb":3100,"Ġgl":3101,"Ġspecialising":3102,"atory":3103,"ĠPortug":3104,"ĠAcc":3105,"IT":3106,"men":3107,"tt":3108,"Ġsepar":3109,"Ġfiction":3110,"ĠTom":3111,"ĠHer":3112,"Ġexclus":3113,"Ġarm":3114,"ĠBlue":3115,"Ġquality":3116,"ĠVictor":3117,"ĠSydney":3118,"ss":3119,"ĠSur":3120,"Ġdocu":3121,"ĠPat":3122,"ĠLine":3123,"Ġnames":3124,"ĠKen":3125,"acks":3126,"Ġmaintenance":3127,"ansas":3128,"Ġintrodu":3129,"Ġpresent":3130,"Ġgeneration":3131,"IS":3132,"ME":3133,"iences":3134,"ĠLaw":3135,"que":3136,"oday":3137,"ĠHolding":3138,"Ġeconom":3139,"ĠSeattle":3140,"ges":3141,"ma":3142,"vent":3143,"oration":3144,"Ġpaper":3145,"Ġ1950":3146,"Ġplatforms":3147,"ĠInteractive":3148,"ĠMicrosoft":3149,"60":3150,"ÙĬ":3151,"ĠMis":3152,"Ġ250":3153,"ĠOff":3154,"osh":3155,"ours":3156,"Ġagencies":3157,"ĠDesign":3158,"ĠDubai":3159,"known":3160,"adel":3161,"ems":3162,"ĠWales":3163,"ĠOper":3164,"arget":3165,"akes":3166,"ĠTrust":3167,"ĠAfrican":3168,"Ġcollabor":3169,"Ġcatalog":3170,"Ġsale":3171,"ĠDistr":3172,"ĠNorthern":3173,"Ġphone":3174,"Ġfamous":3175,"ĠAutom":3176,"Ġfunds":3177,"brand":3178,"service":3179,"Ġcell":3180,"Ġcore":3181,"ides":3182,"duc":3183,"ĠStev":3184,"ove":3185,"Ġplants":3186,"Ġclub":3187,"Ġ1981":3188,"ĠArt":3189,"Ġtransit":3190,"Ġinvestments":3191,"Ġorganisation":3192,"ĠCharles":3193,"Ġarchitect":3194,"Ġmerch":3195,"ĠSanta":3196,"ĠLife":3197,"ĠRiver":3198,"ima":3199,"Ġlocation":3200,"Ġjust":3201,"ĠQue":3202,"ĠIndiana":3203,"Ġdirector":3204,"īéĻ":3205,"ĠBuilding":3206,"Ġtoday":3207,"ĠNe":3208,"Ġbeer":3209,"Ġspec":3210,"Ġperformance":3211,"Ġeducational":3212,"aisha":3213,"Ġdist":3214,"ola":3215,"olid":3216,"ĠInf":3217,"ulation":3218,"antic":3219,"ĠAriz":3220,"ball":3221,"ps":3222,"ĠCompanies":3223,"ĠMotors":3224,"æľīéĻ":3225,"æľīéĻĲ":3226,"Ġfin":3227,"ĠTenn":3228,"ĠMark":3229,"ĠBo":3230,"Ġ22":3231,"aint":3232,"ĠProv":3233,"other":3234,"Ġworked":3235,"ĠDisney":3236,"ĠMichael":3237,"Ġsharehold":3238,"ĠOslo":3239,"Ġflagship":3240,"ĠArizona":3241,"cc":3242,"we":3243,"Ġsl":3244,"Ġhom":3245,"ĠFoods":3246,"Ġ1978":3247,"Ġpresident":3248,"ĠSky":3249,"aus":3250,"à¦":3251,"Ġthese":3252,"Ġbas":3253,"Ġluxury":3254,"Ġrights":3255,"Ġallows":3256,"Ġcentury":3257,"Ġprincipal":3258,"wh":3259,"Ġsk":3260,"Ġfarm":3261,"ĠJack":3262,"Ġoperators":3263,"argest":3264,"aut":3265,"Ġinnov":3266,"Ġcontain":3267,"ift":3268,"play":3269,"Ġ1979":3270,"Ġevery":3271,"ĠFortune":3272,"iconductor":3273,"PS":3274,"met":3275,"Ġful":3276,"Ġwould":3277,"rea":3278,"Ġmake":3279,"Ġland":3280,"ĠWater":3281,"Ġdesigner":3282,"Ġtext":3283,"icop":3284,"Ġfurn":3285,"ĠBir":3286,"ĠEr":3287,"ĠOriginally":3288,"ĠProducts":3289,"On":3290,"iture":3291,"amil":3292,"ĠRel":3293,"Ġnation":3294,"ĠHome":3295,"Ġimpro":3296,"ĠMelbourne":3297,"politan":3298,"ĠColorado":3299,"real":3300,"ĠLake":3301,"udi":3302,"uston":3303,"Ġconsists":3304,"ification":3305,"Ġportfol":3306,"Ġhotel":3307,"ĠInvestment":3308,"bank":3309,"eration":3310,"ĠSports":3311,"Ġlegal":3312,"AR":3313,"Ġel":3314,"Ġcamp":3315,"Ġsoci":3316,"ĠPan":3317,"ĠHill":3318,"essee":3319,"Ġpron":3320,"Ġdelivery":3321,"kt":3322,"off":3323,"Ġmen":3324,"etter":3325,"uting":3326,"dul":3327,"Ġvirt":3328,"Ġtelephone":3329,"burgh":3330,"ministration":3331,"PC":3332,"gen":3333,"Ġcert":3334,"Ġweek":3335,"ĠAlex":3336,"igation":3337,"ĠHow":3338,"ĠKent":3339,"aily":3340,"âĢİ":3341,"Ġspecialises":3342,"eath":3343,"Ġutility":3344,"ĠDistrict":3345,"ocol":3346,"Ġvol":3347,"ĠVanc":3348,"Ġspace":3349,"Ġrecordings":3350,"Ġagric":3351,"ĠManufact":3352,"Ġgrown":3353,"ĠTennessee":3354,"ES":3355,"MC":3356,"atives":3357,"icut":3358,"ĠSpr":3359,"urities":3360,"Ġ26":3361,"Ġforeign":3362,"ĠInformation":3363,"ĠKh":3364,"ellig":3365,"Ġ1969":3366,"Ġcentral":3367,"ouver":3368,"ĠIndustrial":3369,"Ġmakes":3370,"ĠNetworks":3371,"ĠThomas":3372,"sch":3373,"Ġorder":3374,"ĠBy":3375,"Ġnov":3376,"ĠArgent":3377,"ĠCommun":3378,"Ġhotels":3379,"ĠRoad":3380,"Founded":3381,"ÉĻ":3382,"ĠCap":3383,"ĠCamb":3384,"Ġlive":3385,"ĠFair":3386,"ĠHel":3387,"agen":3388,"ĠJe":3389,"Ġconc":3390,"iff":3391,"illing":3392,"porting":3393,"Ġshow":3394,"ustin":3395,"Ġprem":3396,"Ġ80":3397,"Ġconsumers":3398,"ĠVancouver":3399,"As":3400,"Ġpred":3401,"Ġmanages":3402,"Ġmonth":3403,"ĠSmith":3404,"ĠFoundation":3405,"ĠConnecticut":3406,"largest":3407,"ont":3408,"Ġday":3409,"ĠHigh":3410,"duction":3411,"ĠWal":3412,"ffect":3413,"Ġsigned":3414,"ĠHouston":3415,"ĠRichard":3416,"ĠØ§":3417,"isk":3418,"Ġbel":3419,"Ġ28":3420,"ĠNord":3421,"Ġasset":3422,"phia":3423,"Ġcommunities":3424,"DS":3425,"Ä«":3426,"urt":3427,"Ġtook":3428,"apers":3429,"Ġresult":3430,"ĠDistribut":3431,"ĠPresident":3432,"æľīéĻĲåħ¬åı¸":3433,"entures":3434,"Ġlast":3435,"ĠReal":3436,"Ġunit":3437,"Ġfocusing":3438,"ysis":3439,"ĠKorean":3440,"ĠBrewing":3441,"inyin":3442,"yard":3443,"Ġsw":3444,"ĠBoy":3445,"ĠGame":3446,"izza":3447,"Ġoffered":3448,"ements":3449,"Ġbrothers":3450,"ĠPhiladel":3451,"ĠBrewery":3452,"Ġvisual":3453,"Ġportfolio":3454,"Ð»":3455,"Ġcard":3456,"irc":3457,"ipt":3458,"anghai":3459,"Ġsuburb":3460,"ĠThere":3461,"Ġdivisions":3462,"load":3463,"Ġgrowth":3464,"Ġliter":3465,"ĠPhiladelphia":3466,"equ":3467,"Ġtog":3468,"ĠLong":3469,"endo":3470,"ego":3471,"Ġ1972":3472,"annels":3473,"ĠClub":3474,"ius":3475,"head":3476,"ita":3477,"ĠFood":3478,"Ġvers":3479,"Ġruns":3480,"Ġtogether":3481,"cil":3482,"ei":3483,"vey":3484,"itch":3485,"oma":3486,"ĠLLP":3487,"Ġjo":3488,"ĠComics":3489,"Ġfeature":3490,"ĠBrazilian":3491,"ĠScotland":3492,"ĠMissour":3493,"Ġfully":3494,"bed":3495,"Ġfixed":3496,"ĠIran":3497,"Ġgraph":3498,"Ġwholes":3499,"adesh":3500,"ĠMissouri":3501,"HK":3502,"YSE":3503,"Ġ.":3504,"onn":3505,"hel":3506,"atter":3507,"Ġcr":3508,"ĠMah":3509,"ĠBill":3510,"olis":3511,"ĠFox":3512,"ĠJim":3513,"Ġ186":3514,"ĠPeter":3515,"ĠIndonesia":3516,"ini":3517,"Ġbever":3518,"ĠLand":3519,"ĠGh":3520,"ĠHen":3521,"Ġpublishers":3522,"ĠWarner":3523,"ĠBroadcasting":3524,"Ġindividuals":3525,"Ġabbreviated":3526,"IA":3527,"Russ":3528,"Ãł":3529,"ĠMill":3530,"ĠPeople":3531,"ĠRail":3532,"Ġ27":3533,"Ġne":3534,"Ġground":3535,"Ġvide":3536,"Ġofficial":3537,"ĠShanghai":3538,"Ġshopping":3539,"Ġdocument":3540,"Ġtreat":3541,"arian":3542,"Ġso":3543,"ĠTop":3544,"ĠEqu":3545,"ĠOil":3546,"awa":3547,"Ġinvestors":3548,"Ġphys":3549,"Ġcasual":3550,"mond":3551,"Ã¨":3552,"ala":3553,"Ġcop":3554,"ĠTown":3555,"ider":3556,"ĠSteel":3557,"ĠIncorporated":3558,"Ġdrug":3559,"Ġprofessionals":3560,"ĠRegional":3561,"ĠTurkey":3562,"Ġvirtual":3563,"ness":3564,"Ġfil":3565,"ĠFund":3566,"imb":3567,"Ġexecutive":3568,"ĠGreat":3569,"IN":3570,"à¯":3571,"éĽ":3572,"ĠChannel":3573,"Ġbranded":3574,"Ġemerg":3575,"Ġroll":3576,"Ġinitial":3577,"ĠBerlin":3578,"Ġinstall":3579,"ĠUkraine":3580,"12":3581,"cing":3582,"uj":3583,"ather":3584,"Ġsatellite":3585,"ĠCop":3586,"ĠRet":3587,"ĠFederal":3588,"iag":3589,"ote":3590,"Ġallow":3591,"Ġcomputers":3592,"den":3593,"ÙĨ":3594,"Ġmass":3595,"ĠAT":3596,"olk":3597,"Ġalternative":3598,"avings":3599,"inema":3600,"ournal":3601,"Ġmultiple":3602,"Ġbankruptcy":3603,"BM":3604,"roll":3605,"Ġmetro":3606,"ĠHy":3607,"ularly":3608,"rick":3609,"ãĤ¹":3610,"ĠMontreal":3611,"ciation":3612,"heast":3613,"Ġbicy":3614,"ĠMy":3615,"ĠEgy":3616,"Ġ1974":3617,"Ġholds":3618,"Ã³n":3619,"Sp":3620,"net":3621,"Ġtarget":3622,"Ġcost":3623,"ĠSE":3624,"Ġlanguage":3625,"Ġreleasing":3626,"Ġ70":3627,"Ġrelations":3628,"ydro":3629,"Ġassociated":3630,"RA":3631,"VD":3632,"board":3633,"nam":3634,"zech":3635,"Ġpinyin":3636,"ĠBest":3637,"eter":3638,"ided":3639,"Ġhuman":3640,"ĠNev":3641,"ibb":3642,"ibr":3643,"aken":3644,"ĠRecordings":3645,"Ġunits":3646,"Ġ1977":3647,"Ġserved":3648,"Ġlaunch":3649,"ĠIndustry":3650,"Ġgroc":3651,"Äģ":3652,"Ġselect":3653,"ĠCle":3654,"Ġled":3655,"ĠOut":3656,"Ġgroups":3657,"Ġmachines":3658,"ĠEgypt":3659,"SM":3660,"da":3661,"founded":3662,"lets":3663,"Ġovers":3664,"Ġrepl":3665,"stan":3666,"ĠOl":3667,"Ġbeg":3668,"Ġ35":3669,"overy":3670,"Ġcreating":3671,"urrently":3672,"Ġassociation":3673,"ĠStudio":3674,"Ġdiversified":3675,"ĠMaryland":3676,"iod":3677,"Ġsaf":3678,"Ġant":3679,"Ġitems":3680,"Ġinstitutions":3681,"Ġsociety":3682,"])":3683,"Ġâ":3684,"Ġliqu":3685,"ura":3686,"ĠRh":3687,"Ġgaming":3688,"Ġra":3689,"ope":3690,"Ġeight":3691,"ega":3692,"Ġproducers":3693,"ĠIslands":3694,"Ġseven":3695,"ientific":3696,"ijing":3697,"cow":3698,"ger":3699,"Ġcivil":3700,"asy":3701,"Ġfew":3702,"ilar":3703,"amic":3704,"ĠLo":3705,"iana":3706,"Ġchannels":3707,"Ġacadem":3708,"Ġmarketed":3709,"ĠBrothers":3710,"Ġaccount":3711,"ography":3712,"ĠAtlanta":3713,"Ġcapac":3714,"ytics":3715,"Russian":3716,"car":3717,"uer":3718,"Å«":3719,"ËĲ":3720,"ĠCas":3721,"ĠToday":3722,"ĠFinn":3723,"ivision":3724,"ĠNint":3725,"ĠEastern":3726,"ĠVol":3727,"Ġinterests":3728,"Ġguit":3729,"Ġme":3730,"umin":3731,"Ġplanning":3732,"ĠBrook":3733,"Ġmedium":3734,"Ġlogistics":3735,"Ġfreight":3736,"Ġorigin":3737,"fl":3738,"most":3739,"Ġcards":3740,"ares":3741,"Ġbre":3742,"ĠChen":3743,"Ġmeas":3744,"unciation":3745,"Ġlif":3746,"ĠMax":3747,"urch":3748,"ĠGas":3749,"eller":3750,"Ġkey":3751,"Ġplans":3752,"Ġjew":3753,"Ġ1976":3754,"Ġelectrical":3755,"199":3756,"ĠAssoci":3757,"ĠPortland":3758,"ĠTransportation":3759,"Ġexploration":3760,"errit":3761,"Ġaviation":3762,"Ġself":3763,"ĠCzech":3764,"ĠId":3765,"ette":3766,"ole":3767,"ailand":3768,"ĠCoast":3769,"Ġretailers":3770,"ĠBeijing":3771,"ĠMoscow":3772,"ĠUtah":3773,"ĠVictoria":3774,"Ġboard":3775,"rey":3776,"ĠCre":3777,"Ġmission":3778,"ĠBoard":3779,"ĠRog":3780,"Ġ29":3781,"Ġmanaging":3782,"Ġroad":3783,"ĠTravel":3784,"Ġwebsites":3785,"Ġpronunciation":3786,"eap":3787,"ĠCam":3788,"ĠArea":3789,"ĠBas":3790,"ĠDall":3791,"ĠKansas":3792,"ĠThailand":3793,"Ġinternationally":3794,"ĠCarl":3795,"ĠCentury":3796,"Ġinteractive":3797,"Ġfounding":3798,"ĠOrgan":3799,"Ġpurp":3800,"Ġhistor":3801,"ĠFinland":3802,"ĠNintendo":3803,"bury":3804,"iy":3805,"anz":3806,"Ġten":3807,"Ġnorth":3808,"Ġeffect":3809,"ĠArch":3810,"Ġ300":3811,"Ġcoal":3812,"Ġoutside":3813,"Ġ1968":3814,"ificant":3815,"Ġadditional":3816,"Ġnearly":3817,"ĠIrish":3818,"30":3819,"ban":3820,"Ġconsist":3821,"Ġrole":3822,"anned":3823,"Ġincre":3824,"Ġfeatures":3825,"de":3826,"ĠTa":3827,"ĠManc":3828,"ĠGro":3829,"ĠGrand":3830,"ĠRos":3831,"ĠData":3832,"ĠHaw":3833,"ĠKn":3834,"ending":3835,"Ġcoffee":3836,"struct":3837,"Ġcommunication":3838,"Ġconsultancy":3839,"Ġadvis":3840,"80":3841,"found":3842,"ih":3843,"Ġsyn":3844,"ĠSup":3845,"ĠMr":3846,"iven":3847,"ĠWorks":3848,"rant":3849,"Ġ1973":3850,"hens":3851,"Ġanalysis":3852,"ĠChristian":3853,"Ġownership":3854,"Ġtechnical":3855,"ĠManchester":3856,"Ġwon":3857,"Ġpos":3858,"usical":3859,"ĠBh":3860,"ams":3861,"uts":3862,"ece":3863,"ume":3864,"Ġtrack":3865,"ĠEnterprise":3866,"inks":3867,"Ġsignificant":3868,"ĠComputer":3869,"ĠÂ£":3870,"ĠAlberta":3871,"ĠØ§ÙĦ":3872,"ca":3873,"tic":3874,"zen":3875,"Ġson":3876,"ĠTim":3877,"eth":3878,"Ġcooperative":3879,"Ġoutlets":3880,"Ġleader":3881,"Ġfeatured":3882,"ĠPoland":3883,"ographic":3884,"ĠBelgium":3885,"ĠBangl":3886,"Ġhosting":3887,"Ġintroduced":3888,"NC":3889,"RC":3890,"ias":3891,"loy":3892,"pre":3893,"ria":3894,"ĠSub":3895,"ĠMa":3896,"ĠFly":3897,"ĠDJ":3898,"ĠWell":3899,"Ġrecently":3900,"Ġdistr":3901,"Ġdevelopers":3902,"ĠComm":3903,"Ġinstitution":3904,"ãĥ¼ãĥ":3905,"Ġinstruments":3906,"ĠDiego":3907,"Ġseparate":3908,"Ġfurniture":3909,"FC":3910,"Th":3911,"wick":3912,"ati":3913,"Ġche":3914,"Ġdet":3915,"ids":3916,"Ġheavy":3917,"Ġalthough":3918,"ported":3919,"Ġcoach":3920,"resh":3921,"Ġbroadcast":3922,"Ġbroadband":3923,"urban":3924,"ception":3925,"ĠDenmark":3926,"Ġcontrolled":3927,"Ġfinance":3928,"ĠDallas":3929,"AE":3930,"par":3931,"ymb":3932,"Ġbar":3933,"ĠMits":3934,"utual":3935,"idge":3936,"ĠLin":3937,"ĠLines":3938,"ĠEv":3939,"imedia":3940,"ĠWe":3941,"ague":3942,"chen":3943,"enced":3944,"Ġ1930":3945,"Ġappar":3946,"Ġsolar":3947,"Ġvideos":3948,"RE":3949,"gress":3950,"ĠØ":3951,"Ġsit":3952,"oming":3953,"Ġword":3954,"ĠTy":3955,"uns":3956,"Ġyoung":3957,"Ġstudios":3958,"ucky":3959,"ĠBeach":3960,"Ġpresence":3961,"ĠEmir":3962,"Ã¼r":3963,"ĠManufacturing":3964,"ÙĪ":3965,"ĠAustin":3966,"ĠMountain":3967,"ĠRev":3968,"iances":3969,"Ġconsid":3970,"Ġ1971":3971,"Ġ1975":3972,"ĠCouncil":3973,"Ġartic":3974,"ĠDef":3975,"Ġmagazines":3976,"ĠMartin":3977,"book":3978,"mar":3979,"oen":3980,"ray":3981,"ĠFrom":3982,"ĠDh":3983,"ĠDanish":3984,"agon":3985,"action":3986,"earning":3987,"Ġkm":3988,"ecially":3989,"Ġbroker":3990,"Åįng":3991,"ĠiP":3992,"Ġdefunct":3993,"ĠElectronics":3994,"En":3995,"inter":3996,"aria":3997,"Ġbr":3998,"Ġmunicipal":3999,"Ġdue":4000,"Ġnumer":4001,"emark":4002,"ĠArts":4003,"ĠPriv":4004,"Ġmodern":4005,"ĠMinistry":4006,"cript":4007,"ĠWindows":4008,"11":4009,"bo":4010,"ky":4011,"wer":4012,"Ġz":4013,"ĠSon":4014,"ĠLog":4015,"ĠGood":4016,"ocated":4017,"Ġmotorcycle":4018,"Ġcapacity":4019,"500":4020,"building":4021,"Ġfinanc":4022,"Ġfuel":4023,"ĠIron":4024,"ĠMod":4025,"ĠKe":4026,"Ġracing":4027,"ĠOk":4028,"aps":4029,"ĠScience":4030,"Ġcollection":4031,"ĠDistribution":4032,"wa":4033,"Ġident":4034,"orm":4035,"ented":4036,"ĠMiss":4037,"ĠMike":4038,"ĠFam":4039,"ops":4040,"ump":4041,"ĠViet":4042,"obiles":4043,"echan":4044,"shore":4045,"airy":4046,"ĠColle":4047,"Ġintellig":4048,"ĠBrown":4049,"ĠBelgian":4050,"holm":4051,"Ġaerospace":4052,"related":4053,"IM":4054,"Ĥ¬":4055,"Ġtax":4056,"Ġseg":4057,"ĠToy":4058,"ute":4059,"âĢĶ":4060,"Ġcomputing":4061,"Ġtransl":4062,"Ġagre":4063,"ĠEnterprises":4064,"ĠCentre":4065,"Ġsimilar":4066,"Ġenvironmental":4067,"especially":4068,"Ġagricultural":4069,"Ġnumerous":4070,"iat":4071,"oes":4072,"Ġher":4073,"ĠDVD":4074,"iber":4075,"Ġentire":4076,"Ġserve":4077,"Ġperiod":4078,"Ġ1920":4079,"Ġpromote":4080,"Ġrevenues":4081,"Ġpolit":4082,"Ġreceived":4083,"Ġsemiconductor":4084,"ĠSlov":4085,"âĢİ)":4086,"och":4087,"ua":4088,"ints":4089,"Ġfriend":4090,"inger":4091,"Ġmail":4092,"ĠAÃ©":4093,"illage":4094,"Ġresources":4095,"eather":4096,"ĠWorldwide":4097,"Ġcharact":4098,"ĠOpen":4099,"MG":4100,"door":4101,"face":4102,"ani":4103,"Ġtheat":4104,"ĠSev":4105,"Ġdat":4106,"ĠBu":4107,"Ġ1000":4108,"iva":4109,"ĠNav":4110,"ĠJos":4111,"ĠStan":4112,"Ġenc":4113,"Ġofficially":4114,"Ġfounders":4115,"Ġmaker":4116,"Ġexperience":4117,"ĠNevada":4118,"SO":4119,"fect":4120,"ze":4121,"Ġdaily":4122,"ĠBre":4123,"ĠThese":4124,"ĠNiger":4125,"ube":4126,"ĠVideo":4127,"akh":4128,"arden":4129,"ounts":4130,"Ġunion":4131,"Ġmusicians":4132,"Ġperform":4133,"Ġrunning":4134,"amburg":4135,"Ġbroadcasting":4136,"Ġhelicop":4137,"ometimes":4138,"Ġclaims":4139,"Ġacademic":4140,"Sh":4141,"dam":4142,"Ã£":4143,"ination":4144,"heim":4145,"ander":4146,"ason":4147,"ading":4148,"ĠLab":4149,"ĠFact":4150,"ĠHal":4151,"ĠUr":4152,"Ġestabl":4153,"Ġtransfer":4154,"arms":4155,"Ġmodels":4156,"Ġgrowing":4157,"branded":4158,"Its":4159,"la":4160,"ves":4161,"Ġpark":4162,"Ġhip":4163,"ĠFred":4164,"ston":4165,"empor":4166,"Ġthose":4167,"ĠStand":4168,"Ġclos":4169,"ĠAsian":4170,"Ġunique":4171,"ĠColomb":4172,"mont":4173,"Ġmonitor":4174,"ĠMexican":4175,"Ġpromotion":4176,"cont":4177,"Ġtype":4178,"EM":4179,"US":4180,"ye":4181,"Ġsong":4182,"ĠCit":4183,"ĠSound":4184,"eco":4185,"ĠKar":4186,"Ġconcept":4187,"Ġ185":4188,"Ġjoined":4189,"Ġå":4190,"Ġtaken":4191,"onia":4192,"ĠMagaz":4193,"ĠPe":4194,"ĠGar":4195,"ĠDC":4196,"Ġpromin":4197,"mann":4198,"astic":4199,"Ġcomplex":4200,"uclear":4201,"Ġ400":4202,"Ġpurchase":4203,"Ġconsidered":4204,"core":4205,"iro":4206,"Ġespecially":4207,"ored":4208,"Ġcle":4209,"Ġlibr":4210,"ĠLee":4211,"ĠEduc":4212,"Ġgold":4213,"oto":4214,"ĠWork":4215,"Ġstat":4216,"ula":4217,"iant":4218,"range":4219,"place":4220,"%)":4221,"bon":4222,"ora":4223,"ĠMat":4224,"ĠFar":4225,"Ġgrad":4226,"owa":4227,"Ġplace":4228,"ĠProduction":4229,"Ġauthor":4230,"Ġacts":4231,"ĠResources":4232,"ĠWhite":4233,"Ġdiscount":4234,"Ġgrocery":4235,"Ã£o":4236,"uated":4237,"well":4238,"áĢ":4239,"ĠFord":4240,"uge":4241,"Ġsubscrib":4242,"ĠSchool":4243,"ĠHotels":4244,"AT":4245,"Ġfr":4246,"ĠSand":4247,"ĠBob":4248,"ably":4249,"otechnology":4250,"erve":4251,"istol":4252,"Ġshows":4253,"Ġuser":4254,"ruit":4255,"ĠAustria":4256,"Ġflight":4257,"Ġappliances":4258,"ĠGreater":4259,"Ġmiddle":4260,"ĠSea":4261,"Ġvalue":4262,"Ġtypes":4263,"ĠFinnish":4264,"à°":4265,"Ġtake":4266,"ĠHung":4267,"Ġgr":4268,"Ġchairman":4269,"overs":4270,"Ġstartup":4271,"Ġenterprises":4272,"Ġfields":4273,"Ġparticularly":4274,"ĠEmirates":4275,"lan":4276,"orp":4277,"Ġinsp":4278,"Ġpunk":4279,"ĠTru":4280,"ĠAven":4281,"irl":4282,"ĠGreek":4283,"Ġrequ":4284,"oted":4285,"otter":4286,"ĠStores":4287,"ĠOx":4288,"Ġarts":4289,"ĠAnn":4290,"ĠProper":4291,"ĠProject":4292,"Ġtrademark":4293,"Ġassemb":4294,"ĠCommercial":4295,"Ġgenres":4296,"Ġprogramming":4297,"Ġglass":4298,"ET":4299,"ID":4300,"Ã§":4301,"enh":4302,"arth":4303,"Ġbody":4304,"ĠMun":4305,"estyle":4306,"abad":4307,"eck":4308,"ĠUp":4309,"Ġconver":4310,"ishi":4311,"ĠShop":4312,"ĠClass":4313,"ĠStockholm":4314,"Ġfourth":4315,"Ġadvanced":4316,"ĠAgency":4317,"Ġlogo":4318,"Ġimportant":4319,"emporary":4320,"bit":4321,"get":4322,"lay":4323,"Ùħ":4324,"Ġsil":4325,"Ġprop":4326,"ĠLas":4327,"str":4328,"Ġrental":4329,"ĠOak":4330,"Ġtrust":4331,"Ġmanager":4332,"Ġcreative":4333,"ĠSpace":4334,"ĠPolish":4335,"ĠScottish":4336,"Ġtreatment":4337,"Ġapparel":4338,"Com":4339,"ER":4340,"Ġwind":4341,"Ġpo":4342,"ĠCamp":4343,"ĠSerb":4344,"ila":4345,"Ġonce":4346,"ĠChris":4347,"ensive":4348,"Ġ1962":4349,"Ġmaintains":4350,"PI":4351,"yan":4352,"heel":4353,"Ġpast":4354,"ĠSyn":4355,"ĠBan":4356,"ĠNet":4357,"Ġstake":4358,"ĠOm":4359,"aced":4360,"ãĤ¤":4361,"Ġchartered":4362,"Ġroute":4363,"Ġprinting":4364,"ĠQueens":4365,"ĠCambridge":4366,"Ġpurpose":4367,"AM":4368,"aS":4369,"ble":4370,"bul":4371,"las":4372,"ĠAk":4373,"ĠMost":4374,"ĠBul":4375,"lywood":4376,"aya":4377,"oke":4378,"Ġcompos":4379,"Ġusually":4380,"ortg":4381,"Ġmanage":4382,"ĠAnt":4383,"ĠOnline":4384,"Ġglobally":4385,"centr":4386,"Ġtesting":4387,"ymbol":4388,"PG":4389,"Ġferry":4390,"ĠSn":4391,"ĠBah":4392,"ĠPuer":4393,"Ġhop":4394,"ĠEle":4395,"Ġge":4396,"Ġchains":4397,"ĠExecutive":4398,"Ġ1946":4399,"Ġ90":4400,"ittle":4401,"Ġcontinued":4402,"Ġleft":4403,"ĠCharl":4404,"ĠSaudi":4405,"ĠDoug":4406,"Ġnewspapers":4407,"ĠCroat":4408,"ĠKentucky":4409,"Ġsafety":4410,"ĠPuerto":4411,"ED":4412,"Ġcateg":4413,"Ġsister":4414,"Ġsource":4415,"ĠSum":4416,"ĠSons":4417,"ĠAud":4418,"ĠMach":4419,"ĠBern":4420,"Ġhy":4421,"ĠHun":4422,"Ġrap":4423,"Ġrang":4424,"ava":4425,"Ġfunding":4426,"ĠAlliance":4427,"Ġinfl":4428,"Ġanalytics":4429,"ĠAtlantic":4430,"Ġtrucks":4431,"ĠHenry":4432,"ibbean":4433,"Un":4434,"Ġmusical":4435,"ĠBerg":4436,"ĠHa":4437,"Ġanother":4438,"Ġvess":4439,"Ġcomics":4440,"ĠAlab":4441,"Ġindependently":4442,"Ġmovie":4443,"ON":4444,"box":4445,"worth":4446,"Ġtick":4447,"Ġcru":4448,"itive":4449,"ĠCast":4450,"Ġmat":4451,"ĠAz":4452,"Ġnor":4453,"ĠDay":4454,"ĠKaz":4455,"ude":4456,"Ġalmost":4457,"ugar":4458,"Ġairlines":4459,"ĠYoung":4460,"ension":4461,"Ġdescrib":4462,"Ġdistributors":4463,"ĠCaribbean":4464,"Ġ1948":4465,"Ġtitle":4466,"Ġstrategy":4467,"Ġnewspaper":4468,"Ġmeans":4469,"ĠAvenue":4470,"13":4471,"NYSE":4472,"Ġwid":4473,"Ġwestern":4474,"stein":4475,"ĠDem":4476,"ĠDown":4477,"Ġgrew":4478,"ĠWood":4479,"ĠOver":4480,"Ġindie":4481,"avia":4482,"priet":4483,"Ġagain":4484,"ĠSpecial":4485,"Ġassist":4486,"Ġautomation":4487,"ĠDelhi":4488,"plement":4489,"Ġneigh":4490,"Ġmetropolitan":4491,"ĠAlabama":4492,"40":4493,"BA":4494,"nd":4495,"western":4496,"ÐĲ":4497,"Ġcame":4498,"ĠCurrently":4499,"ĠMiam":4500,"ĠMatt":4501,"ĠGal":4502,"Ġconcentr":4503,"munication":4504,"ĠAnim":4505,"Ã©t":4506,"etroit":4507,"Ġstruct":4508,"iamond":4509,"ĠMerc":4510,"Ġterms":4511,"ä¸Ń":4512,"ĠPortugal":4513,"Ġexclusively":4514,"ĠArgentina":4515,"Al":4516,"ause":4517,"lor":4518,"åĽ":4519,"ĠÎ":4520,"Ġtra":4521,"Ġadul":4522,"Ġware":4523,"Ġpetroleum":4524,"reas":4525,"Ġlabor":4526,"ĠMe":4527,"star":4528,"ĠJon":4529,"Ġoperational":4530,"ify":4531,"ĠYorkshire":4532,"Ġ1967":4533,"ãĤ¯":4534,"Ġlicense":4535,"ĠSecurity":4536,"Ġpackaging":4537,"Ġmotion":4538,"Ġrepair":4539,"Ġliquid":4540,"Ġdatab":4541,"CC":4542,"OR":4543,"bl":4544,"Ñĥ":4545,"Ġinception":4546,"Ġocc":4547,"Ġfeed":4548,"ĠSi":4549,"ĠMult":4550,"urs":4551,"Ġpropriet":4552,"Ġrev":4553,"ĠDetroit":4554,"iesel":4555,"ĠWi":4556,"Ġwhat":4557,"cluding":4558,"ustain":4559,"ancer":4560,"Ġphones":4561,"ĠConstruction":4562,"ĠPeru":4563,"25":4564,"cost":4565,"part":4566,"Éª":4567,"Ġæ":4568,"Ġfederal":4569,"room":4570,"ĠCru":4571,"ĠBook":4572,"Ġconduct":4573,"ublin":4574,"ĠCharter":4575,"Ġrecorded":4576,"ĠPhoen":4577,"SEHK":4578,"Ġcorporations":4579,"Ġdoes":4580,"Ġdevice":4581,"Arab":4582,"Ġcollaboration":4583,"ĠJeff":4584,"ĠBangladesh":4585,"ĠMiami":4586,"NASDAQ":4587,"ui":4588,"ÉĽ":4589,"Ġ×":4590,"Ġsymbol":4591,"ret":4592,"ĠTo":4593,"ĠMob":4594,"ĠPit":4595,"ĠPay":4596,"ĠRay":4597,"ĠEver":4598,"abric":4599,"ĠHospital":4600,"ellers":4601,"ĠChile":4602,"Ġprovince":4603,"ological":4604,"ĠArm":4605,"ĠCommission":4606,"ĠGreece":4607,"ĠJohnson":4608,"ĠPublications":4609,"Ġappear":4610,"ĠRomania":4611,"Ġaffiliated":4612,"aign":4613,"be":4614,"sen":4615,"zh":4616,"äº":4617,"ero":4618,"Ġcirc":4619,"Ġhalf":4620,"ĠUg":4621,"aches":4622,"Ġmultimedia":4623,"ĠSilver":4624,"Ġprotection":4625,"erries":4626,"ĠKenya":4627,"ĠRetail":4628,"ĠPrivate":4629,"ĠMagazine":4630,"ĠPhoenix":4631,"ha":4632,"ries":4633,"Ġculture":4634,"ĠCable":4635,"ĠSant":4636,"ention":4637,"Ġ150":4638,"ĠPop":4639,"ĠLight":4640,"ĠRest":4641,"ership":4642,"ĠNort":4643,"ĠHam":4644,"ĠHamp":4645,"ĠJord":4646,"ĠKal":4647,"ulf":4648,"apt":4649,"ebr":4650,"Ġships":4651,"peed":4652,"Ġcreation":4653,"ĠPublish":4654,"Ġmachinery":4655,"Ġbehalf":4656,"ĠOffice":4657,"ĠSteve":4658,"ded":4659,"ged":4660,"ko":4661,"uese":4662,"Ġurban":4663,"ĠCong":4664,"ĠSaint":4665,"enth":4666,"ĠMir":4667,"ĠLeg":4668,"ĠNash":4669,"ĠDa":4670,"ĠDivision":4671,"Ġthough":4672,"Ġconstruct":4673,"ifth":4674,"Ġheaded":4675,"Ġkit":4676,"Ġclin":4677,"Ġ1965":4678,"Ġpercent":4679,"Ġsmaller":4680,"Ġfunded":4681,"ĠFamily":4682,"Ġclean":4683,"back":4684,"war":4685,"Ġcrit":4686,"ĠSri":4687,"ĠMic":4688,"ĠBalt":4689,"stream":4690,"ĠDublin":4691,"ĠHard":4692,"ĠUl":4693,"Ġview":4694,"Ġpublications":4695,"ronym":4696,"Ġtransmission":4697,"icture":4698,"Ġ1964":4699,"ĠAppl":4700,"Ġdowntown":4701,"sourcing":4702,"ĠElectronic":4703,"Ġhouses":4704,"ocolate":4705,"ĠâĤ¬":4706,"Ġadvisory":4707,"ĠVietnam":4708,"ĠFactory":4709,"Ġestablish":4710,"Ġnorthern":4711,"put":4712,"uit":4713,"åľ":4714,"isure":4715,"ĠSout":4716,"lyn":4717,"ĠNot":4718,"Ġcontribut":4719,"ĠVan":4720,"elling":4721,"akers":4722,"orse":4723,"Ġsubsequ":4724,"ika":4725,"Ġcentre":4726,"ĠApple":4727,"ĠSecurities":4728,"mingham":4729,"ĠDirector":4730,"Ġfootwear":4731,"ĠAccording":4732,"ĠBirmingham":4733,"70":4734,"PA":4735,"rest":4736,"Ġse":4737,"Ġwood":4738,"ĠSem":4739,"ĠAC":4740,"unn":4741,"oles":4742,"ĠLux":4743,"ĠRoc":4744,"Ġreview":4745,"ĠHall":4746,"rance":4747,"Ġcharg":4748,"raw":4749,"ãĤ¢":4750,"Ġnonprofit":4751,"Ġintelligence":4752,"EL":4753,"can":4754,"writ":4755,"Ð¿":4756,"Ġiron":4757,"Ġcam":4758,"ĠTimes":4759,"ĠLank":4760,"ĠRand":4761,"ĠEss":4762,"ags":4763,"Ġstyle":4764,"ĠVentures":4765,"Ġindex":4766,"Ġbeers":4767,"Ġairports":4768,"egas":4769,"Ġcompil":4770,"Ġclient":4771,"Ġ1966":4772,"Ġprofit":4773,"Ġinstitutional":4774,"ĠConsult":4775,"Ġetc":4776,"Ġrecognized":4777,"ĠGhana":4778,"Ġsituated":4779,"Tr":4780,"aft":4781,"sy":4782,"anian":4783,"Ġdu":4784,"Ġhow":4785,"Ġread":4786,"Ġnine":4787,"ĠHamburg":4788,"ubishi":4789,"ocal":4790,"ĠOpt":4791,"ellow":4792,"bert":4793,"Ġadministration":4794,"Ġcreates":4795,"icken":4796,"iented":4797,"easing":4798,"Ġpassengers":4799,"Ġcontinu":4800,"Ġexperim":4801,"Ġschools":4802,"Ġeconomic":4803,"Ġimprov":4804,"Ġwholesale":4805,"Ġproprietary":4806,"cade":4807,"han":4808,"Ø©":4809,"Ġwatch":4810,"Ġmeet":4811,"ĠSaf":4812,"ĠTime":4813,"ĠFed":4814,"ĠJose":4815,"ĠChamp":4816,"Ġoffshore":4817,"Ġspecialist":4818,"ĠProf":4819,"Ġmovies":4820,"Ġbiotechnology":4821,"ĠTurkish":4822,"Ġpayment":4823,"Ġissues":4824,"Ġpractice":4825,"Arabic":4826,"IL":4827,"ba":4828,"born":4829,"tel":4830,"wich":4831,"Ð¹":4832,"Ñı":4833,"Ġte":4834,"Ġmo":4835,"ĠBros":4836,"ĠWall":4837,"Ġvoice":4838,"izz":4839,"Ġexecut":4840,"Ġcompr":4841,"enez":4842,"Ġstrong":4843,"ĠDisc":4844,"Ġrespect":4845,"ĠGrup":4846,"celand":4847,"Ġcombined":4848,"Ġsouthern":4849,"à¯į":4850,"Ġdistrict":4851,"cription":4852,"ĠStandard":4853,"dy":4854,"Ġcinema":4855,"Ġsize":4856,"iter":4857,"Ġway":4858,"ĠSo":4859,"ĠMas":4860,"ĠPizza":4861,"ĠDak":4862,"actions":4863,"Ġvend":4864,"Ġrecent":4865,"antasy":4866,"Ġshut":4867,"Ġunderg":4868,"Ġroster":4869,"Ġdirectly":4870,"attan":4871,"Ġparticip":4872,"Ġliterature":4873,"Ġsubscribers":4874,"SI":4875,"greg":4876,"vis":4877,"enz":4878,"Ġpip":4879,"ĠAward":4880,"stone":4881,"try":4882,"Ġvery":4883,"Ġspons":4884,"ortium":4885,"Ġsupports":4886,"Ġoutdoor":4887,"ĠPharmaceutical":4888,"Ġ75":4889,"Ġ1947":4890,"ĠMcC":4891,"ĠGolden":4892,"Ġloans":4893,"Ġversion":4894,"ĠAssociates":4895,"ĠQueensland":4896,"dale":4897,"hod":4898,"oom":4899,"rum":4900,"ali":4901,"iti":4902,"Ġbott":4903,"eld":4904,"ĠTamil":4905,"ĠPLC":4906,"chiev":4907,"ĠYou":4908,"ãĥĪ":4909,"ĠMarc":4910,"lobe":4911,"Ġ45":4912,"Ġstudent":4913,"Ġ1961":4914,"ĠAutomotive":4915,"Ġhousehold":4916,"Ġaffiliate":4917,"scale":4918,"ĠBanco":4919,"Ġbasis":4920,"ĠSpring":4921,"15":4922,"For":4923,"OC":4924,"ging":4925,"li":4926,"mes":4927,"win":4928,"ycl":4929,"Ã¦":4930,"Ġfind":4931,"Ġpoint":4932,"ĠSat":4933,"ĠMem":4934,"ĠBol":4935,"ĠRico":4936,"ĠFree":4937,"ĠEll":4938,"ĠDev":4939,"ĠDyn":4940,"abi":4941,"ĠHor":4942,"Ġther":4943,"eva":4944,"udget":4945,"ĠOrange":4946,"ista":4947,"ender":4948,"Ġ32":4949,"Ġjournal":4950,"Ġemployed":4951,"ried":4952,"Ġ600":4953,"Ġ1959":4954,"Ġscientific":4955,"Ġmoney":4956,"Ġhandling":4957,"Ġdefense":4958,"ĠMedical":4959,"nowled":4960,"Ġchemicals":4961,"Ġmerchand":4962,"Ġbeginning":4963,"ĠEducation":4964,"NS":4965,"go":4966,"Ġide":4967,"Ġmill":4968,"ential":4969,"ĠMur":4970,"Ġdairy":4971,"Ġgain":4972,"ĠKa":4973,"Ġprice":4974,"ĠVi":4975,"eys":4976,"Ġspecialised":4977,"Ġautomobiles":4978,"ĠÂ«":4979,"Ġstandard":4980,"Ġeventually":4981,"Ã©tÃ©":4982,"16":4983,"Americ":4984,"CD":4985,"uction":4986,"Ãº":4987,"Ġice":4988,"Ġshe":4989,"Ġmess":4990,"ĠIowa":4991,"iliz":4992,"Ġlevel":4993,"ĠLabor":4994,"ivity":4995,"ĠEMI":4996,"ĠDream":4997,"ĠHills":4998,"ĠUs":4999,"ĠWin":5000,"ĠChairman":5001,"Ġlarger":5002,"Ġ1957":5003,"Ġmarine":5004,"Ġpremium":5005,"bro":5006,"no":5007,"uce":5008,"yers":5009,"inental":5010,"Ġfunct":5011,"ĠSir":5012,"unction":5013,"ĠFarm":5014,"erst":5015,"ĠJoe":5016,"Ġmanga":5017,"osmet":5018,"raf":5019,"Ġnoted":5020,"Ġfeaturing":5021,"Ġdebut":5022,"Ġarchitecture":5023,"Ġbicycle":5024,"ĠØ§ÙĦØ":5025,"Ġvessels":5026,"ken":5027,"è¡":5028,"alore":5029,"Ġsavings":5030,"ĠSund":5031,"elebr":5032,"ĠTer":5033,"used":5034,"Ġdate":5035,"ĠRen":5036,"Ġnuclear":5037,"ĠStep":5038,"Ġcond":5039,"Ġearl":5040,"Ġalumin":5041,"Ġchief":5042,"Ġmarketplace":5043,"Ġclose":5044,"ikes":5045,"ĠAsh":5046,"ĠAnton":5047,"Ġ1956":5048,"Ġbrewing":5049,"Ġiniti":5050,"Ġshops":5051,"Ġclassical":5052,"Ġsupermarkets":5053,"Ġbehind":5054,"Ġcompleted":5055,"Ġnovel":5056,"Ġprominent":5057,"BI":5058,"RI":5059,"iot":5060,"uation":5061,"winning":5062,"ãģ":5063,"æĹ":5064,"Ġfly":5065,"ĠCross":5066,"ĠTri":5067,"ĠMov":5068,"Ġdance":5069,"Ġnext":5070,"Ġrural":5071,"ĠVenez":5072,"Ġroots":5073,"cohol":5074,"Ġcentres":5075,"ĠHarris":5076,"ĠAcadem":5077,"ĠAndrew":5078,"ĠArabia":5079,"Ġissued":5080,"ĠCollege":5081,"Ġmonitoring":5082,"ĠPitts":5083,"37":5084,"OL":5085,"YO":5086,"Ġachiev":5087,"edy":5088,"Ġsoft":5089,"ĠRoll":5090,"ĠFer":5091,"ĠFront":5092,"store":5093,"iga":5094,"ĠHyd":5095,"cean":5096,"aco":5097,"ends":5098,"ĠBristol":5099,"ĠAlas":5100,"ĠTrade":5101,"Ġupon":5102,"Ġneeds":5103,"Station":5104,"Ġturnover":5105,"Ġuniversity":5106,"Ġbrokerage":5107,"echanical":5108,"fecture":5109,"ĠMunich":5110,"ĠUganda":5111,"AL":5112,"aware":5113,"ja":5114,"including":5115,"Ġtal":5116,"ared":5117,"Ġsquare":5118,"omo":5119,"Ġput":5120,"ĠCape":5121,"ĠIC":5122,"enty":5123,"urther":5124,"ĠPetroleum":5125,"uture":5126,"ĠLes":5127,"estival":5128,"lym":5129,"ĠEcon":5130,"ĠWat":5131,"ĠWalt":5132,"ains":5133,"oster":5134,"ĠVis":5135,"ĠIndependent":5136,"Ġpublication":5137,"Ġ1958":5138,"ĠAero":5139,"Ġrenew":5140,"ĠBerk":5141,"Ġstrategic":5142,"Ġderived":5143,"Ġlifestyle":5144,"ĠJoseph":5145,"ĠNigeria":5146,"ĠJordan":5147,"14":5148,"pect":5149,"Ġpan":5150,"ĠAst":5151,"ĠIceland":5152,"ĠLev":5153,"ĠLittle":5154,"ĠNASDAQ":5155,"ĠKeral":5156,"Ġspun":5157,"ureau":5158,"ĠBrand":5159,"ĠBrad":5160,"ourt":5161,"ĠManh":5162,"Ġblues":5163,"sterdam":5164,"Ġexisted":5165,"Ġinstrument":5166,"Ġhomes":5167,"ĠBulg":5168,"ĠKerala":5169,"100":5170,"fiction":5171,"ji":5172,"ws":5173,"year":5174,"èĪ":5175,"anes":5176,"Ġsal":5177,"Ġsolution":5178,"Ġbring":5179,"ĠCorn":5180,"ĠChemical":5181,"ĠSar":5182,"ĠSome":5183,"Ġla":5184,"ĠBBC":5185,"ĠRap":5186,"ĠEp":5187,"ĠHon":5188,"essor":5189,"ĠOld":5190,"Ġveter":5191,"ĠChurch":5192,"Ġacronym":5193,"Ġregular":5194,"Ġentity":5195,"Ġ184":5196,"commerce":5197,"Ġsmart":5198,"ĠTelephone":5199,"Ġadded":5200,"glish":5201,"ĠIrv":5202,"Ġbuyout":5203,"Ġmotorcycles":5204,"Ġraised":5205,"ĠMitsubishi":5206,"ortgage":5207,"ĠPublishers":5208,"Air":5209,"ien":5210,"run":5211,"Ġ#":5212,"atar":5213,"Ġwest":5214,"illy":5215,"ĠInn":5216,"tron":5217,"ocr":5218,"Ġwithout":5219,"Ġran":5220,"Ġrisk":5221,"iang":5222,"urement":5223,"Ġdise":5224,"Ġjob":5225,"Ġcooper":5226,"eeds":5227,"ĠAmsterdam":5228,"Ġ1940":5229,"Ġbroadc":5230,"Ġmembership":5231,"eason":5232,"Ġaccording":5233,"Ð½Ð¸":5234,"ĠMorgan":5235,"Ġrepresents":5236,"Ġhospitals":5237,"ĠCommunity":5238,"English":5239,"ĠNashville":5240,"è¡Į":5241,"ĠPittsburgh":5242,"ĠManhattan":5243,"].":5244,"hood":5245,"lah":5246,"Ġà¤":5247,"orf":5248,"Ġawards":5249,"Ġpot":5250,"Ġmem":5251,"ĠSquare":5252,"ĠTob":5253,"Ġdeath":5254,"ĠBut":5255,"ĠBoe":5256,"ĠFr":5257,"ĠFace":5258,"Ġreported":5259,"Ġsteam":5260,"ĠJet":5261,"ĠKy":5262,"thlet":5263,"portun":5264,"ĠBrands":5265,"ruct":5266,"airo":5267,"Ġaggreg":5268,"ĠAuto":5269,"ĠNova":5270,"Ġtelecommunication":5271,"Ġportal":5272,"ĠFinance":5273,"Ġshareholders":5274,"Ġnationwide":5275,"Ġeffects":5276,"ĠHawai":5277,"Ġwidely":5278,"ĠVenezuel":5279,"AP":5280,"hors":5281,"kins":5282,"vt":5283,"Ñĸ":5284,"Ġtimes":5285,"Ġterrit":5286,"ened":5287,"Ġsustain":5288,"Ġbox":5289,"roid":5290,"ĠCO":5291,"Ġmean":5292,"ĠSr":5293,"ĠBad":5294,"cher":5295,"Ġgear":5296,"Ġconfer":5297,"ĠOther":5298,"ĠOffic":5299,"Ġcompl":5300,"ĠBritain":5301,"ength":5302,"ĠIsl":5303,"Ġbuildings":5304,"ĠDelaware":5305,"ĠSeoul":5306,"ĠMorris":5307,"ĠMinneap":5308,"ĠHotel":5309,"Ġdepos":5310,"Ġbeverage":5311,"Ġranging":5312,"ĠLanka":5313,"ĠMinneapolis":5314,"17":5315,"Bank":5316,"EX":5317,"MW":5318,"gu":5319,"gary":5320,"hib":5321,"ror":5322,"Ðŀ":5323,"Ġul":5324,"Ġcovers":5325,"Ġpeak":5326,"ĠTem":5327,"Ġlever":5328,"ĠBand":5329,"eta":5330,"oly":5331,"Ġhydro":5332,"ĠFire":5333,"styl":5334,"style":5335,"ĠHans":5336,"Ġstream":5337,"Ġchannel":5338,"Ġspin":5339,"Ġresource":5340,"Ġinvolv":5341,"Ġentered":5342,"ippon":5343,"Ġ1949":5344,"Ġaccounts":5345,"Ġcontracts":5346,"Ġdownload":5347,"Ġsharing":5348,"Ġmachine":5349,"Ġprotect":5350,"ĠAutomobile":5351,"nowledge":5352,"ĠAlaska":5353,"ĠBoeing":5354,"24":5355,"At":5356,"Tel":5357,"hone":5358,"kin":5359,"ÑĮ":5360,"çĶ":5361,"ĬĢ":5362,"Ġaction":5363,"Ġcor":5364,"alo":5365,"Ġsn":5366,"Ġbases":5367,"ĠIBM":5368,"usp":5369,"adu":5370,"ĠPty":5371,"ĠFuj":5372,"undred":5373,"Ġgar":5374,"uble":5375,"ĠWireless":5376,"ĠJac":5377,"Ġspread":5378,"Ġcommon":5379,"pron":5380,"ĠBridge":5381,"Ġdistribute":5382,"ĠCalgary":5383,"Ġemail":5384,"ĠShar":5385,"Ġfoods":5386,"Ġprocesses":5387,"Ġsinger":5388,"Ġcarriers":5389,"useum":5390,"veland":5391,"Ġdemand":5392,"Ġremains":5393,"Ġobject":5394,"Ġspecif":5395,"ĠMississ":5396,"Ġsubsequently":5397,"Link":5398,"bu":5399,"bane":5400,"nai":5401,"work":5402,"yth":5403,"Ð¼":5404,"à¹":5405,"Ġins":5406,"Ġwife":5407,"ĠTanz":5408,"Ġless":5409,"ĠLi":5410,"ĠRad":5411,"acle":5412,"aki":5413,"ourg":5414,"ãĥ«":5415,"ĠShip":5416,"Ġtransactions":5417,"phones":5418,"Ġannually":5419,"Ġ900":5420,"Ġlicenses":5421,"Ġactivity":5422,"ĠMilan":5423,"ĠLouisiana":5424,"Ġweekly":5425,"Ġguitar":5426,"Ġposition":5427,"ĠOklah":5428,"ĠAudio":5429,"ĠDakota":5430,"PL":5431,"right":5432,"ĠÅ":5433,"Ġtea":5434,"orough":5435,"Ġcelebr":5436,"omic":5437,"Ġbene":5438,"ĠCall":5439,"ĠCargo":5440,"Ġmuch":5441,"eland":5442,"ĠTechn":5443,"ĠAff":5444,"Ġlearning":5445,"ĠLuc":5446,"plified":5447,"aven":5448,"anger":5449,"airs":5450,"ĠPlan":5451,"etting":5452,"ĠAerospace":5453,"ĠBangalore":5454,"Ġterminal":5455,"ĠRailways":5456,"ĠMadrid":5457,"Ġdiverse":5458,"Ġstandards":5459,"ĠPlayStation":5460,"Ġexclusive":5461,"ĠCleveland":5462,"Ġoverseas":5463,"ĠOklahoma":5464,"West":5465,"brew":5466,"dr":5467,"su":5468,"sel":5469,"à¥":5470,"Ġtabl":5471,"Ġbetter":5472,"Ġfinal":5473,"Ġwar":5474,"usion":5475,"iring":5476,"eton":5477,"uth":5478,"ĠRam":5479,"ĠDun":5480,"owers":5481,"Ġvine":5482,"izon":5483,"Ġacres":5484,"Ġcounty":5485,"ĠBanking":5486,"Ġprec":5487,"ĠJohann":5488,"Ġeditor":5489,"Ġsuccessor":5490,"ĠRegion":5491,"Ġexpert":5492,"Ġfranchises":5493,"ĠPrem":5494,"ĠTelecommunications":5495,"Ġcovering":5496,"Ð¾Ð¼":5497,"ĠJackson":5498,"Ġcampaign":5499,"Ġbelong":5500,"iagn":5501,"ĠBrooklyn":5502,"pronounced":5503,"GM":5504,"cop":5505,"nes":5506,"yards":5507,"Â»":5508,"ç©":5509,"itter":5510,"ĠCost":5511,"ĠCook":5512,"ĠShen":5513,"ĠMen":5514,"ĠMond":5515,"chang":5516,"ĠRey":5517,"ĠFour":5518,"Ġnet":5519,"Ġnav":5520,"Ġanime":5521,"ĠStore":5522,"ĠOS":5523,"ĠOwn":5524,"ector":5525,"oba":5526,"Ġdiss":5527,"ĠArk":5528,"Ġ36":5529,"ĠShin":5530,"Ġcontemporary":5531,"redited":5532,"Ġemployee":5533,"commonly":5534,"ĠPlant":5535,"Ġexisting":5536,"ĠOxford":5537,"ĠHampshire":5538,"books":5539,"sor":5540,"Ñĭ":5541,"inet":5542,"inyl":5543,"Ġbout":5544,"Ġwat":5545,"ĠTe":5546,"ĠBa":5547,"ira":5548,"Ġtoys":5549,"ĠLow":5550,"ĠHom":5551,"ĠJew":5552,"ĠJones":5553,"ĠVision":5554,"ĠVegas":5555,"ogan":5556,"ĠUnder":5557,"ĠChief":5558,"Ġkind":5559,"Ġattract":5560,"ovo":5561,"Ġadop":5562,"ĠSociÃ©tÃ©":5563,"Ġclassic":5564,"Ġteams":5565,"ĠHollywood":5566,"éĽ»":5567,"utsche":5568,"Ġneighbor":5569,"Ġcomprises":5570,"pool":5571,"organ":5572,"Ġfifth":5573,"Ġfurther":5574,"rozen":5575,"ĠColl":5576,"ĠTata":5577,"Ġdi":5578,"oln":5579,"amics":5580,"Ġhit":5581,"ĠLu":5582,"ĠLinc":5583,"ĠHan":5584,"Ġstyl":5585,"Ġprior":5586,"ĠVod":5587,"ogle":5588,"plit":5589,"Ġairport":5590,"Ġplastic":5591,"achi":5592,"ĠDelta":5593,"ĠAbu":5594,"Ġplayers":5595,"ĠMarketing":5596,"Ġcomplete":5597,"Ġhousing":5598,"ĠPortuguese":5599,"ĠChennai":5600,"ĠDouglas":5601,"Ġadult":5602,"Ġexperimental":5603,"EN":5604,"sim":5605,"Ã¢":5606,"Ġä¸Ń":5607,"Ġside":5608,"asters":5609,"iche":5610,"Ġpicture":5611,"rell":5612,"ĠSÃ£o":5613,"ellect":5614,"ĠMaster":5615,"ires":5616,"irts":5617,"ĠPas":5618,"Ġhundred":5619,"ĠNep":5620,"ĠNeb":5621,"ĠNippon":5622,"ĠDave":5623,"ĠJo":5624,"ĠJr":5625,"ternal":5626,"Ġdisp":5627,"Ġsubject":5628,"ĠBrian":5629,"Ġresid":5630,"Ġconsortium":5631,"ãĥĥ":5632,"ĠShow":5633,"Ġregions":5634,"chem":5635,"atories":5636,"Ġimplement":5637,"Ġopportun":5638,"ĠConc":5639,"ĠGreg":5640,"Ġfoundation":5641,"Ġbuilds":5642,"ĠMining":5643,"Ġregulator":5644,"ĠIsraeli":5645,"ĠLiber":5646,"uzz":5647,"playing":5648,"Ġcertified":5649,"Ġarticle":5650,"Ġfinancing":5651,"ĠTanzania":5652,"An":5653,"DC":5654,"cell":5655,"oz":5656,"rich":5657,"va":5658,"andy":5659,"Ġcash":5660,"Ġfar":5661,"Ġfabric":5662,"ĠCare":5663,"Ġmix":5664,"Ġmixed":5665,"ĠTay":5666,"ĠIN":5667,"amount":5668,"ĠNik":5669,"ĠDomin":5670,"aby":5671,"ĠHis":5672,"Ġgreat":5673,"porter":5674,"ĠOd":5675,"ĠChap":5676,"isted":5677,"Ġchange":5678,"Ġexpress":5679,"ĠBris":5680,"Ġenables":5681,"Ġ33":5682,"Ġforms":5683,"Ġformat":5684,"Ġbecause":5685,"ĠScand":5686,"Ġrestruct":5687,"afone":5688,"auk":5689,"Ġ1929":5690,"Ġmethod":5691,"ĠGlas":5692,"ĠPrefecture":5693,"ÑģÐº":5694,"ĠSolar":5695,"Ġpioneer":5696,"Ġgraphic":5697,"Ġfiled":5698,"Ġrelationship":5699,"Ġbreak":5700,"IG":5701,"One":5702,"RM":5703,"power":5704,"rik":5705,"works":5706,"ÛĮ":5707,"inburgh":5708,"iser":5709,"Ġcer":5710,"Ġsources":5711,"Ġsometimes":5712,"ĠSask":5713,"ilit":5714,"Ġlink":5715,"Ġwaste":5716,"ĠPen":5717,"Ġholid":5718,"ĠGulf":5719,"ĠEric":5720,"Ġthous":5721,"ĠWay":5722,"uld":5723,"Ġoutsourcing":5724,"Ġstudies":5725,"Ind":5726,"Ġ1955":5727,"Ġopening":5728,"Ġ1945":5729,"Ġmedic":5730,"Ġanimated":5731,"Ġcollege":5732,"Ġshipbuilding":5733,"Ġremaining":5734,"Ġawarded":5735,"Ġinnovative":5736,"Ġbeverages":5737,"Ġjewel":5738,"Ġhelicopter":5739,"ĠSerbia":5740,"Ġdatabase":5741,"ellectual":5742,"Ex":5743,"RS":5744,"SL":5745,"Soft":5746,"sized":5747,"val":5748,"via":5749,"ĠÄ":5750,"ĠCorpor":5751,"ĠAwards":5752,"ĠMind":5753,"ĠMoon":5754,"Ġdid":5755,"ĠLew":5756,"leg":5757,"ĠNick":5758,"Ġ1919":5759,"ĠDer":5760,"ceed":5761,"Ġstreet":5762,"ĠKir":5763,"ached":5764,"acco":5765,"Ġchocolate":5766,"antly":5767,"Ġinvests":5768,"ãĤ¸":5769,"ĠEdinburgh":5770,"Ġblog":5771,"Ġblack":5772,"Ø§Ø":5773,"Ġsurround":5774,"Ġfrequ":5775,"ĠWilliams":5776,"Ġoptical":5777,"ĠGoogle":5778,"Ġfirearms":5779,"which":5780,"Ġnovels":5781,"ĠRestaur":5782,"ĠSoutheast":5783,"ĠLincoln":5784,"ĠSaskat":5785,"AD":5786,"RT":5787,"pa":5788,"po":5789,"å·":5790,"Ġcross":5791,"Ġsens":5792,"Ġbak":5793,"Ġbass":5794,"Ġisland":5795,"ĠCustom":5796,"Ġmutual":5797,"ĠBat":5798,"ĠGSM":5799,"ĠDor":5800,"ĠEnd":5801,"force":5802,"ova":5803,"Ġenable":5804,"ansion":5805,"Ġpharm":5806,"Ġ1954":5807,"ĠAdministration":5808,"ĠWars":5809,"athan":5810,"ĠApp":5811,"ĠInvestments":5812,"Ġregulated":5813,"Ġattorn":5814,"ĠCypr":5815,"ĠDhabi":5816,"Ġpolitical":5817,"Ġtraffic":5818,"American":5819,"osmetics":5820,"furt":5821,"maker":5822,"sa":5823,"Ã¬":5824,"Ġ0":5825,"Ġcases":5826,"Ġsporting":5827,"iting":5828,"Ġbig":5829,"Ġwe":5830,"Ġwealth":5831,"ingham":5832,"ĠSport":5833,"ador":5834,"ĠLP":5835,"ĠLind":5836,"ĠGra":5837,"ĠNY":5838,"ĠKr":5839,"ĠVo":5840,"anton":5841,"ĠAlthough":5842,"shop":5843,"ĠMarine":5844,"Ġbecoming":5845,"Ġintended":5846,"Ġ1925":5847,"ĠâĢĶ":5848,"Ġmetals":5849,"Ġcommuter":5850,"ĠPaulo":5851,"ÑģÑĤ":5852,"Ġpredomin":5853,"Ġgrounds":5854,"Ġaccounting":5855,"Ġcharacter":5856,"æĹ¥":5857,"Ġspecifically":5858,"ĠBrisbane":5859,"EA":5860,"German":5861,"Or":5862,"augh":5863,"gow":5864,"hus":5865,"ni":5866,"rade":5867,"isl":5868,"Ġcult":5869,"Ġcater":5870,"enior":5871,"Ġsoon":5872,"icians":5873,"ĠCard":5874,"ĠSy":5875,"ĠSom":5876,"ĠBra":5877,"Ġhor":5878,"ĠLanc":5879,"ĠFresh":5880,"state":5881,"ĠHart":5882,"oca":5883,"otte":5884,"agle":5885,"ĠKu":5886,"ichi":5887,"ĠEnerg":5888,"ebrew":5889,"Ġroom":5890,"Ġreturn":5891,"ĠManit":5892,"Ġ1953":5893,"Ġ1928":5894,"Ġaddress":5895,"Ġlawyers":5896,"ĠAndroid":5897,"Ġdecided":5898,"Ġsole":5899,"ĠHealthcare":5900,"Ġgoal":5901,"Ġshareholder":5902,"Ġimprove":5903,"Ġrenewable":5904,"ĠFacebook":5905,"Ġmeaning":5906,"AA":5907,"TI":5908,"tech":5909,"Ä±":5910,"iner":5911,"Ġporn":5912,"ĠCivil":5913,"Ġmay":5914,"Ġmark":5915,"ĠAM":5916,"ĠPil":5917,"ĠPear":5918,"ĠTheat":5919,"ĠNC":5920,"imate":5921,"Ġrad":5922,"thur":5923,"ĠStag":5924,"ĠStart":5925,"iano":5926,"Ġproductions":5927,"ugg":5928,"Ġinvent":5929,"Ġbrother":5930,"Ġgenre":5931,"iques":5932,"ĠGuang":5933,"Ġapps":5934,"ĠElectricity":5935,"Ġaimed":5936,"Ġtowns":5937,"Ġoriginated":5938,"previously":5939,"gressive":5940,"Ġcruise":5941,"French":5942,"NO":5943,"VA":5944,"lington":5945,"Ġé":5946,"Ġturb":5947,"ester":5948,"oring":5949,"itime":5950,"ĠSoft":5951,"ĠTech":5952,"Ġdoll":5953,"stock":5954,"ĠHist":5955,"Ġvac":5956,"Ġalcohol":5957,"Ġadministr":5958,"ãĥ»":5959,"Ġcream":5960,"ĠProcess":5961,"ĠNorthwest":5962,"enna":5963,"Ġ65":5964,"Ġ1951":5965,"Ġ1952":5966,"Ġcontractor":5967,"ĠEstate":5968,"itted":5969,"ĠSmart":5970,"medi":5971,"Ġoptim":5972,"Ġaims":5973,"ĠMiller":5974,"imbab":5975,"Ġagreement":5976,"Ġlibrary":5977,"Ġvendor":5978,"ĠNepal":5979,"ĠGlasgow":5980,"Co":5981,"Pro":5982,"bi":5983,"ffor":5984,"label":5985,"heastern":5986,"Ġseason":5987,"itness":5988,"Ġfiber":5989,"Ġwear":5990,"roy":5991,"ĠSyr":5992,"ĠBi":5993,"ĠPetro":5994,"ĠLabel":5995,"ĠFish":5996,"Ġrebranded":5997,"ĠNam":5998,"Ġgreen":5999,"ĠJam":6000,"Ġeastern":6001,"obby":6002,"Ġembed":6003,"ĠCoffee":6004,"aha":6005,"Ġstudy":6006,"Ġauthors":6007,"ĠQual":6008,"Ġprevious":6009,"embourg":6010,"Ġhighly":6011,"aunched":6012,"Ġ800":6013,"ĠVirt":6014,"Ġlicensing":6015,"ĠDeutsche":6016,"ĠEmp":6017,"Ġpolicy":6018,"Ġplayer":6019,"ĠSilicon":6020,"ĠAdvanced":6021,"Ġmicrobrew":6022,"ĠTwo":6023,"Ġfootball":6024,"ĠHowever":6025,"ĠCopenh":6026,"founder":6027,"ĠSlovak":6028,"Qu":6029,"rd":6030,"Ð´":6031,"èĤ":6032,"oriented":6033,"Ġcancer":6034,"arash":6035,"Ġsum":6036,"asts":6037,"Ġfail":6038,"Ġpul":6039,"ĠCub":6040,"uty":6041,"ĠLyn":6042,"ĠGall":6043,"ĠDuring":6044,"agn":6045,"Ġconven":6046,"ĠOf":6047,"ibility":6048,"tained":6049,"Ġ38":6050,"ĠZh":6051,"ĠZimbab":6052,"ĠProt":6053,"ĠPrince":6054,"Ġinvestor":6055,"Ġorganized":6056,"Ġ1963":6057,"Ġsecurities":6058,"ĠBloom":6059,"Ġfamil":6060,"Ġengineers":6061,"Ġscene":6062,"Ġmineral":6063,"Ġpromoting":6064,"uke":6065,"Ġcompetition":6066,"Ġexistence":6067,"Ġcoverage":6068,"ĠFrankfurt":6069,"Ġtextile":6070,"Ġteach":6071,"ĠGrupo":6072,"ĠManitoba":6073,"ĠCopenhagen":6074,"TT":6075,"lived":6076,"offic":6077,"org":6078,"atin":6079,"Ġsand":6080,"Ġsusp":6081,"Ġbul":6082,"ĠSalt":6083,"ela":6084,"eline":6085,"ĠTurn":6086,"ĠBow":6087,"ĠDom":6088,"ĠWinery":6089,"ĠKl":6090,"ĠKit":6091,"oda":6092,"ella":6093,"Ġregard":6094,"Ġcoast":6095,"Ġcould":6096,"Ġengineer":6097,"ouch":6098,"phas":6099,"Ġdomain":6100,"Ġintegration":6101,"Ġleisure":6102,"Ã¡n":6103,"Ġuniversities":6104,"éĽĨ":6105,"Ġemerging":6106,"ĠKazakh":6107,"ĠScandin":6108,"Ġjewelry":6109,"22":6110,"DI":6111,"PM":6112,"SS":6113,"ao":6114,"iest":6115,"light":6116,"ved":6117,"Î¹":6118,"inson":6119,"Ġcement":6120,"itially":6121,"ĠABC":6122,"Ġdiagn":6123,"irit":6124,"ĠPoint":6125,"Ġtowards":6126,"ĠLion":6127,"ĠFil":6128,"ĠNadu":6129,"igo":6130,"ĠJean":6131,"ĠOtt":6132,"ĠVine":6133,"ellery":6134,"Ġcomes":6135,"Ġcomposed":6136,"Ġconsolid":6137,"Ġorganis":6138,"Ġstarting":6139,"Ġauthority":6140,"ĠClark":6141,"Ġdrinks":6142,"ĠWhile":6143,"Ġwritten":6144,"ĠWilson":6145,"Ġphysical":6146,"Ġtargeted":6147,"ĠiPhone":6148,"ottery":6149,"Ġgained":6150,"ĠAcademy":6151,"èĪª":6152,"Ġboutique":6153,"ĠVodafone":6154,"ĠTaylor":6155,"Ġfamilies":6156,"CB":6157,"Net":6158,"mod":6159,"Ġcook":6160,"Ġcraft":6161,"Ġfrozen":6162,"ĠBurn":6163,"ĠPvt":6164,"iders":6165,"ĠRio":6166,"ĠFiat":6167,"oty":6168,"ĠWy":6169,"ĠWinn":6170,"Ġstands":6171,"ĠKarl":6172,"Ġeffor":6173,"ugu":6174,"ears":6175,"ĠAlf":6176,"Ġprivat":6177,"electric":6178,"Ġorganic":6179,"ĠSpect":6180,"ĠMarvel":6181,"Ġcarry":6182,"ĠAdd":6183,"Ġfoundry":6184,"Ġfactories":6185,"Ġdeals":6186,"ĠDenver":6187,"ĠContinental":6188,"ãĥ³ãĤ":6189,"vention":6190,"ĠVolks":6191,"Ġrapid":6192,"Ġmodu":6193,"Ġmerchandise":6194,"ç©º":6195,"ĠZimbabwe":6196,"FA":6197,"Since":6198,"build":6199,"fast":6200,"iability":6201,"oa":6202,"ped":6203,"Ã´":6204,"Î±":6205,"inct":6206,"Ġathlet":6207,"edd":6208,"Ġcour":6209,"itable":6210,"Ġfolk":6211,"Ġpain":6212,"ĠHD":6213,"ims":6214,"ither":6215,"Ġstar":6216,"Ġvan":6217,"abled":6218,"ously":6219,"Ġ183":6220,"rix":6221,"anner":6222,"Ã©n":6223,"ĠPharm":6224,"Ġ700":6225,"ĠAthens":6226,"aux":6227,"ermal":6228,"Ġmiles":6229,"Ġcommod":6230,"Ġcollective":6231,"ĠControl":6232,"Ġreput":6233,"Ġdeploy":6234,"Ġconfused":6235,"Ġspecific":6236,"Ġslogan":6237,"ktop":6238,"Ġconcern":6239,"Ġrolling":6240,"ĠColombia":6241,"ĠTruck":6242,"Ġclinical":6243,"ĠLuxembourg":6244,"ĠStephen":6245,"ĠLewis":6246,"2000":6247,"Bl":6248,"uh":6249,"arat":6250,"Ġsplit":6251,"itage":6252,"asa":6253,"Ġfig":6254,"Ġfantasy":6255,"ĠTony":6256,"ĠAD":6257,"ilomet":6258,"ĠBon":6259,"ĠBeng":6260,"ĠBever":6261,"ĠGod":6262,"ĠRaj":6263,"ĠDep":6264,"igious":6265,"ĠHels":6266,"ĠStation":6267,"arta":6268,"ĠVenture":6269,"izes":6270,"ĠChang":6271,"ĠAmericas":6272,"Ġarcade":6273,"Ġemphas":6274,"Ġprepar":6275,"omotives":6276,"Ġscale":6277,"ippi":6278,"Ġcharters":6279,"198":6280,"Ġdomin":6281,"Ð¾ÑĢ":6282,"Ġsingles":6283,"Ġreference":6284,"ĠMetropolitan":6285,"Ġpostal":6286,"Ġrailroad":6287,"ournals":6288,"Ġcopper":6289,"arashtra":6290,".-":6291,"like":6292,"uits":6293,"Ïģ":6294,"Ĩĳ":6295,"alia":6296,"ĠClear":6297,"ĠCBS":6298,"ĠSav":6299,"ĠAh":6300,"Ġleasing":6301,"ĠLam":6302,"ĠLiver":6303,"ĠRena":6304,"stant":6305,"ĠNext":6306,"ĠKon":6307,"ules":6308,"ĠVehic":6309,"Ġplanned":6310,"Ġparty":6311,"Ġsubscription":6312,"ãĤ£":6313,"ãĤ¨":6314,"ĠMany":6315,"Ġbrows":6316,"Ġsuppliers":6317,"Ġadvice":6318,"Ġdoing":6319,"Ġquick":6320,"ĠMetal":6321,"ĠPalm":6322,"ĠDaniel":6323,"ourses":6324,"ĠOperations":6325,"Ġsegments":6326,"ecoach":6327,"ĠHungary":6328,"Ġleveraged":6329,"èĤ¡":6330,"FL":6331,"TM":6332,"USA":6333,"hous":6334,"iya":6335,"making":6336,"Äĵ":6337,"atics":6338,"Ġcut":6339,"Ġpizza":6340,"ĠSocial":6341,"ĠTour":6342,"ĠMus":6343,"ĠMunicipal":6344,"ĠBal":6345,"ĠBak":6346,"utt":6347,"utics":6348,"ĠRome":6349,"stad":6350,"ĠNag":6351,"ĠDu":6352,"ĠDat":6353,"ĠDiamond":6354,"ĠHud":6355,"Ġgolf":6356,"ĠWild":6357,"ĠJak":6358,"ĠEnt":6359,"ĠThrough":6360,"Ġteleph":6361,"aho":6362,"Ġscreen":6363,"ĠAdam":6364,"ĠAmong":6365,"ĠÐĲ":6366,"Ġ1932":6367,"Ġexpansion":6368,"Ġcontinents":6369,"Ġcontinues":6370,"Ġ1906":6371,"ĠRef":6372,"Ġlighting":6373,"Ġextensive":6374,"Ġhospitality":6375,"ĠLawr":6376,"Ġguitars":6377,"ĠArchitect":6378,"Ġunderground":6379,"ĠPharmaceuticals":6380,"Ġtalent":6381,"changes":6382,"Ġwatches":6383,"ĠNebras":6384,"chemical":6385,"ĠCyprus":6386,"Ġpredominantly":6387,"BO":6388,"ds":6389,"eo":6390,"eer":6391,"uate":6392,"with":6393,"ycle":6394,"à²":6395,"arry":6396,"Ġsport":6397,"eley":6398,"ĠTower":6399,"ĠIv":6400,"ĠMaur":6401,"ĠBos":6402,"ĠBuck":6403,"etry":6404,"ĠLuf":6405,"ĠGE":6406,"ĠRem":6407,"ĠRub":6408,"Ġforum":6409,"ĠEP":6410,"ĠEc":6411,"ĠEagle":6412,"ĠHay":6413,"ĠKey":6414,"Ġven":6415,"ĠView":6416,"Ġplus":6417,"Ġdesigners":6418,"Ġworkers":6419,"Ġnotably":6420,"ĠForce":6421,"Ġincome":6422,"ĠParamount":6423,"Ġmoving":6424,"ĠHarry":6425,"oots":6426,"Ġacquisitions":6427,"inemas":6428,"ĠSimon":6429,"Ġtourism":6430,"Ġcampus":6431,"schaft":6432,"ĠRogers":6433,"Ġdescribed":6434,"Ġlaboratory":6435,"ĠSiem":6436,"ĠVenezuela":6437,"Ġattorneys":6438,"Ġmicrobrewery":6439,"èĪªç©º":6440,"ĠNebraska":6441,"CI":6442,"GA":6443,"HL":6444,"do":6445,"je":6446,"ku":6447,"mart":6448,"Ã±":6449,"Å¡":6450,"ÉĶ":6451,"æĿ":6452,"Ġtank":6453,"Ġcal":6454,"Ġcode":6455,"ĠCat":6456,"ĠCad":6457,"Ġmortgage":6458,"ĠServ":6459,"ento":6460,"Ġdon":6461,"ĠBall":6462,"olo":6463,"olia":6464,"ads":6465,"ĠLeb":6466,"ĠFle":6467,"Ġreiss":6468,"ĠHit":6469,"ĠWhen":6470,"ĠOb":6471,"Ġvillage":6472,"Ġmanagers":6473,"issions":6474,"Ġphil":6475,"Ġintellectual":6476,"Ġgovernments":6477,"Ġ1934":6478,"ĠLeague":6479,"attle":6480,"ĠAgric":6481,"Ġcommenced":6482,"Ġfastest":6483,"ĠCDs":6484,"Ġinnovation":6485,"Ġpredec":6486,"Ġincrease":6487,"ĠStagecoach":6488,"Ġembedded":6489,"ĠKazakhstan":6490,"Star":6491,"TR":6492,"aire":6493,"brid":6494,"had":6495,"yon":6496,"zhen":6497,"Ð³":6498,"Ġà®":6499,"Ġtakes":6500,"ito":6501,"Ġbatter":6502,"Ġmechanical":6503,"ĠMA":6504,"ĠPack":6505,"ĠGram":6506,"Ġforest":6507,"ĠInnov":6508,"ĠHell":6509,"Ġgran":6510,"Ġgiven":6511,"ĠWel":6512,"ĠWolf":6513,"Ġstage":6514,"ĠJazz":6515,"Ġconvers":6516,"ĠVillage":6517,"Ġlocomotives":6518,"ĠBruss":6519,"ĠAlto":6520,"ĠAnal":6521,"Ġjet":6522,"Ġcontact":6523,"Ġtrades":6524,"inder":6525,"Ġfloor":6526,"Ġ49":6527,"Ġtwenty":6528,"ĠIsle":6529,"ĠPlc":6530,"inki":6531,"ĠMidwest":6532,"Ġportable":6533,"Ġ1912":6534,"Ġgenerally":6535,"Ġpayments":6536,"ĠProvince":6537,"Ġversions":6538,"Ġgraphics":6539,"ĠMaharashtra":6540,"Ãłn":6541,"Ġjewellery":6542,"ĠIdaho":6543,"ĠLinux":6544,"Ġassembly":6545,"ĠAnimation":6546,"åĽ½":6547,"lymp":6548,"Ġultr":6549,"ĠMississippi":6550,"ĠJohannes":6551,"27":6552,"Cl":6553,"GC":6554,"Nor":6555,"VC":6556,"ault":6557,"mit":6558,"nel":6559,"ti":6560,"ä»":6561,"any":6562,"anding":6563,"Ġcourses":6564,"ĠCell":6565,"ĠSab":6566,"ĠBud":6567,"ĠBeat":6568,"ĠBomb":6569,"Ġtoy":6570,"Ġ(/":6571,"ĠLim":6572,"ĠLag":6573,"ĠNob":6574,"Ġ1900":6575,"ĠDick":6576,"otal":6577,"ellschaft":6578,"Ġshoes":6579,"Ġplan":6580,"Ġbranding":6581,"atings":6582,"ĠCooper":6583,"ĠShipping":6584,"Ġimaging":6585,"ĠSciences":6586,"ample":6587,"Ġevolved":6588,"yne":6589,"Ġfacilit":6590,"ĠâĢĺ":6591,"Ġtrains":6592,"ĠImper":6593,"Ġhosted":6594,"ĠUkrainian":6595,"Ġorigins":6596,"Ġconfection":6597,"Ġvolume":6598,"unswick":6599,"Ġsegment":6600,"Ġagainst":6601,"Ġwarehouse":6602,"restling":6603,"ĠConsulting":6604,"Ġconvenience":6605,"Ġorganisations":6606,"ĠSiemens":6607,"'.":6608,")(":6609,"SD":6610,"UK":6611,"bach":6612,"bridge":6613,"fits":6614,"low":6615,"lag":6616,"Ð±":6617,"inary":6618,"incial":6619,"erabad":6620,"Ġseek":6621,"Ġpetro":6622,"ĠCel":6623,"ĠCinc":6624,"ĠCreek":6625,"ĠTre":6626,"ĠTam":6627,"ĠAx":6628,"ĠID":6629,"una":6630,"Ġlower":6631,"ĠMit":6632,"Ġdub":6633,"ĠBet":6634,"ĠGran":6635,"ĠRoss":6636,"ĠNap":6637,"ĠNatural":6638,"ĠEarth":6639,"ĠDam":6640,"ĠHydro":6641,"ĠKG":6642,"Ġvinyl":6643,"illed":6644,"claim":6645,"Ġlargely":6646,"onda":6647,"ĠAlb":6648,"ĠAlan":6649,"ĠAustrian":6650,"Ġcounties":6651,"Ã©d":6652,"Ġsciences":6653,"rowd":6654,"Ġ1935":6655,"Ġdirectors":6656,"ĠGeneva":6657,"ĠBarcel":6658,"ĠiOS":6659,"Ġdiff":6660,"Ġhelps":6661,"ĠTownship":6662,"stanbul":6663,"Ġhowever":6664,"ĠBulgaria":6665,"ĠHawaii":6666,"Ġsurrounding":6667,"ĠOttawa":6668,"ĠLawrence":6669,"ĠBrussels":6670,"400":6671,"Group":6672,"bes":6673,"dis":6674,"ns":6675,"vian":6676,"vard":6677,"Î¿":6678,"Ġill":6679,"Ġera":6680,"esa":6681,"orage":6682,"reme":6683,"ĠSeries":6684,"ĠTerm":6685,"Ġdining":6686,"olta":6687,"amin":6688,"idel":6689,"Ġproble":6690,"ĠLith":6691,"ĠLove":6692,"ĠField":6693,"ĠNation":6694,"ĠDar":6695,"ĠDog":6696,"eman":6697,"ĠJoint":6698,"ervation":6699,"ĠKim":6700,"orders":6701,"ĠOlymp":6702,"Ġvert":6703,"ache":6704,"acement":6705,"illa":6706,"iba":6707,"Ġchicken":6708,"ĠYam":6709,"ĠBrunswick":6710,"often":6711,"Ġbusinessman":6712,"They":6713,"ãĥª":6714,"ãĥĨ":6715,"chewan":6716,"ighting":6717,"Ġjournals":6718,"Ġauto":6719,"icks":6720,"innati":6721,"Ġ1921":6722,"Ġmovement":6723,"Ġsecondary":6724,"ĠAllen":6725,"ĠBarb":6726,"ĠWhit":6727,"ĠDavis":6728,"ĠBerhad":6729,"borough":6730,"ĠPhilippine":6731,"Ġcharity":6732,"Ġwriting":6733,"ĠIranian":6734,"Ġallowing":6735,"Ġbicycles":6736,"Ġhistoric":6737,"Ġfriends":6738,"ĠProperties":6739,"ĠCroatia":6740,"ĠIslamic":6741,"ĠSaskatchewan":6742,"ĠCincinnati":6743,"29":6744,"Bus":6745,"TD":6746,"TYO":6747,"WE":6748,"aaS":6749,"point":6750,"wagen":6751,"æ¥":6752,"Ġcosmetics":6753,"asc":6754,"icate":6755,"ĠCir":6756,"ĠSter":6757,"ĠSov":6758,"ĠSega":6759,"ĠTun":6760,"Ġlat":6761,"Ġliving":6762,"ĠMand":6763,"Ġdry":6764,"Ġdiesel":6765,"ĠBureau":6766,"ĠPor":6767,"ĠPers":6768,"ĠLis":6769,"ĠFab":6770,"ĠFoot":6771,"ĠFestival":6772,"ĠEmb":6773,"abbre":6774,"ige":6775,"ĠUAE":6776,"ĠOy":6777,"ĠOcean":6778,"istic":6779,"Ġkilomet":6780,"oku":6781,"ionship":6782,"igned":6783,"asses":6784,"ĠAlt":6785,"Ġconsoles":6786,"Ġmusician":6787,"Ġformally":6788,"Ġsecure":6789,"ĠBlu":6790,"Ġeven":6791,"Ġ1936":6792,"Ġ1938":6793,"Ġsection":6794,"Ø§ÙĨ":6795,"ĠMcG":6796,"Ġgenerated":6797,"ĠSmall":6798,"Ã¡ng":6799,"Ġfollowed":6800,"ĠOsaka":6801,"æľ¬":6802,"ĠScotia":6803,"ĠMadison":6804,"Ġcellular":6805,"auty":6806,"Ġvolun":6807,"Ġwholesal":6808,"ĠOrganization":6809,"Ġtracking":6810,"ĠToyota":6811,"Ġkitchen":6812,"sych":6813,"ĠHyderabad":6814,"ĠShenzhen":6815,"ĠEmpire":6816,"23":6817,"CM":6818,"EP":6819,"LM":6820,"Works":6821,"burn":6822,"comp":6823,"don":6824,"made":6825,"vision":6826,"Ã¥":6827,"held":6828,"Ġauction":6829,"Ġinsur":6830,"Ġbudget":6831,"Ġfine":6832,"ĠCert":6833,"ĠSud":6834,"ĠTen":6835,"ĠTal":6836,"ĠTra":6837,"ĠIl":6838,"ĠMall":6839,"Ġdepart":6840,"term":6841,"ĠProm":6842,"iding":6843,"ĠRod":6844,"ĠFalls":6845,"Ġreports":6846,"ĠInstru":6847,"Ġnight":6848,"ocation":6849,"imated":6850,"ĠWeek":6851,"ĠJay":6852,"ĠKel":6853,"plif":6854,"ĠAlph":6855,"ĠArc":6856,"Ġdistributing":6857,"erally":6858,"Ġ180":6859,"ĠPrior":6860,"ĠTrain":6861,"inner":6862,"Ġservers":6863,"ĠQatar":6864,"Ġ1926":6865,"ridges":6866,"Ġdelivers":6867,"Ġ120":6868,"ĠMcD":6869,"Ġcarried":6870,"Ġranks":6871,"Ġbuying":6872,"Ġrepresented":6873,"ĠOperating":6874,"Ġarchitectural":6875,"ĠAlexander":6876,"Ġliterary":6877,"ĠEquity":6878,"Spanish":6879,"ĠBergen":6880,"ycling":6881,"ĬĢè¡Į":6882,"Ġreputation":6883,"75":6884,"Mar":6885,"cement":6886,"dem":6887,"free":6888,"gor":6889,"mo":6890,"mail":6891,"nic":6892,"yer":6893,"éĬĢè¡Į":6894,"Ġsett":6895,"Ġfem":6896,"Ġwinning":6897,"rete":6898,"ĠCov":6899,"ĠTool":6900,"ĠISO":6901,"ĠIstanbul":6902,"ĠMap":6903,"Ġdays":6904,"uron":6905,"ĠBed":6906,"ĠBio":6907,"ĠPun":6908,"ĠRon":6909,"Ġgovern":6910,"ĠJSC":6911,"uda":6912,"Ġearn":6913,"uma":6914,"ĠVen":6915,"ĠAnth":6916,"Ġdesigning":6917,"ĠTrading":6918,"ampton":6919,"ĠAtari":6920,"Ġ85":6921,"Ġ1927":6922,"Ġ1939":6923,"ĠPhilip":6924,"ĠMidlands":6925,"ĠEdward":6926,"ĠDrug":6927,"Ġmilk":6928,"Ġlonger":6929,"Ġschol":6930,"ĠGlass":6931,"Ã¸r":6932,"Ġeth":6933,"Ġpractices":6934,"Ġentrepreneurs":6935,"Ġclubs":6936,"Ġconsisting":6937,"ĠFreder":6938,"zhou":6939,"ĠCongo":6940,"ĠVirtual":6941,"Ġbulk":6942,"ĠLiverpool":6943,"Ġtelephony":6944,"DF":6945,"EE":6946,"LSE":6947,"after":6948,"dong":6949,"fin":6950,"mig":6951,"mith":6952,"erts":6953,"Ġtim":6954,"Ġcart":6955,"enos":6956,"arus":6957,"Ġser":6958,"Ġborn":6959,"Ġwhe":6960,"ĠCab":6961,"ĠSavings":6962,"ĠTak":6963,"ĠLloy":6964,"ĠRead":6965,"level":6966,"ĠNic":6967,"otic":6968,"Ġstated":6969,"ĠJer":6970,"ĠJason":6971,"ĠKam":6972,"Ġwhite":6973,"Ġvision":6974,"Ġprices":6975,"Ġservicing":6976,"iller":6977,"Ġknowledge":6978,"ĠEnvironment":6979,"ĠYear":6980,"Ġcompris":6981,"ãĥķ":6982,"ronic":6983,"ĠPrinc":6984,"Ġ5000":6985,"Ġagents":6986,"ennis":6987,"ĠCloud":6988,"Ġrelocated":6989,"ĠFormerly":6990,"Ġ1931":6991,"Ġ10000":6992,"ĠLeon":6993,"Ġamongst":6994,"atsu":6995,"ĠHeart":6996,"Ġfranchised":6997,"Ġexpanding":6998,"ĠMerch":6999,"Ġcompetitors":7000,"Ġhosts":7001,"Ġmerchant":7002,"ĠErn":7003,"ĠHoward":7004,"ĠAntonio":7005,"simplified":7006,"ĠVolkswagen":7007,"ĠBarcelona":7008,"28":7009,"AF":7010,"HS":7011,"II":7012,"PP":7013,"dn":7014,"æĸ":7015,"éĢ":7016,"onian":7017,"Ġcat":7018,"Ġseat":7019,"Ġsenior":7020,"Ġfruit":7021,"Ġpil":7022,"ĠAge":7023,"ĠIra":7024,"enton":7025,"ĠLocated":7026,"ĠRun":7027,"abilities":7028,"Ġglobe":7029,"oka":7030,"ustic":7031,"ãĥ¬":7032,"ĠCoach":7033,"Ġretailing":7034,"Ġemploying":7035,"Ġinvested":7036,"ĠMarsh":7037,"uters":7038,"ĠForest":7039,"Ġbuilder":7040,"Ġ1937":7041,"ĠResorts":7042,"castle":7043,"Ð¾Ð½":7044,"ĠHarvey":7045,"Ð°Ñ":7046,"Ġadventure":7047,"ĠPoly":7048,"uential":7049,"Ġparticular":7050,"business":7051,"Ġboats":7052,"ĠCommunication":7053,"ĠTaip":7054,"Ġinspired":7055,"layer":7056,"ĠMachine":7057,"ĠBernard":7058,"Ġestablishment":7059,"ĠCorporate":7060,"ĠTurner":7061,"ĠJohannesburg":7062,"300":7063,"BB":7064,"MO":7065,"SR":7066,"bis":7067,"bell":7068,"des":7069,"gi":7070,"jo":7071,"jin":7072,"vin":7073,"Äį":7074,"Ùĥ":7075,"anth":7076,"eras":7077,"ori":7078,"Ġing":7079,"Ġcurr":7080,"aring":7081,"alty":7082,"Ġsugar":7083,"Ġfeet":7084,"Ġfront":7085,"Ġferries":7086,"ele":7087,"ĠTas":7088,"ĠBC":7089,"ĠLex":7090,"ĠRa":7091,"ĠRober":7092,"ĠNow":7093,"ĠKat":7094,"ĠKev":7095,"ĠKenn":7096,"Ġeast":7097,"Ġeffic":7098,"Ġwhom":7099,"Ġrecre":7100,"Ġmarketer":7101,"Ġundert":7102,"Ġspecialize":7103,"enger":7104,"urgical":7105,"Ġ1922":7106,"Ġ1924":7107,"incorporated":7108,"Ġautomated":7109,"ĠXbox":7110,"Ġjointly":7111,"Ġ1905":7112,"Ġrenowned":7113,"ĠRichmond":7114,"Ġcombination":7115,"ĠIntegr":7116,"folk":7117,"ĠIndonesian":7118,"ĠPatrick":7119,"Ġdistinct":7120,"Ġcontainer":7121,"ĠEquipment":7122,"Ġinfluential":7123,"ĠRochester":7124,"Ġreviews":7125,"ocratic":7126,"ĠOfficer":7127,"Ġvineyard":7128,"Ġneighborhood":7129,"Ġdiagnost":7130,"Ġmodules":7131,"))":7132,"26":7133,"45":7134,"NG":7135,"ST":7136,"Sc":7137,"Ukrain":7138,"city":7139,"food":7140,"gate":7141,"hop":7142,"mat":7143,"spe":7144,"uis":7145,"wall":7146,"water":7147,"Çİ":7148,"Ġcultural":7149,"aro":7150,"itas":7151,"Ġfresh":7152,"ĠCer":7153,"ĠSM":7154,"ĠSuss":7155,"ĠAle":7156,"ĠMol":7157,"ĠMills":7158,"ĠPT":7159,"ĠPep":7160,"eston":7161,"ĠHuman":7162,"ĠJul":7163,"ĠJournal":7164,"Ġrif":7165,"Ġrather":7166,"Ġep":7167,"apolis":7168,"iph":7169,"Ġdesktop":7170,"Ġ34":7171,"Ġju":7172,"ĠPrim":7173,"ĠUSD":7174,"Ġstories":7175,"ãĤ·":7176,"Ġserver":7177,"ĠFormed":7178,"Ġ1923":7179,"ĠÐŀ":7180,"Ġ501":7181,"Ġanaly":7182,"Ġdiscover":7183,"ĠAvia":7184,"ÃŃn":7185,"Ġprinted":7186,"ĠIntel":7187,"ĠIII":7188,"Ġabbreviation":7189,"Ð²Ð¸":7190,"Ġmonths":7191,"Ġselection":7192,"ĠRoger":7193,"ĠCommod":7194,"Ġarticles":7195,"Ġcharacters":7196,"ĠCroatian":7197,"writer":7198,"Ġexecutives":7199,"ĠImperial":7200,"AV":7201,"IR":7202,"aug":7203,"pat":7204,"pers":7205,"sÄ«":7206,"wauk":7207,"Ġaver":7208,"alg":7209,"Ġpet":7210,"ĠCinema":7211,"ĠST":7212,"ĠSel":7213,"ĠSales":7214,"oli":7215,"add":7216,"ĠPA":7217,"ĠPier":7218,"ido":7219,"ĠHand":7220,"ĠStew":7221,"ogy":7222,"Ġchips":7223,"ĠAirbus":7224,"Ġtracks":7225,"irement":7226,"Ġenh":7227,"ĠArtists":7228,"ĠArms":7229,"ĠArmy":7230,"ĠArthur":7231,"ĠCoal":7232,"ĠProgram":7233,"elson":7234,"phis":7235,"ĠMonica":7236,"Ġpowered":7237,"Ġlocally":7238,"Ġdrilling":7239,"Ġdeliver":7240,"Ġaudience":7241,"Ġ1910":7242,"ĠHeavy":7243,"ĠMilwauk":7244,"Ġsurv":7245,"anguages":7246,"boro":7247,"Ġphotography":7248,"Ġrepresenting":7249,"ĠCrown":7250,"Ġtypically":7251,"ventional":7252,"Ġcatalogue":7253,"ĠNordic":7254,"Ġinstalled":7255,"boards":7256,"Ġentirely":7257,"ĠProperty":7258,"åľĭ":7259,"Ġcompilation":7260,"ĠFrontier":7261,"Ġexpertise":7262,"Ġopportunities":7263,"Ġholiday":7264,"Ġthousands":7265,"%).":7266,"35":7267,"Hebrew":7268,"Point":7269,"eep":7270,"iÃ³n":7271,"ÊĬ":7272,"originally":7273,"Ġwines":7274,"ĠCP":7275,"Ġmeat":7276,"ĠTan":7277,"ĠAur":7278,"Ġlas":7279,"Ġliability":7280,"ĠBuff":7281,"ĠPink":7282,"ĠGarden":7283,"ĠRal":7284,"ĠRic":7285,"ĠFal":7286,"Ġreach":7287,"ĠNAS":7288,"ĠNYSE":7289,"agu":7290,"ĠOt":7291,"odes":7292,"odies":7293,"ĠUntil":7294,"izing":7295,"anga":7296,"ighton":7297,"Ġexport":7298,"Ġdisplay":7299,"ances":7300,"ocks":7301,"Ġ3000":7302,"ãĥĩ":7303,"away":7304,"ĠExper":7305,"Ġinvesting":7306,"Ġimage":7307,"Ġabsor":7308,"afe":7309,"ĠRussell":7310,"Ġdrum":7311,"Ġdevoted":7312,"Ġcareer":7313,"Ġconnected":7314,"Ġsurvey":7315,"Ġlitigation":7316,"ĠRomanian":7317,"amilton":7318,"ĠFlying":7319,"ÅįngsÄ«":7320,"ĠStanley":7321,"ĠBahrain":7322,"ĠSemiconductor":7323,"ĠIrvine":7324,"ĠHelsinki":7325,"ĠJakarta":7326,"PO":7327,"Éĳ":7328,"à±":7329,"Ļ×":7330,"inters":7331,"Ġtaking":7332,"ĠCa":7333,"ĠCur":7334,"Ġmap":7335,"ĠSin":7336,"ĠTerrit":7337,"Ġlanguages":7338,"ĠMu":7339,"ĠMess":7340,"ĠMore":7341,"ĠMutual":7342,"ĠBear":7343,"chi":7344,"Ġhorse":7345,"ĠLive":7346,"ĠGord":7347,"ĠGate":7348,"leep":7349,"ĠNu":7350,"Ġnut":7351,"ĠDig":7352,"ĠHamilton":7353,"Ġgift":7354,"ques":7355,"Ġstop":7356,"ups":7357,"ulu":7358,"Ġeither":7359,"iple":7360,"Ġ37":7361,"Ġ39":7362,"Ġyouth":7363,"Ġformats":7364,"Ġage":7365,"ĠCommerce":7366,"ĠScientific":7367,"Ġholdings":7368,"ĠJohnny":7369,"uckland":7370,"Ġdrive":7371,"Ġresponse":7372,"ĠAviv":7373,"ĠPeters":7374,"Ġ130":7375,"Ġsurf":7376,"ĠMarkets":7377,"Ġsupplying":7378,"Ġpatent":7379,"Ġpatented":7380,"ĠPalo":7381,"Ġsemi":7382,"ĠMainland":7383,"Ġdebt":7384,"onnes":7385,"olkata":7386,"Ġidea":7387,"Ġfunctions":7388,"Ġearlier":7389,"Ġstreaming":7390,"Ġcampaigns":7391,"Ġadopted":7392,"ĠQuality":7393,"Ġpulp":7394,"officially":7395,"Ġconfectionery":7396,"ĠSoviet":7397,"abbreviated":7398,"21":7399,"Am":7400,"Kore":7401,"MX":7402,"Ph":7403,"SB":7404,"Sw":7405,"film":7406,"haul":7407,"mos":7408,"nia":7409,"pen":7410,"paid":7411,"yles":7412,"Ġtun":7413,"Ġtonnes":7414,"alight":7415,"Ġbars":7416,"Ġpaid":7417,"ĠSix":7418,"ĠTs":7419,"ĠASA":7420,"ĠAuckland":7421,"ĠIce":7422,"ĠMoh":7423,"urich":7424,"ĠBurg":7425,"ĠBox":7426,"ĠBird":7427,"ĠPo":7428,"ampl":7429,"ĠLaur":7430,"ĠGab":7431,"ĠJava":7432,"ĠKolkata":7433,"opher":7434,"ĠSteam":7435,"elli":7436,"izens":7437,"istance":7438,"ebu":7439,"rought":7440,"sha":7441,"Ġcoup":7442,"Ġabroad":7443,"ĠClay":7444,"ĠForbes":7445,"ĠAsset":7446,"Ġmini":7447,"etta":7448,"Ġsimulation":7449,"vironments":7450,"Ġcompetitor":7451,"Ġcontrols":7452,"ĠSheff":7453,"Ġcollections":7454,"TSX":7455,"opharmaceutical":7456,"ĠMagic":7457,"Ġeconomy":7458,"ĠEgyptian":7459,"Ġmeasurement":7460,"ÙĪØ":7461,"ĠUrban":7462,"ĠMemphis":7463,"Ġflying":7464,"ĠVisual":7465,"ĠJacob":7466,"Ġrestructuring":7467,"Ġhorror":7468,"Ġproblems":7469,"ĠTaipei":7470,"%.":7471,");":7472,"88":7473,"GI":7474,"MV":7475,"UR":7476,"WA":7477,"cars":7478,"later":7479,"nold":7480,"Ð·":7481,"å¤":7482,"ĠËĪ":7483,"inity":7484,"arch":7485,"Ġsea":7486,"Ġbikes":7487,"Ġfold":7488,"Ġfabl":7489,"Ġfair":7490,"ĠSer":7491,"ĠSche":7492,"ĠTeam":7493,"ĠAqu":7494,"ĠGirl":7495,"ĠRacing":7496,"ĠFried":7497,"Ġreorgan":7498,"ĠIng":7499,"ĠNors":7500,"abs":7501,"ĠHi":7502,"Ġgarden":7503,"ĠWine":7504,"ĠJun":7505,"ĠKo":7506,"actors":7507,"Ġveg":7508,"ews":7509,"plane":7510,"Ġexports":7511,"Ġenvironments":7512,"Ġ360":7513,"Ġmainland":7514,"ãĥ©":7515,"ĠCooperative":7516,"ĠZamb":7517,"Ġcreator":7518,"ĠPradesh":7519,"aza":7520,"Ġoutput":7521,"Ġ4000":7522,"ĠTrond":7523,"ĠFlash":7524,"ehr":7525,"ĠCountry":7526,"ĠAmaz":7527,"Ġcalls":7528,"ĠBeer":7529,"Ġ1933":7530,"ĠSociet":7531,"ĠMcK":7532,"ollowing":7533,"Ġconnecting":7534,"ĠLatvia":7535,"MAX":7536,"ĠÃī":7537,"Ġelev":7538,"Ġdocumentary":7539,"Ġhistorical":7540,"hensive":7541,"Ġbarrel":7542,"Ġhelicopters":7543,"controll":7544,"Ġsongs":7545,"Ġsilver":7546,"Ġcategories":7547,"ĠDowntown":7548,"Ġcleaning":7549,"ĠProfessional":7550,"Ġmessaging":7551,"ĠLaboratories":7552,"Ġaluminium":7553,"Ġresidents":7554,"æĹ¥æľ¬":7555,"Ġpredecessor":7556,"ĠLithu":7557,"æ¥Ń":7558,"ĠSussex":7559,"ĠMilwaukee":7560,"Ġfabless":7561,"CL":7562,"Est":7563,"GO":7564,"gg":7565,"ground":7566,"link":7567,"pact":7568,"rise":7569,"ww":7570,"wing":7571,"Ġquarter":7572,"Ġcur":7573,"Ġcorn":7574,"Ġclear":7575,"Ġski":7576,"Ġfib":7577,"rem":7578,"ĠCass":7579,"Ġlatter":7580,"ĠMarg":7581,"ĠBull":7582,"ĠPass":7583,"leans":7584,"ĠDark":7585,"ĠHop":7586,"ĠHang":7587,"ĠKÅį":7588,"ĠKoch":7589,"ipeg":7590,"odd":7591,"elled":7592,"Ġkn":7593,"Ġspe":7594,"prints":7595,"Ġestimated":7596,"Ġconsole":7597,"Ġregistr":7598,"Ġrob":7599,"Ġflav":7600,"Ġ44":7601,"Ã©r":7602,"ãĤ³":7603,"Ġimmig":7604,"ĠPhill":7605,"ĠManila":7606,"Ġactor":7607,"ĠClin":7608,"ĠOrleans":7609,"ĠIndianapolis":7610,"Ġminor":7611,"Ð°Ð½":7612,"ĠDragon":7613,"ĠEstonia":7614,"Ġ1911":7615,"Ġremote":7616,"ĠMacau":7617,"aimler":7618,"ĠBroadband":7619,"Ġphoto":7620,"ĠMaine":7621,"Ġhubs":7622,"ĠAlbert":7623,"Ġpioneered":7624,"ĠQueen":7625,"ĠHelicop":7626,"Ġinstallation":7627,"Ġparks":7628,"Ġstatus":7629,"ĠCharlotte":7630,"Ġoccup":7631,"Ġcameras":7632,"Ġrespectively":7633,"Ġtherap":7634,"Ġsustainable":7635,"ĠArkansas":7636,"ĠLiberty":7637,"Ġcatering":7638,"Ġsummer":7639,"ĠWinnipeg":7640,"Ukrainian":7641,"ĠSheffield":7642,"BT":7643,"DB":7644,"Fi":7645,"RP":7646,"Wh":7647,"set":7648,"uan":7649,"world":7650,"ÇĴ":7651,"æĺ":7652,"Ġ)":7653,"Ġrough":7654,"erated":7655,"Ġsail":7656,"Ġsaw":7657,"Ġbio":7658,"Ġfish":7659,"Ġposs":7660,"ĠCH":7661,"ĠCairo":7662,"ĠSac":7663,"ĠSoul":7664,"enter":7665,"ĠBack":7666,"ĠLif":7667,"ĠLink":7668,"ĠGM":7669,"ĠRow":7670,"established":7671,"estone":7672,"ĠEmer":7673,"eces":7674,"ĠHub":7675,"ibus":7676,"Ġbeauty":7677,"ĠNewcastle":7678,"Ġextract":7679,"Ġexchanges":7680,"Ġexample":7681,"aste":7682,"ovolta":7683,"Ġplaced":7684,"ystems":7685,"ãĥĭ":7686,"tone":7687,"ĠZone":7688,"ĠThree":7689,"rys":7690,"ãĤª":7691,"Ġimages":7692,"enne":7693,"ĠCollect":7694,"ertiliz":7695,"Ġcolor":7696,"Ġdrink":7697,"itting":7698,"Ġ1918":7699,"ĠPerth":7700,"Ġdealing":7701,"ĠMotion":7702,"Ġplayed":7703,"Ġreceive":7704,"ĠFranklin":7705,"ĠLibr":7706,"Ġmotors":7707,"Ġpioneering":7708,"ĠSurrey":7709,"Ð»ÑĮ":7710,"Ġhybrid":7711,"ĠFederation":7712,"Ġinitiative":7713,"Ġterritories":7714,"Ġcompliance":7715,"ĠSlovakia":7716,"ĠLeban":7717,"77":7718,"Pacific":7719,"ez":7720,"key":7721,"lane":7722,"more":7723,"publ":7724,"speed":7725,"ķ×":7726,"onic":7727,"isters":7728,"Ġfishing":7729,"rees":7730,"rehensive":7731,"ĠCirc":7732,"ĠSign":7733,"ĠTA":7734,"ĠTotal":7735,"ĠAy":7736,"Ġleather":7737,"irst":7738,"ĠPow":7739,"ĠGaz":7740,"ĠFast":7741,"ĠFoster":7742,"ĠInitially":7743,"ĠNas":7744,"ĠHP":7745,"ĠWorth":7746,"ĠWatch":7747,"ĠStein":7748,"ĠOEM":7749,"Ġheat":7750,"acional":7751,"ipe":7752,"ĠVar":7753,"ĠVia":7754,"Ġprovincial":7755,"Ġkits":7756,"ĠAires":7757,"Ġshoe":7758,"ystal":7759,"Ġsuite":7760,"encing":7761,"Ġentities":7762,"Ġtransform":7763,"ahn":7764,"Ġ64":7765,"Ġamplif":7766,"Ġhigher":7767,"inces":7768,"Ġmonop":7769,"ĠSchw":7770,"Ġcontractors":7771,"Ġ1200":7772,"Ġ1901":7773,"Ġ1902":7774,"ĠAbb":7775,"Ġdiscovery":7776,"plements":7777,"Ġshared":7778,"Ġutilities":7779,"Ġpartnerships":7780,"Ġcomponent":7781,"Ġanti":7782,"Ġidentity":7783,"ĠBuenos":7784,"Ġencomp":7785,"iterran":7786,"Ġachieved":7787,"Ġobjective":7788,"Ġemphasis":7789,"Ġbrowser":7790,"ĠTerminal":7791,"Ġingred":7792,"Ġaverage":7793,"CP":7794,"Media":7795,"RL":7796,"UP":7797,"aver":7798,"fund":7799,"jan":7800,"kok":7801,"si":7802,"uing":7803,"wo":7804,"å®":7805,"edom":7806,"icult":7807,"Ġfans":7808,"Ġfather":7809,"rock":7810,"ĠCow":7811,"ĠSN":7812,"ĠTeh":7813,"ĠAL":7814,"ĠAld":7815,"ĠMail":7816,"ĠMons":7817,"urst":7818,"ĠPa":7819,"ami":7820,"idd":7821,"ĠLot":7822,"ĠGot":7823,"lement":7824,"ĠFM":7825,"ests":7826,"ĠIns":7827,"ĠNat":7828,"ĠEs":7829,"ĠHu":7830,"Ġthermal":7831,"ubs":7832,"ager":7833,"ĠJud":7834,"ĠVe":7835,"lando":7836,"ĠNewsp":7837,"Ġexhib":7838,"asting":7839,"Ġcompar":7840,"Ġapart":7841,"Ġround":7842,"ĠZurich":7843,"ĠThai":7844,"production":7845,"Ġelectro":7846,"indra":7847,"coo":7848,"ĠCars":7849,"ampa":7850,"Ġamb":7851,"Ġamount":7852,"yster":7853,"ĠBefore":7854,"Ġprogrammes":7855,"Ġlicence":7856,"onym":7857,"Ġsupported":7858,"Ġshortly":7859,"Ġpersonnel":7860,"Ġconnects":7861,"ĠShell":7862,"ĠMalaysian":7863,"Ġwriters":7864,"ĠArgentine":7865,"1990":7866,"ĠSupply":7867,"ĠDefense":7868,"Ġtheatre":7869,"Ġtransferred":7870,"Ġlibraries":7871,"ĠChartered":7872,"ĠVienna":7873,"ĠPremier":7874,"Ġnavigation":7875,"ĠHomes":7876,"rella":7877,"ĠBengal":7878,"Ġultralight":7879,"demand":7880,"Ġcomprising":7881,"ĠKevin":7882,"EG":7883,"Pr":7884,"kers":7885,"mins":7886,"oit":7887,"Êĥ":7888,"áĥ":7889,"Ġ+":7890,"Ġç":7891,"Ġtrol":7892,"ische":7893,"ening":7894,"alian":7895,"Ġfuture":7896,"Ġwet":7897,"Ġmic":7898,"Ġmag":7899,"usement":7900,"Ġloss":7901,"ĠMong":7902,"ĠMold":7903,"ĠMount":7904,"ĠPR":7905,"ĠPin":7906,"ĠPric":7907,"ĠLiving":7908,"Ġreporting":7909,"ĠEsp":7910,"Ġnative":7911,"ĠDoll":7912,"igar":7913,"ials":7914,"ĠKan":7915,"ĠKos":7916,"ords":7917,"ayer":7918,"osoph":7919,"umi":7920,"ĠUnit":7921,"illo":7922,"Ġchamp":7923,"former":7924,"Ġdispl":7925,"Ġreserv":7926,"Ġinvented":7927,"Ġ51":7928,"Ġagent":7929,"ĠComb":7930,"Ġflash":7931,"ference":7932,"Ġable":7933,"Ġcustomized":7934,"ĠPlace":7935,"ipped":7936,"ĠOrlando":7937,"Ġnationally":7938,"Ġadvoc":7939,"Ġ1913":7940,"Ġ1917":7941,"Ġdecade":7942,"ÐµÑĢ":7943,"ĠMedic":7944,"Ġbiopharmaceutical":7945,"ĠBangkok":7946,"Ġprototy":7947,"ĠConsumer":7948,"Ġrepresentative":7949,"Ġattention":7950,"Ġremained":7951,"Ġcontrolling":7952,"ĠReliance":7953,"Ġmonthly":7954,"ĠCamer":7955,"ĠBhd":7956,"Ġbrief":7957,"contin":7958,"Ġconverted":7959,"ĠCastle":7960,"Ġcritical":7961,"Ġdiseases":7962,"Ġmemory":7963,"ĠCosta":7964,"å·¥":7965,"ĠKuwa":7966,"æĿ±":7967,"'t":7968,"34":7969,"BL":7970,"FM":7971,"FO":7972,"ho":7973,"hab":7974,"hard":7975,"ieces":7976,"law":7977,"lantic":7978,"makers":7979,"tec":7980,"ÅŁ":7981,"Îµ":7982,"à´":7983,"à¤¾":7984,"erc":7985,"Ġtex":7986,"Ġwheel":7987,"ĠCN":7988,"Ġmi":7989,"Ġmines":7990,"ĠSatellite":7991,"ĠSdn":7992,"entry":7993,"ĠBuch":7994,"irty":7995,"amm":7996,"idad":7997,"ĠGary":7998,"ĠNBC":7999,"Ġniche":8000,"ĠDaimler":8001,"igs":8002,"trans":8003,"ĠHorn":8004,"ĠJa":8005,"ĠKin":8006,"ulated":8007,"ults":8008,"ordin":8009,"izer":8010,"ĠChoice":8011,"Ġprovinces":8012,"ango":8013,"Ġexcess":8014,"ĠGroupe":8015,"Ġenfor":8016,"Ġcomprehensive":8017,"assis":8018,"rica":8019,"Ġadapt":8020,"Ġarms":8021,"erald":8022,"ashi":8023,"Ġ55":8024,"ĠCommon":8025,"ĠTrav":8026,"Ã©e":8027,"Ġleaders":8028,"ĠFlight":8029,"ĠForm":8030,"Ġcapitalization":8031,"Ġnearby":8032,"ĠParty":8033,"ija":8034,"Ġcontinue":8035,"Ġ1914":8036,"Ġlease":8037,"Ġthemsel":8038,"Ġhardcore":8039,"Ġcapt":8040,"Ġpackages":8041,"Ã¶r":8042,"ĠVermont":8043,"Ġreduc":8044,"ÙĬØ©":8045,"ĠInfrastructure":8046,"Ġfarmers":8047,"Ġagriculture":8048,"Ġreplaced":8049,"ĠCreative":8050,"ĠLogistics":8051,"ĠModel":8052,"ĠSloven":8053,"Ġencour":8054,"ĠLabs":8055,"Ġpoetry":8056,"Ġhyper":8057,"ĠDemocratic":8058,"ĠMercury":8059,"Ġdeposits":8060,"Ġsnack":8061,"Ġbakery":8062,"Ġquickly":8063,"èĤ¡ä»":8064,"ĠHudson":8065,"ĠAnthony":8066,"ĠIraq":8067,"ĠTasman":8068,"Ð²Ð¸Ð°":8069,"ĠTrondheim":8070,"Ġthemselves":8071,"èĤ¡ä»½":8072,"90":8073,"All":8074,"OT":8075,"SaaS":8076,"World":8077,"gar":8078,"hu":8079,"language":8080,"mouth":8081,"pan":8082,"sey":8083,"Ø¨":8084,"Ġtail":8085,"esides":8086,"omy":8087,"Ġbags":8088,"Ġfall":8089,"Ġfile":8090,"ĠCE":8091,"Ġmart":8092,"ĠSpeed":8093,"ĠTar":8094,"Ġlook":8095,"Ġlending":8096,"Ġdates":8097,"ĠPi":8098,"ĠPaper":8099,"idence":8100,"Ġhands":8101,"ĠGet":8102,"ĠGPS":8103,"ĠRy":8104,"ĠRat":8105,"ĠRain":8106,"ĠFerries":8107,"Ġreached":8108,"ĠEA":8109,"ĠDial":8110,"ĠDeb":8111,"ĠDaily":8112,"ĠWing":8113,"agement":8114,"ĠKiev":8115,"Ġconce":8116,"ateur":8117,"ello":8118,"ighter":8119,"Ġspect":8120,"Ġspeed":8121,"Ġrecovery":8122,"Ġcome":8123,"Ġtraces":8124,"oys":8125,"Ġresorts":8126,"Ġarray":8127,"ĠThomp":8128,"Ġcarbon":8129,"Ġcommercials":8130,"Ġlisting":8131,"ĠAdvertis":8132,"Ġbreweries":8133,"Ġreality":8134,"ĠAccess":8135,"Ġ1916":8136,"Ġbackup":8137,"ĠAerona":8138,"Ġcompetitive":8139,"Ġconnection":8140,"apeutics":8141,"ÃŃa":8142,"Ð¾Ð´":8143,"Ġwriter":8144,"ĠSprings":8145,"ĠMahindra":8146,"ĠATM":8147,"ĠWells":8148,"Ġstructures":8149,"ĠSatur":8150,"ĠConcord":8151,"ĠRenault":8152,"Ġdifficult":8153,"ĠRoberts":8154,"ĠBuffalo":8155,"Korean":8156,"èĤ¡ä»½æľīéĻĲåħ¬åı¸":8157,"Tech":8158,"UN":8159,"With":8160,"br":8161,"bec":8162,"cer":8163,"disc":8164,"lov":8165,"pes":8166,"Øª":8167,"hew":8168,"oria":8169,"Ġinform":8170,"atively":8171,"Ġcase":8172,"alm":8173,"ician":8174,"iches":8175,"Ġworth":8176,"Ġpens":8177,"Ġmm":8178,"ĠSK":8179,"ĠSof":8180,"ĠSugar":8181,"Ġdiamond":8182,"ĠBB":8183,"ĠBav":8184,"Ġtob":8185,"ĠGraph":8186,"ĠRan":8187,"ĠFurn":8188,"estr":8189,"Ġrein":8190,"ĠHonda":8191,"ĠWer":8192,"ĠWard":8193,"Ġstyles":8194,"ĠStone":8195,"Ġconcess":8196,"ifax":8197,"ĠChildren":8198,"earn":8199,"astics":8200,"Ġcompress":8201,"Ġofficer":8202,"Ġarran":8203,"chell":8204,"ĠExpl":8205,"Ġ53":8206,"Ġcarries":8207,"ierra":8208,"Ġdivided":8209,"aleigh":8210,"ĠClara":8211,"Ġmergers":8212,"phone":8213,"Ġstructure":8214,"Ġapproach":8215,"ĠGuit":8216,"Ġsupplied":8217,"Ð°Ð²":8218,"ĠMinister":8219,"ĠAnderson":8220,"Ġdecor":8221,"Ġanimal":8222,"ĠColumbus":8223,"Ġconnections":8224,"Ġconnectivity":8225,"Ġ140":8226,"ĠChristopher":8227,"ekom":8228,"ĠShel":8229,"Ġphotovolta":8230,"Ġdelivered":8231,"ĠSamuel":8232,"ĠIntellig":8233,"Ġmotto":8234,"Ġmultiplayer":8235,"ĠWalter":8236,"ĠType":8237,"Ġcategory":8238,"ĠEssex":8239,"ÑģÐºÐ¸":8240,"Ġmedicine":8241,"Ġadministrative":8242,"ĠVineyards":8243,"Ġpetrochemical":8244,"Ġabsorbed":8245,"Ġingredients":8246,"Ġmartial":8247,"ĠThompson":8248,"65":8249,"99":8250,"Ad":8251,"FT":8252,"here":8253,"lers":8254,"ois":8255,"pel":8256,"sung":8257,"Êģ":8258,"å±":8259,"Ġumb":8260,"atel":8261,"aron":8262,"Ġsq":8263,"Ġbed":8264,"Ġball":8265,"Ġbanner":8266,"Ġbrought":8267,"Ġft":8268,"ingu":8269,"Ġmalls":8270,"ĠSO":8271,"ĠSP":8272,"ĠTH":8273,"ĠTol":8274,"ĠTian":8275,"ĠTall":8276,"ĠMajor":8277,"Ġdog":8278,"Ġdram":8279,"ĠBog":8280,"ĠBey":8281,"oline":8282,"olph":8283,"ĠPur":8284,"ĠPra":8285,"ĠReed":8286,"ĠRCA":8287,"ĠFocus":8288,"ĠFollowing":8289,"ĠNar":8290,"ĠDI":8291,"ĠDS":8292,"pert":8293,"ĠHind":8294,"imore":8295,"otton":8296,"ĠWor":8297,"ĠJust":8298,"ĠKath":8299,"Ġrival":8300,"ĠVik":8301,"ifty":8302,"obb":8303,"ibu":8304,"Ġchassis":8305,"Ġtrail":8306,"ĠBruce":8307,"enson":8308,"Ġresults":8309,"ĠArmen":8310,"ĠZen":8311,"ĠZag":8312,"Ġengages":8313,"Ġflat":8314,"ĠScr":8315,"Ġleadership":8316,"Ġupscale":8317,"Ġapplied":8318,"monton":8319,"afood":8320,"ĠÐļ":8321,"ĠBelle":8322,"ĠManaging":8323,"Ġdoors":8324,"uki":8325,"Ġhandheld":8326,"Ġdiscuss":8327,"Ġpoly":8328,"ĠSaaS":8329,"ĠThomson":8330,"Ġloan":8331,"ready":8332,"Ġcertific":8333,"Ã¨re":8334,"Ġdrugs":8335,"ihon":8336,"ĠIcelandic":8337,"ĠDominican":8338,"agnie":8339,"ĠMarshall":8340,"ĠAmazon":8341,"Ġbarrels":8342,"Can":8343,"GE":8344,"Port":8345,"TL":8346,"dge":8347,"fr":8348,"government":8349,"grow":8350,"lon":8351,"sometimes":8352,"top":8353,"inch":8354,"esis":8355,"Ġseed":8356,"omm":8357,"oman":8358,"Ġpage":8359,"reens":8360,"ĠCatal":8361,"Ġmine":8362,"Ġmaster":8363,"Ġmuseum":8364,"ĠTea":8365,"ĠTiger":8366,"ĠAber":8367,"ĠAudi":8368,"ĠIL":8369,"ĠMeg":8370,"ĠMann":8371,"olic":8372,"ĠPel":8373,"ĠLang":8374,"ĠLearning":8375,"ĠGil":8376,"ĠGrant":8377,"ĠRu":8378,"ĠRaleigh":8379,"ĠNex":8380,"ĠNavy":8381,"ĠDeath":8382,"igaisha":8383,"ĠHous":8384,"ĠWool":8385,"ĠJerry":8386,"ĠKaisha":8387,"Ġheart":8388,"Ġprinters":8389,"ĠVel":8390,"ĠUnd":8391,"illery":8392,"Ġchild":8393,"ĠAirline":8394,"antage":8395,"ĠRecording":8396,"Their":8397,"Ġadmin":8398,"ĠPrime":8399,"rypt":8400,"Ġoutlet":8401,"Ġemployers":8402,"Ġflo":8403,"ĠTrad":8404,"ĠGrey":8405,"Ġeditions":8406,"ĠMonte":8407,"1980":8408,"Ġ1941":8409,"ĠWarren":8410,"chester":8411,"Ġportion":8412,"Ġpromotes":8413,"Ġbacked":8414,"Ġdecl":8415,"Ġdecades":8416,"Ġdefence":8417,"Ġchanges":8418,"Ġvisitors":8419,"Ġshipyard":8420,"sky":8421,"Ġrecognition":8422,"ĠHerz":8423,"Ġprincipally":8424,"ĠAlexand":8425,"Ġwords":8426,"ĠSeven":8427,"Ġrequire":8428,"ĠOakland":8429,"Ġcomposite":8430,"Ġticket":8431,"ĠDayton":8432,"Ġappeared":8433,"ĠBaltic":8434,"Ġcharge":8435,"Ġcamera":8436,"Ġready":8437,"rafts":8438,"Ġveteran":8439,"Ġgarage":8440,"ĠOwned":8441,"ĠDerby":8442,"ĠWarsaw":8443,"Ġoptimization":8444,"Ġefforts":8445,"ĠInstruments":8446,"uronext":8447,"Ġrifles":8448,"ĠStewart":8449,"Ġroughly":8450,"ĠLibrary":8451,"66":8452,"BSE":8453,"FS":8454,"Head":8455,"Jet":8456,"South":8457,"gart":8458,"kj":8459,"oir":8460,"ooth":8461,"vale":8462,"Î»":8463,"åį":8464,"inos":8465,"atem":8466,"Ġcredited":8467,"Ġsets":8468,"Ġbanned":8469,"Ġfunction":8470,"Ġpers":8471,"ĠCinemas":8472,"ĠSI":8473,"ĠTampa":8474,"usu":8475,"ĠMP":8476,"ĠBoul":8477,"ĠBMW":8478,"ĠPot":8479,"ĠLG":8480,"ĠLock":8481,"ĠFuture":8482,"under":8483,"undai":8484,"ĠNi":8485,"ĠNed":8486,"ĠNich":8487,"performance":8488,"ĠHug":8489,"Ġget":8490,"Ġgrap":8491,"ĠUbis":8492,"ework":8493,"ected":8494,"Ġore":8495,"ardo":8496,"Ġkeep":8497,"Ġcomedy":8498,"Ġtram":8499,"ĠYellow":8500,"ĠBras":8501,"ĠAlong":8502,"ĠAlternative":8503,"ĠAlban":8504,"ikigaisha":8505,"ĠArr":8506,"erals":8507,"Ġunincorporated":8508,"ĠShaw":8509,"Ġ1800":8510,"ĠTelekom":8511,"Ġinterior":8512,"Ġscient":8513,"Ġwhole":8514,"Ġapproved":8515,"Ð°ÑĢ":8516,"ĠEdmonton":8517,"Ġsupporting":8518,"Ġpromoted":8519,"Ġgenerating":8520,"Ġleast":8521,"Ã¼n":8522,"Ġalongside":8523,"Ġdealer":8524,"Ġutiliz":8525,"ĠStra":8526,"ĠStrateg":8527,"Ġinstead":8528,"Ġstrategies":8529,"Ð¾Ð²":8530,"Ġtours":8531,"Ġtourist":8532,"ĠMagn":8533,"Ġpartnered":8534,"Ġemergency":8535,"netic":8536,"ĠCampbell":8537,"ĠHunt":8538,"Ġinflu":8539,"ÐĲÐŀ":8540,"åĽ¢":8541,"Ġconstructed":8542,"ĠBaltimore":8543,"ĠDiscovery":8544,"Ġfunctional":8545,"Ġaluminum":8546,"ĠBerkshire":8547,"Ġdisease":8548,"ĠLucas":8549,"Â»)":8550,"ĠWayne":8551,"Ġpornographic":8552,"Ġregarded":8553,"éĽĨåĽ¢":8554,"Ġillustr":8555,"Ġkilometres":8556,"uisine":8557,"algam":8558,"ĠRalph":8559,"Ġveget":8560,"ĠUbisoft":8561,"49":8562,"Cap":8563,"TO":8564,"gr":8565,"king":8566,"national":8567,"oid":8568,"rill":8569,"rition":8570,"riger":8571,"sberg":8572,"Â®":8573,"æµ":8574,"ìĿ":8575,"esellschaft":8576,"Ġcrowd":8577,"enberg":8578,"Ġsun":8579,"Ġsex":8580,"Ġseen":8581,"Ġtheater":8582,"Ġbear":8583,"Ġbond":8584,"Ġports":8585,"Ġpeer":8586,"ĠCos":8587,"ĠCement":8588,"ĠSpe":8589,"ĠTro":8590,"ĠAV":8591,"ĠISP":8592,"ĠMS":8593,"ĠMuseum":8594,"ĠBend":8595,"utes":8596,"Ġhyd":8597,"ĠLead":8598,"ĠLima":8599,"ĠLarry":8600,"ĠGa":8601,"ĠGard":8602,"ĠFriend":8603,"ĠEth":8604,"empt":8605,"ĠHil":8606,"ĠWol":8607,"ĠWheel":8608,"ĠJenn":8609,"ĠJama":8610,"ĠKings":8611,"Ġrate":8612,"ĠStaff":8613,"ĠOri":8614,"osit":8615,"apes":8616,"odge":8617,"Ġcommerce":8618,"ãĥŃ":8619,"Ġenthus":8620,"Ġtransaction":8621,"produ":8622,"Ġalliance":8623,"Ġ43":8624,"Ġ46":8625,"ĠClar":8626,"ĠAdams":8627,"umbers":8628,"Ġprofits":8629,"ĠAmb":8630,"Ġdirected":8631,"Ġprocessors":8632,"ĠGuy":8633,"ĠBuses":8634,"Ġaccel":8635,"ĠMcL":8636,"uku":8637,"Ġ1904":8638,"Ġ1908":8639,"Ġ1909":8640,"Ġtopics":8641,"Ġsolely":8642,"Ġsurface":8643,"ĠSecond":8644,"Ġliterally":8645,"ĠSAP":8646,"Ġrefining":8647,"Ġpatients":8648,"Ġregulatory":8649,"Ġissue":8650,"ĠSamsung":8651,"Ġextended":8652,"ĠFreight":8653,"Ġcertification":8654,"Ġpremier":8655,"ĠRailroad":8656,"Ġinitials":8657,"ĠRhode":8658,"ĠKeith":8659,"ĠHalifax":8660,"ĠOmaha":8661,"ĠJonathan":8662,"ĠChampionship":8663,"ĠSunday":8664,"Ġearliest":8665,"stylized":8666,"Ġtablet":8667,"Ġsubjects":8668,"ĠChapter":8669,"ĠRestaurants":8670,"ĠGuangdong":8671,"atinum":8672,"Ġsuspended":8673,"Ġfigures":8674,"Ġlaser":8675,"Ġdisplays":8676,"ĠAdvertising":8677,"Ġtobacco":8678,"Ġumbrella":8679,"85":8680,"800":8681,"AB":8682,"Be":8683,"DO":8684,"Gen":8685,"NT":8686,"Pl":8687,"Pers":8688,"full":8689,"foot":8690,"prom":8691,"uels":8692,"Äĥ":8693,"É¡":8694,"×Ļ×":8695,"Ø³":8696,"æ¸":8697,"Ġtem":8698,"Ġtape":8699,"hest":8700,"Ġcit":8701,"Ġcass":8702,"enic":8703,"Ġsout":8704,"rele":8705,"ĠCourt":8706,"ĠTest":8707,"ĠTouch":8708,"ĠICA":8709,"ils":8710,"ĠMembers":8711,"Ġdental":8712,"ĠBass":8713,"ĠPap":8714,"idg":8715,"ĠFun":8716,"ĠNO":8717,"ĠNelson":8718,"ĠNacional":8719,"Ġnick":8720,"ĠDead":8721,"ĠDix":8722,"ĠDuke":8723,"Ġaspect":8724,"tress":8725,"ĠHann":8726,"ĠUN":8727,"ĠWare":8728,"quality":8729,"ĠJosh":8730,"Ġriver":8731,"ordable":8732,"apse":8733,"Ġalready":8734,"arge":8735,"Ġchart":8736,"angul":8737,"Ġaco":8738,"âĢľ":8739,"ockey":8740,"ãĥŀ":8741,"Ġ47":8742,"ĠCarn":8743,"Ġability":8744,"Ġbooking":8745,"Ġ6000":8746,"Ġ1942":8747,"ambo":8748,"ĠGuj":8749,"Ġpurchasing":8750,"ettes":8751,"Ð¸Ð½":8752,"Ġdecision":8753,"ĠITV":8754,"ĠImage":8755,"ĠMediterran":8756,"ĠPreviously":8757,"Ġpatents":8758,"Ġdelivering":8759,"ĠTwitter":8760,"Ġofferings":8761,"Ġgoing":8762,"Ġdistance":8763,"Ġbasic":8764,"Ġcontains":8765,"ĠHyundai":8766,"Ġselected":8767,"Ġsynd":8768,"ĠAÃ©re":8769,"Ġwarehous":8770,"ĠDynamics":8771,"Ġcooperation":8772,"Ġconference":8773,"built":8774,"Ġprecision":8775,"Ġbelongs":8776,"Ġdissolved":8777,"Ġhundreds":8778,"India":8779,"ĠNamib":8780,"ĠScandinavia":8781,"ĠMaurit":8782,"ĠMitchell":8783,"ĠPunj":8784,"ĠLloyd":8785,"Established":8786,"ĠTehran":8787,"ĠKuwait":8788,"After":8789,"Cola":8790,"Gu":8791,"MB":8792,"Max":8793,"friend":8794,"pts":8795,"zer":8796,"Ã«":8797,"Î½":8798,"×ķ×":8799,"à§":8800,"Ġx":8801,"inas":8802,"het":8803,"Ġflex":8804,"Ġwant":8805,"rog":8806,"ĠSqu":8807,"ĠSeb":8808,"ĠSeg":8809,"ĠSierra":8810,"ĠTS":8811,"ĠTÅį":8812,"ĠAce":8813,"ĠIan":8814,"ĠBT":8815,"etic":8816,"Ġhon":8817,"Ġhits":8818,"ĠLeeds":8819,"ĠGer":8820,"ĠRF":8821,"ĠRose":8822,"ĠFe":8823,"ĠFull":8824,"ĠNan":8825,"ĠEach":8826,"ĠDur":8827,"ĠHab":8828,"ĠHok":8829,"eville":8830,"agh":8831,"ĠKur":8832,"Ġrare":8833,"ĠSte":8834,"Ġconventional":8835,"ĠVest":8836,"oga":8837,"ails":8838,"oker":8839,"Ġplaces":8840,"enses":8841,"ensen":8842,"Ġcool":8843,"isse":8844,"rier":8845,"Ġworkforce":8846,"Ġassess":8847,"Ġ41":8848,"ĠTrib":8849,"ohn":8850,"Ġupd":8851,"ĠForum":8852,"Ġ100000":8853,"Ġdouble":8854,"ĠBarry":8855,"Ġ1907":8856,"Ġanalog":8857,"Ġshortened":8858,"à®¿":8859,"ĠMoroc":8860,"source":8861,"Ġconglomerates":8862,"Ġhelped":8863,"Ġutil":8864,"ĠHolid":8865,"ĠHolland":8866,"Ġmodeling":8867,"Ġreceivers":8868,"Ġpharmaceuticals":8869,"Ġsixth":8870,"Ġaffiliates":8871,"ĠTaiwanese":8872,"Ġaerial":8873,"Ġsuccessfully":8874,"...":8875,"ĠBanca":8876,"Ġboat":8877,"ĠSteven":8878,"Ġswit":8879,"Ġdocumentaries":8880,"ĠâĨĳ":8881,"Ġmeasured":8882,"Ġincreased":8883,"ĠAÃ©reas":8884,"ĠNavigation":8885,"Ġclosely":8886,"ĠSerbian":8887,"Ġticker":8888,"party":8889,"ĠRandom":8890,"Ġimprovement":8891,"ĠHorizon":8892,"Ġpotential":8893,"Ġbenefits":8894,"Ġä¸ŃåĽ½":8895,"Ġsensors":8896,"Norwegian":8897,"ĠGordon":8898,"ĠSaturday":8899,"MP":8900,"Mart":8901,"Tube":8902,"iol":8903,"iency":8904,"ienced":8905,"site":8906,"vo":8907,"wanda":8908,"zo":8909,"Ġè":8910,"Ġì":8911,"Ġ000":8912,"only":8913,"esc":8914,"Ġinternal":8915,"icts":8916,"Ġpick":8917,"Ġislands":8918,"ĠSor":8919,"ĠSig":8920,"ĠSag":8921,"ctor":8922,"ĠMW":8923,"ĠMate":8924,"ĠMak":8925,"ĠMort":8926,"ĠBattle":8927,"adia":8928,"Ġhig":8929,"Ġhours":8930,"Ġhims":8931,"ĠLic":8932,"ĠLord":8933,"ĠLans":8934,"ĠGaisha":8935,"ĠGÅįngsÄ«":8936,"ĠRoth":8937,"ĠFive":8938,"ĠFore":8939,"ĠNok":8940,"ĠNihon":8941,"Ġnam":8942,"ĠWave":8943,"ĠWinter":8944,"ounds":8945,"Ġhedge":8946,"ewater":8947,"ĠVoice":8948,"aku":8949,"Ġchall":8950,"Ġexcept":8951,"irection":8952,"ĠNorman":8953,"Ġadj":8954,"ĠShare":8955,"Ġroy":8956,"Ġformation":8957,"ashire":8958,"aze":8959,"ificial":8960,"Ġappliance":8961,"Ġamusement":8962,"teau":8963,"197":8964,"ĠReserve":8965,"Ġautomatic":8966,"Ġcontrovers":8967,"Ð¾Ðµ":8968,"ĠAllied":8969,"ĠManager":8970,"Ġquest":8971,"CAR":8972,"Ġpopularity":8973,"Ġ160":8974,"Ġbiom":8975,"ĠMontana":8976,"Ġoptions":8977,"Ġcharitable":8978,"Ġmarque":8979,"where":8980,"Ġsuburbs":8981,"iago":8982,"Ġtargeting":8983,"This":8984,"ĠDefence":8985,"ĠKarachi":8986,"Ġliquidation":8987,"ĠNortheast":8988,"Ġcontinuously":8989,"Ġsponsor":8990,"Ġcondition":8991,"ĠEconomic":8992,"ĠWatson":8993,"ĠBerkeley":8994,"ĠMonday":8995,"Ġmethods":8996,"ĠLancashire":8997,"ĠHistor":8998,"uttgart":8999,"idelity":9000,"ĠTunis":9001,"Ġdepartments":9002,"Ġmonopoly":9003,"Ġenforcement":9004,"Ġhighest":9005,"Ġhimself":9006,"OD":9007,"OSE":9008,"UA":9009,"awn":9010,"auc":9011,"bad":9012,"col":9013,"front":9014,"jet":9015,"mers":9016,"mill":9017,"pur":9018,"such":9019,"vik":9020,"wave":9021,"wiches":9022,"Ġer":9023,"onald":9024,"esh":9025,"Ġcand":9026,"Ġcuisine":9027,"arant":9028,"Ġsoul":9029,"Ġsequ":9030,"Ġfee":9031,"Ġfertiliz":9032,"Ġweap":9033,"rett":9034,"ĠCJ":9035,"ĠCra":9036,"ĠCream":9037,"ĠCoca":9038,"Ġmountain":9039,"elt":9040,"Ġlinks":9041,"Ġdating":9042,"urance":9043,"ady":9044,"uto":9045,"utures":9046,"Ġprogressive":9047,"ĠLane":9048,"ĠGrow":9049,"ĠGlo":9050,"ĠGaming":9051,"ĠRE":9052,"ĠEug":9053,"ĠHS":9054,"ĠHav":9055,"Ġthin":9056,"Ġgall":9057,"Ġgrid":9058,"evo":9059,"Ġright":9060,"Ġrace":9061,"Ġrides":9062,"ĠStuttgart":9063,"uder":9064,"umed":9065,"ĠVers":9066,"ĠVista":9067,"odia":9068,"rome":9069,"avian":9070,"arde":9071,"Ġrecruit":9072,"Ġacclaim":9073,"ĠBrighton":9074,"rics":9075,"iko":9076,"Ġ350":9077,"ĠMaritime":9078,"ollo":9079,"ĠTrack":9080,"ĠContract":9081,"Ġinterface":9082,"ĠPlatform":9083,"Ġever":9084,"resp":9085,"afÃ©":9086,"Ġincorpor":9087,"ĠElectro":9088,"Ġmove":9089,"Ġmakers":9090,"ĠBelarus":9091,"uxi":9092,"Ġsimul":9093,"Ġsignal":9094,"leton":9095,"Ġdoor":9096,"ĠPerformance":9097,"Ġ1903":9098,"Ġexperienced":9099,"ĠAndy":9100,"COM":9101,"à¤¿":9102,"ĠParker":9103,"Ġsolid":9104,"ĠSunny":9105,"Ġreflect":9106,"Ġrefriger":9107,"Ġpackage":9108,"ĠAdvis":9109,"ĠBurlington":9110,"Ġderiv":9111,"Ġmerchants":9112,"ĠBoys":9113,"ĠWellington":9114,"Ġtheatrical":9115,"ĠStanford":9116,"Ġclosing":9117,"Ġpoints":9118,"rooms":9119,"ĠRapid":9120,"Ġsmartphones":9121,"ĠCollins":9122,"ĠTheatre":9123,"elaide":9124,"Ġconsolidated":9125,"ĠAlfred":9126,"Ġgranted":9127,"ĠCircle":9128,"ĠSterling":9129,"Ġlatest":9130,"ĠCommodore":9131,"ĠPetersburg":9132,"Ġphotovoltaic":9133,"AI":9134,"AO":9135,"Acc":9136,"Con":9137,"HI":9138,"Japan":9139,"MT":9140,"Man":9141,"NE":9142,"NP":9143,"VR":9144,"Val":9145,"ae":9146,"bar":9147,"call":9148,"fare":9149,"oons":9150,"person":9151,"thes":9152,"ying":9153,"Ãī":9154,"ä¿":9155,"åŃ":9156,"esville":9157,"ener":9158,"eness":9159,"arest":9160,"asia":9161,"Ġpages":9162,"Ġpaint":9163,"rect":9164,"ĠCath":9165,"ĠTin":9166,"ĠTec":9167,"ĠTitan":9168,"user":9169,"ĠMD":9170,"ĠMega":9171,"Ġden":9172,"ĠBit":9173,"ĠBAE":9174,"amas":9175,"ĠRyan":9176,"ĠFerry":9177,"Ġgot":9178,"Ġheating":9179,"ĠeB":9180,"oses":9181,"Ġprime":9182,"ĠVinc":9183,"ogic":9184,"izen":9185,"obe":9186,"ighters":9187,"ante":9188,"ĠBrun":9189,"ocket":9190,"intosh":9191,"Ġregga":9192,"ĠPrint":9193,"Ġstory":9194,"ansa":9195,"Ġemployment":9196,"anners":9197,"ĠSpirit":9198,"ahoo":9199,"Ġ42":9200,"Ġ48":9201,"Ã©l":9202,"ramework":9203,"ĠBlock":9204,"Ġbookstore":9205,"itsu":9206,"Ġambul":9207,"tiles":9208,"ĠAtt":9209,"auer":9210,"ĠÐľ":9211,"cester":9212,"Ġdrives":9213,"ĠGuild":9214,"Ġpopulation":9215,"Ġ125":9216,"ĠSuz":9217,"Ġinstitute":9218,"Ġended":9219,"Ġtheme":9220,"Ġ1500":9221,"ĠMotorcy":9222,"Ġ1899":9223,"thetic":9224,"ĠAdvent":9225,"Ġ1885":9226,"ĠChev":9227,"Ġbehav":9228,"2008":9229,"Ġclaimed":9230,"Ġskate":9231,"Ġallowed":9232,"ĠCheng":9233,"Ġincreasing":9234,"Ġcheese":9235,"ĠRevolution":9236,"Ã¦r":9237,"Ġconditions":9238,"Ġbringing":9239,"Ġpharmac":9240,"ĠVehicles":9241,"ĠAlpha":9242,"ĠEnvironmental":9243,"Ġcurrency":9244,"ĠLithuania":9245,"rysler":9246,"Ġtrolley":9247,"ĠTasmania":9248,"ĠBoulder":9249,"ĠMediterranean":9250,"Comp":9251,"HP":9252,"cor":9253,"haps":9254,"mund":9255,"rie":9256,"uin":9257,"yond":9258,"Åŀ":9259,"ÏĤ":9260,"Ġord":9261,"eda":9262,"atrans":9263,"ench":9264,"aret":9265,"Ġsons":9266,"omics":9267,"Ġbill":9268,"Ġbodies":9269,"Ġpictures":9270,"ĠCart":9271,"ĠCav":9272,"ĠChester":9273,"ĠSL":9274,"ĠSong":9275,"ĠSearch":9276,"elle":9277,"ĠTX":9278,"ĠTi":9279,"ĠTed":9280,"ĠAmer":9281,"unch":9282,"unting":9283,"ĠME":9284,"ĠMack":9285,"ĠMGM":9286,"Ġdyn":9287,"ĠBoth":9288,"olec":9289,"ĠPL":9290,"ĠPeng":9291,"iden":9292,"ĠList":9293,"ĠLevel":9294,"ĠLower":9295,"ĠRut":9296,"Ġnort":9297,"ĠDiv":9298,"ĠDist":9299,"ĠDance":9300,"trad":9301,"Ġga":9302,"Ġgre":9303,"Ġanc":9304,"othes":9305,"esse":9306,"Ġventures":9307,"osen":9308,"ĠVA":9309,"ĠVic":9310,"ĠVern":9311,"ogether":9312,"ĠChand":9313,"Ġdiscontin":9314,"ancing":9315,"orship":9316,"ãĥ£":9317,"ĠSher":9318,"short":9319,"ĠProp":9320,"ĠThat":9321,"ermanent":9322,"aja":9323,"Ġcoaches":9324,"ĠTrin":9325,"Ġperiph":9326,"ĠAdelaide":9327,"Ġamateur":9328,"ĠPlus":9329,"ĠOriginal":9330,"ĠOracle":9331,"Ġ1943":9332,"Ġdirectory":9333,"ospel":9334,"ĠGuatem":9335,"ĠGeneration":9336,"ĠDeep":9337,"ĠJuan":9338,"ĠFrancis":9339,"Ġappoint":9340,"Ġexperiences":9341,"ĠGrill":9342,"à®Ł":9343,"Ġcommitted":9344,"Ġpackaged":9345,"ÐºÐ¾Ð¼":9346,"âĢĿ)":9347,"ĠFoundry":9348,"atellites":9349,"ĠVerk":9350,"ĠMoore":9351,"Ġcells":9352,"ĠPanama":9353,"Ġconcrete":9354,"Ġcrude":9355,"Ġphysicians":9356,"Ġemerged":9357,"Ġroller":9358,"ĠMitsui":9359,"Ġmunicipality":9360,"Ġperformed":9361,"Ġclosure":9362,"Ġtakeover":9363,"Ġinspection":9364,"ĠSantiago":9365,"Ġwooden":9366,"unnel":9367,"ĠUsers":9368,"ĠEpic":9369,"Ġhydroelectric":9370,"driven":9371,"Ġcertain":9372,"Ġpharmacy":9373,"ĠVoIP":9374,"ĠSpectrum":9375,"Ġcourse":9376,"Ġcommodity":9377,"ĠAhmed":9378,"controlled":9379,"Ġamplifiers":9380,"Persian":9381,"')":9382,"64":9383,"FI":9384,"FX":9385,"GP":9386,"KB":9387,"MD":9388,"NZ":9389,"def":9390,"fab":9391,"pos":9392,"rus":9393,"var":9394,"xi":9395,"É¾":9396,"Îº":9397,"Ùģ":9398,"Ùĩ":9399,"åĮ":9400,"Ġess":9401,"Ġult":9402,"Ġà¸":9403,"edo":9404,"Ġcast":9405,"Ġsour":9406,"itol":9407,"omon":9408,"Ġbridges":9409,"Ġfiles":9410,"Ġfitness":9411,"reb":9412,"ĠCarter":9413,"ĠCurrent":9414,"ĠSource":9415,"ĠTree":9416,"ĠMV":9417,"Ġdied":9418,"Ġdrop":9419,"ĠBaker":9420,"ĠPione":9421,"Ġtouring":9422,"ĠLA":9423,"ĠLak":9424,"ĠLater":9425,"ĠLocal":9426,"ĠLaunched":9427,"ĠRot":9428,"ĠFA":9429,"ĠFat":9430,"stra":9431,"ĠNa":9432,"ĠNut":9433,"ĠNairo":9434,"ĠDund":9435,"ĠDell":9436,"Ġgrain":9437,"Ġgaisha":9438,"otics":9439,"ĠWord":9440,"ĠWright":9441,"ĠJoy":9442,"ĠKay":9443,"ĠKum":9444,"ĠOg":9445,"ayan":9446,"Ġhect":9447,"artz":9448,"acent":9449,"iplin":9450,"ifications":9451,"obil":9452,"planes":9453,"ĠYang":9454,"munition":9455,"ĠAnch":9456,"Ġunderst":9457,"ãĥĹ":9458,"Ġcounter":9459,"Ġ52":9460,"Ġacquiring":9461,"Ġimporter":9462,"Ġ99":9463,"etti":9464,"Ġsimple":9465,"ittee":9466,"ĠCompagnie":9467,"ĠReuters":9468,"ĠMacintosh":9469,"Ġcommission":9470,"ĠBelgrade":9471,"ĠArabic":9472,"Ġpersonalized":9473,"onomous":9474,"ĠAdvance":9475,"Ġnoise":9476,"Ġmenu":9477,"à¯ģ":9478,"ĠGrove":9479,"Ġcheck":9480,"marine":9481,"Ġtranslation":9482,"Ġperforming":9483,"ĠBanque":9484,"Ġconcentrated":9485,"Ġconducts":9486,"Ġcircuits":9487,"Ġterritory":9488,"styled":9489,"Ġbenefit":9490,"ĠKirk":9491,"Ġalcoholic":9492,"Ġpreparation":9493,"Ġphilosoph":9494,"Ġvolunte":9495,"Ġwholesaler":9496,"ĠFurniture":9497,"ÑģÐºÐ¸Ð¹":9498,"ĠWorcester":9499,"ĠAlexandria":9500,"Ġscientists":9501,"Ġgreater":9502,"ĠNairobi":9503,"32":9504,"City":9505,"GS":9506,"ais":9507,"bau":9508,"fax":9509,"iable":9510,"joy":9511,"ls":9512,"listed":9513,"night":9514,"uy":9515,"wealth":9516,"è¨":9517,"ĠÙħ":9518,"anium":9519,"Ġtons":9520,"Ġterr":9521,"Ġcaus":9522,"Ġcycle":9523,"enge":9524,"Ġsnow":9525,"Ġsaid":9526,"icing":9527,"Ġpum":9528,"Ġpsych":9529,"ĠCR":9530,"ĠCanton":9531,"ĠSen":9532,"ĠTong":9533,"ĠTalk":9534,"Ġlength":9535,"ĠMaterial":9536,"Ġdone":9537,"Ġdirection":9538,"ĠBin":9539,"ĠBeg":9540,"ĠBenn":9541,"ĠBert":9542,"ĠBerm":9543,"ĠBonn":9544,"ĠBaby":9545,"amber":9546,"idian":9547,"cht":9548,"Ġhoc":9549,"ĠRol":9550,"ĠRaf":9551,"ĠRwanda":9552,"ĠFall":9553,"stage":9554,"Ġneg":9555,"Ġnever":9556,"ĠHerman":9557,"imal":9558,"aints":9559,"ĠKol":9560,"Ġrated":9561,"thing":9562,"ĠStat":9563,"ĠOman":9564,"Ġvon":9565,"ĠViv":9566,"izh":9567,"ĠChi":9568,"platform":9569,"Ġprovision":9570,"Ġspring":9571,"egro":9572,"ĠYok":9573,"ĠYahoo":9574,"onder":9575,"Ġoverall":9576,"ronics":9577,"Ġrot":9578,"emberg":9579,"Ġforming":9580,"ucester":9581,"ĠPrague":9582,"Ġ40000":9583,"Ġacquire":9584,"Ġimpact":9585,"ĠKingston":9586,"coming":9587,"commod":9588,"Ġdeep":9589,"Ġinterview":9590,"ĠAmiga":9591,"Ġ1944":9592,"ĠÐ°":9593,"ucks":9594,"Ġprocessor":9595,"ĠDean":9596,"Ġsignature":9597,"Ġqual":9598,"Ġblue":9599,"ĠHein":9600,"ĠKabushikigaisha":9601,"iscal":9602,"ships":9603,"ĠPete":9604,"Ġaffordable":9605,"Ġranking":9606,"Ġ1890":9607,"Ġ1893":9608,"ÃŃne":9609,"Ġrefers":9610,"Ġcovered":9611,"Ġmaritime":9612,"ducer":9613,"Ġskills":9614,"Ġconcert":9615,"eiro":9616,"Ġcopies":9617,"Ġagreed":9618,"Ġgraduate":9619,"Ġrequired":9620,"ĠUpper":9621,"Ġpropellers":9622,"Ġstructural":9623,"ĠWii":9624,"ĠCruises":9625,"ĠRaymond":9626,"Ð¿Ð°":9627,"ĠMovie":9628,"Ð½Ð¸Ñı":9629,"ĠSharp":9630,"Ġstylized":9631,"ãĥĥãĤ¯":9632,"ĠRestaurant":9633,"Ġweight":9634,"Ġdollars":9635,"ĠFilip":9636,"ĠWyoming":9637,"builder":9638,"ĠPrinceton":9639,"ĠAurora":9640,"ãĥĩãĤ£":9641,"Ġreserves":9642,"ĠBucharest":9643,"Ġgrapes":9644,"ĠMauritius":9645,"ĠGloucester":9646,"Ġgauge":9647,"ĠTrinidad":9648,"62":9649,"Roy":9650,"cut":9651,"cape":9652,"fire":9653,"hing":9654,"hra":9655,"hire":9656,"kes":9657,"mir":9658,"serv":9659,"song":9660,"see":9661,"uum":9662,"Ú©":9663,"ï¼":9664,"Ġif":9665,"onial":9666,"isa":9667,"Ġinside":9668,"Ġcran":9669,"Ġcris":9670,"Ġscoo":9671,"iced":9672,"Ġbath":9673,"Ġbilling":9674,"ĠCash":9675,"ĠCulture":9676,"ĠSAS":9677,"elve":9678,"ĠAR":9679,"iled":9680,"Ġlost":9681,"ĠMC":9682,"ĠMM":9683,"ĠBush":9684,"adium":9685,"ĠPure":9686,"ĠLem":9687,"ĠGem":9688,"ĠRas":9689,"lem":9690,"ĠFrid":9691,"ested":9692,"ĠInv":9693,"ĠNight":9694,"Ġnomin":9695,"ĠDNA":9696,"ĠHip":9697,"ĠHost":9698,"Ġgay":9699,"Ġgive":9700,"Ġgirl":9701,"ĠKrist":9702,"Ġrice":9703,"thansa":9704,"acuse":9705,"eware":9706,"Ġpromo":9707,"umes":9708,"ĠVI":9709,"ogo":9710,"ogurt":9711,"Ġowning":9712,"Ġspeak":9713,"ĠNewport":9714,"fort":9715,"ĠYour":9716,"oya":9717,"ikk":9718,"ãĥĵ":9719,"ãĥł":9720,"Ġyou":9721,"ahr":9722,"Ġimag":9723,"ĠPhys":9724,"ramento":9725,"ĠBlues":9726,"Ġupg":9727,"ĠGuine":9728,"ĠGuard":9729,"Ġgasoline":9730,"ĠBelfast":9731,"fordshire":9732,"ĠPartner":9733,"markets":9734,"Ġaudiences":9735,"Ġ1915":9736,"ĠEls":9737,"à®ķ":9738,"ÐµÐ½":9739,"ĠRoom":9740,"Ġsolo":9741,"ĠImag":9742,"rador":9743,"ĠSecret":9744,"Ġrailways":9745,"Ġlegisl":9746,"Ġflew":9747,"ĠFounder":9748,"ĠRoman":9749,"appy":9750,"Ġobtained":9751,"Ġsoundtr":9752,"Ġpronounced":9753,"ĠHyper":9754,"foundland":9755,"riage":9756,"ĠSonic":9757,"ĠUrugu":9758,"Ġoccas":9759,"Ġseafood":9760,"Ġbottles":9761,"ĠChemicals":9762,"ĠPlanet":9763,"Ġterminals":9764,"Ġtablets":9765,"cellence":9766,"Ġfrequency":9767,"Ġcultiv":9768,"Ġinventory":9769,"ĠSyracuse":9770,"Ġsandwiches":9771,"Ġcarrying":9772,"Ġrapidly":9773,"ĠPharma":9774,"ĠMunicipality":9775,"Ġconversion":9776,"ĠOlympic":9777,"ĠSudan":9778,"æĸ°":9779,"Ġrecreational":9780,"Ġtuning":9781,"Ġfolded":9782,"ÇĴuxi":9783,"ĠLebanon":9784,"Ġambient":9785,"Ġdeclared":9786,"iplinary":9787,"38":9788,"42":9789,"47":9790,"Austr":9791,"Line":9792,"ML":9793,"TH":9794,"TN":9795,"Today":9796,"WC":9797,"aud":9798,"len":9799,"lia":9800,"mi":9801,"not":9802,"oi":9803,"pet":9804,"sup":9805,"uates":9806,"vant":9807,"wen":9808,"zy":9809,"Ã°":9810,"ÅĦ":9811,"ÇĶ":9812,"Ðļ":9813,"ÑĦ":9814,"áŀ":9815,"æ°":9816,"Ġ00":9817,"Ġà¦":9818,"Ġtub":9819,"Ġcigar":9820,"aru":9821,"Ġsatellites":9822,"itro":9823,"Ġbetting":9824,"Ġwire":9825,"ĠCore":9826,"ĠCisco":9827,"Ġmolec":9828,"ĠSC":9829,"ĠSD":9830,"ĠTit":9831,"ĠTreas":9832,"ctic":9833,"Ġlab":9834,"Ġloy":9835,"ĠMission":9836,"ĠMaid":9837,"Ġdraw":9838,"ĠBun":9839,"ĠBMG":9840,"irie":9841,"etters":9842,"olly":9843,"ĠPf":9844,"ĠPix":9845,"ĠPune":9846,"ĠPerson":9847,"cho":9848,"Ġhum":9849,"Ġproc":9850,"ĠLoc":9851,"ĠLud":9852,"ĠGolf":9853,"ĠRac":9854,"ĠFL":9855,"standing":9856,"Ġninet":9857,"ĠDairy":9858,"ĠDiesel":9859,"ĠHutch":9860,"ĠHiro":9861,"Ġgood":9862,"ĠUtil":9863,"imo":9864,"ĠWA":9865,"ĠWa":9866,"ĠWings":9867,"ĠJung":9868,"Ġrub":9869,"Ġrac":9870,"ĠOber":9871,"isher":9872,"Ġeuro":9873,"osa":9874,"ogen":9875,"iza":9876,"ĠChuck":9877,"avor":9878,"Ġrecip":9879,"rah":9880,"rawn":9881,"berry":9882,"ĠNewark":9883,"ĠNewfoundland":9884,"anca":9885,"encia":9886,"Ġcreators":9887,"product":9888,"Ġretirement":9889,"ĠExt":9890,"issance":9891,"Ġinvestig":9892,"industr":9893,"ĠTrip":9894,"arma":9895,"ãĤ¿":9896,"Ġimprints":9897,"Ġaftermarket":9898,"ĠTelef":9899,"Ġperhaps":9900,"Ġedition":9901,"ĠMonter":9902,"ĠParad":9903,"ĠStudies":9904,"ASA":9905,"ĠHarvard":9906,"Ġcontracted":9907,"connect":9908,"Ġexperts":9909,"ĠMilton":9910,"ĠAtlas":9911,"Ġhelping":9912,"Ġ1898":9913,"erbai":9914,"otsw":9915,"Ġcombines":9916,"Ġ1889":9917,"Ġattempt":9918,"Ġtechno":9919,"asket":9920,"Ġdocuments":9921,"Ġfarms":9922,"iffe":9923,"Ġswitch":9924,"ĠJimmy":9925,"Ġcopyr":9926,"flow":9927,"Ġconsisted":9928,"There":9929,"Ġmunicipalities":9930,"ĠModern":9931,"Ġheritage":9932,"Ġpolitics":9933,"strong":9934,"Ġassistance":9935,"Ġdatabases":9936,"Ġconducted":9937,"ĠMobility":9938,"ĠNotable":9939,"Ġmeeting":9940,"ĠYouTube":9941,"Ġideas":9942,"Ġmillions":9943,"ĠFerro":9944,"ĠTobacco":9945,"Ġinvolvement":9946,"ythm":9947,"ĠTechnical":9948,"Ġprecious":9949,"Ġimplementation":9950,"powered":9951,"ceeded":9952,"ĠLufthansa":9953,"ĠEcu":9954,"ĠAnalytics":9955,"ĠCoventry":9956,"Ġjuice":9957,"æ¸¯":9958,"Ġaspects":9959,"Ġnamely":9960,"atransit":9961,"ĠPenguin":9962,"ĠPioneer":9963,"/)":9964,"By":9965,"Corp":9966,"PN":9967,"SW":9968,"cue":9969,"dal":9970,"dev":9971,"fre":9972,"fers":9973,"kh":9974,"mas":9975,"media":9976,"pop":9977,"ration":9978,"then":9979,"å»":9980,"ĠÙĦ":9981,"ĭ[":9982,"isen":9983,"Ġcab":9984,"Ġchem":9985,"arrow":9986,"alone":9987,"Ġwrestling":9988,"Ġpoor":9989,"ĠCI":9990,"ĠCin":9991,"ĠCine":9992,"Ġmand":9993,"ĠTier":9994,"ĠTake":9995,"ĠTax":9996,"ĠTodd":9997,"ĠAction":9998,"ĠIg":9999,"ĠIz":10000,"Ġliv":10001,"ĠMTV":10002,"irits":10003,"olt":10004,"ĠPS":10005,"ĠPool":10006,"ĠPath":10007,"ĠPorts":10008,"utic":10009,"Ġhus":10010,"ĠLor":10011,"ĠLiqu":10012,"ĠGam":10013,"ĠRud":10014,"ĠRover":10015,"ĠFern":10016,"ĠNon":10017,"ĠNiss":10018,"ĠNuclear":10019,"ĠDeal":10020,"ĠDHL":10021,"aba":10022,"ĠHat":10023,"ĠHas":10024,"ĠHert":10025,"Ġthus":10026,"porters":10027,"ĠKro":10028,"Ġvint":10029,"ewares":10030,"apest":10031,"Ġalum":10032,"Ġprest":10033,"ĠVin":10034,"ĠVent":10035,"ĠVIP":10036,"ĠUni":10037,"ibles":10038,"ĠChase":10039,"Ġbeyond":10040,"Ġaccommod":10041,"ĠYouth":10042,"ĠArlington":10043,"Ġarr":10044,"uala":10045,"ãĥĳ":10046,"ãĥŁ":10047,"uez":10048,"ĠProgress":10049,"ĠThr":10050,"ĠTher":10051,"rose":10052,"ĠMars":10053,"Ġtwelve":10054,"ĠConf":10055,"phy":10056,"ĠMoney":10057,"ĠâĢĭ[":10058,"Ġaccredited":10059,"ĠMini":10060,"ĠValue":10061,"ĠComputing":10062,"ĠRein":10063,"ĠGriff":10064,"Ġleases":10065,"ĠBreweries":10066,"Ġanalyt":10067,"Ġdiscip":10068,"Ġcompete":10069,"à¸£":10070,"Ġchanging":10071,"sourced":10072,"Ġinterested":10073,"Ġclassified":10074,"Ġguide":10075,"Ġ1895":10076,"Ġ1896":10077,"ÃŃk":10078,"ĠPCs":10079,"Ġrefinery":10080,"Ġmaintained":10081,"ĠSalv":10082,"Ġuniversal":10083,"ĠCapitol":10084,"Äģn":10085,"ĠAssociated":10086,"ĠEvans":10087,"ĠDVDs":10088,"ĠLabrador":10089,"ĠCruz":10090,"ĠChilean":10091,"wareness":10092,"Ġduo":10093,"ĠKaiser":10094,"ĠLaboratory":10095,"Ġcooperatives":10096,"Ġbroadcaster":10097,"Ġstyled":10098,"Ġblogs":10099,"Ġrooms":10100,"ĠHistory":10101,"mediate":10102,"Ġfailed":10103,"ĠRubber":10104,"Ġvenues":10105,"Ġbatteries":10106,"Ġfemale":10107,"Ġdiagnostic":10108,"à±į":10109,"Ġnutrition":10110,"ĠSacramento":10111,"ĠCommonwealth":10112,"ĠZagreb":10113,"ĠBrasil":10114,"ĠArriva":10115,"ĠGujarat":10116,"ĠNamibia":10117,"Ġflexible":10118,"ĠVernon":10119,"ĠGuatemala":10120,"Ġphilosophy":10121,"AG":10122,"Bar":10123,"Car":10124,"Currently":10125,"KP":10126,"aÃ±":10127,"boy":10128,"cons":10129,"deen":10130,"eor":10131,"faces":10132,"gro":10133,"has":10134,"nell":10135,"ska":10136,"tu":10137,"tz":10138,"ule":10139,"wers":10140,"Î¼":10141,"ç§":10142,"éģ":10143,"Ġaid":10144,"arf":10145,"Ġsew":10146,"Ġsized":10147,"itude":10148,"Ġbridge":10149,"Ġbread":10150,"Ġweather":10151,"Ġpension":10152,"rec":10153,"ĠCran":10154,"ĠCold":10155,"ĠCarm":10156,"Ġmeal":10157,"ĠSnow":10158,"ĠSym":10159,"ĠTick":10160,"ĠTerry":10161,"ĠAPI":10162,"ĠIM":10163,"Ġlim":10164,"ĠMine":10165,"ĠBord":10166,"ĠBee":10167,"ĠPad":10168,"ĠPul":10169,"ĠPick":10170,"channel":10171,"Ġhere":10172,"ĠGlobe":10173,"ĠRout":10174,"ĠRick":10175,"ĠRural":10176,"leas":10177,"ĠNV":10178,"ĠNott":10179,"ĠEld":10180,"ĠEuronext":10181,"abet":10182,"ecraft":10183,"ĠWu":10184,"agers":10185,"Ġstages":10186,"Ġ20000":10187,"eway":10188,"ipper":10189,"ĠVert":10190,"iov":10191,"Ġtractors":10192,"Ġplays":10193,"Ġresort":10194,"ĠShad":10195,"henburg":10196,"Ġcoordin":10197,"Ġemployer":10198,"ãĤ«":10199,"enny":10200,"Ġabove":10201,"Ġcentered":10202,"Ġseventh":10203,"Ġscr":10204,"ption":10205,"ĠMonten":10206,"ĠPars":10207,"ĠMidd":10208,"ĠEdge":10209,"uilder":10210,"ĠEstonian":10211,"Ð½Ñĭ":10212,"ĠRobinson":10213,"ĠRegister":10214,"Ġcareers":10215,"Ã¼ss":10216,"Ġlongest":10217,"Ġsportswear":10218,"ĠMilitary":10219,"Ġtechniques":10220,"Ġdestination":10221,"espoke":10222,"ĠCyber":10223,"ĠDonald":10224,"Ġboards":10225,"ĠProvider":10226,"Ġelements":10227,"Ġlaunching":10228,"ĠOrganisation":10229,"Share":10230,"ĠHungarian":10231,"ĠElek":10232,"Ġtickets":10233,"ĠAzerbai":10234,"Ġfeeder":10235,"äº¬":10236,"ĠMichel":10237,"Ġjobs":10238,"ĠBaden":10239,"Ġdeposit":10240,"Ġcommodities":10241,"ĠBeverly":10242,"ĠFrederick":10243,"Ġpilot":10244,"Ġanalyz":10245,"ĠNorsk":10246,"Ġeleven":10247,"Ġimmigrant":10248,"Ġminority":10249,"Ġcomparison":10250,"minster":10251,"ĠPrice":10252,"ĠTianjin":10253,"ĠDIY":10254,"æµ·":10255,"Ġacceler":10256,"Ġacoustic":10257,"ĠPunjab":10258,"ĠNokia":10259,"According":10260,"Ġskateboard":10261,"Ġdiscontinued":10262,"Ġhusband":10263,"33":10264,"600":10265,"BE":10266,"HD":10267,"LT":10268,"Me":10269,"PR":10270,"SG":10271,"Soci":10272,"To":10273,"bow":10274,"down":10275,"from":10276,"focus":10277,"hl":10278,"ju":10279,"lad":10280,"sson":10281,"ski":10282,"tte":10283,"¦Ļ":10284,"ÑĨ":10285,"ÙĤ":10286,"Ġels":10287,"Ġtechnolog":10288,"oni":10289,"oro":10290,"Ġcables":10291,"itomo":10292,"asaki":10293,"Ġbal":10294,"Ġfiscal":10295,"ĠCC":10296,"ĠCut":10297,"ĠChes":10298,"ĠSak":10299,"ĠSMS":10300,"ĠTu":10301,"ĠIV":10302,"Ġloud":10303,"Ġlapt":10304,"ĠMi":10305,"Ġdest":10306,"Ġdeg":10307,"ĠBab":10308,"ĠBou":10309,"ĠBesides":10310,"etime":10311,"child":10312,"Ġhour":10313,"Ġhair":10314,"ĠLy":10315,"ĠRent":10316,"ĠFlex":10317,"ĠFarms":10318,"Ġretained":10319,"stown":10320,"Ġforward":10321,"ivals":10322,"Ġnumbers":10323,"ĠDet":10324,"ĠDot":10325,"igur":10326,"iac":10327,"ĠHut":10328,"Ġgam":10329,"Ġanth":10330,"ĠWilm":10331,"aine":10332,"ĠJustin":10333,"ĠKid":10334,"ĠStu":10335,"ĠStorage":10336,"actor":10337,"Ġvent":10338,"aph":10339,"iston":10340,"Ġoriented":10341,"enda":10342,"Ġchip":10343,"avÃŃk":10344,"Ġbegin":10345,"Ġcoming":10346,"raul":10347,"eball":10348,"pring":10349,"Ġshould":10350,"ĠArbor":10351,"Ġads":10352,"ãĥ§":10353,"formally":10354,"Ġtelev":10355,"urray":10356,"Ġ54":10357,"Ġflu":10358,"Ã©bec":10359,"etsu":10360,"Ġimmun":10361,"ennium":10362,"ĠScreen":10363,"Ġvariet":10364,"ĠFlug":10365,"Ġscreens":10366,"Ġamalgam":10367,"ĠOrb":10368,"Ġediting":10369,"190":10370,"auce":10371,"Ġresearchers":10372,"ĠÐ¡":10373,"ĠResource":10374,"ĠDeut":10375,"Ġolder":10376,"Ġportals":10377,"ĠLeisure":10378,"Ġdozen":10379,"Ġquoted":10380,"ĠSuites":10381,"Ġstocks":10382,"ĠRobb":10383,"Ġhandled":10384,"Ġhandmade":10385,"ĠAndhra":10386,"ĠMerced":10387,"Ġcompetitions":10388,"Ġ110":10389,"thernet":10390,"Ġguides":10391,"Ġ1897":10392,"Ġcapabilities":10393,"Ġplanted":10394,"Ġpatient":10395,"Ġphotos":10396,"Ġbuyers":10397,"Ġartistic":10398,"ĠPakistani":10399,"Ġreduce":10400,"ĠFreedom":10401,"ĠBenj":10402,"Ġ225":10403,"ĠHighway":10404,"Ġbelow":10405,"Ġswim":10406,"ĠOliver":10407,"Ġbegun":10408,"founders":10409,"Ġsynthes":10410,"iasts":10411,"Ġidentify":10412,"ĠToys":10413,"Ġtranslated":10414,"ĠClassics":10415,"ĠHunter":10416,"Ġfederally":10417,"ĠUlt":10418,"Ġpipeline":10419,"going":10420,"ĠRolls":10421,"ĠHoney":10422,"Ġboxes":10423,"Atlantic":10424,"ĠReykj":10425,"ĠGraham":10426,"Originally":10427,"Ġseasonal":10428,"ĠFisher":10429,"ĠFleet":10430,"Ġbattery":10431,"Ġvertical":10432,"ĠBarbara":10433,"ĠPorter":10434,"ĠTools":10435,"ĠIntegrated":10436,"ĠTerritory":10437,"ĠBurger":10438,"ĠPhillips":10439,"ĠViacom":10440,"ĠGothenburg":10441,"ĠNewspapers":10442,"Ġtextiles":10443,"ĠFormula":10444,"Ġspectrum":10445,"Ġrequirements":10446,"Ġenthusiasts":10447,"ĠMateo":10448,"ĠEugene":10449,"ĠHSBC":10450,"respond":10451,"ĠCatholic":10452,"fabrik":10453,"ĠBermuda":10454,"39":10455,"79":10456,"Bel":10457,"CN":10458,"First":10459,"Greek":10460,"HA":10461,"Hangul":10462,"Ne":10463,"Out":10464,"RD":10465,"Trans":10466,"Vision":10467,"aon":10468,"bing":10469,"cat":10470,"cend":10471,"di":10472,"fly":10473,"gom":10474,"gio":10475,"haus":10476,"iw":10477,"ieb":10478,"lit":10479,"limited":10480,"name":10481,"names":10482,"oitation":10483,"selling":10484,"ÅĤ":10485,"ÉĲ":10486,"ÏĢ":10487,"Ðľ":10488,"×¨":10489,"á»":10490,"ä½":10491,"eria":10492,"erie":10493,"Ġtro":10494,"Ġtable":10495,"Ġteen":10496,"Ġawareness":10497,"eder":10498,"itled":10499,"Ġwave":10500,"Ġpor":10501,"Ġpen":10502,"ĠCand":10503,"ĠCec":10504,"ĠSad":10505,"ĠSuf":10506,"ĠSey":10507,"ĠIber":10508,"ĠMillion":10509,"ĠMead":10510,"ĠMaj":10511,"Ġdaugh":10512,"ĠBP":10513,"ĠBible":10514,"ĠBeck":10515,"adh":10516,"ĠPy":10517,"ĠPac":10518,"amo":10519,"uttle":10520,"Ġhire":10521,"Ġhobby":10522,"ĠLut":10523,"ĠLey":10524,"ĠLeh":10525,"ĠLyon":10526,"ĠGA":10527,"ĠGy":10528,"ĠRO":10529,"ĠNun":10530,"ĠNest":10531,"ĠEthernet":10532,"ĠDB":10533,"ĠDart":10534,"ĠHear":10535,"Ġthink":10536,"Ġgun":10537,"uba":10538,"iment":10539,"ĠWines":10540,"agan":10541,"ainless":10542,"ĠKun":10543,"ĠKem":10544,"Ġrating":10545,"Ġraw":10546,"ĠOTC":10547,"Ġey":10548,"Ġver":10549,"anks":10550,"Ġheads":10551,"Ġrecycling":10552,"Ġexternal":10553,"ĠYe":10554,"ĠBry":10555,"ĠBrass":10556,"Ġens":10557,"Ġenabled":10558,"Ġclothes":10559,"ikh":10560,"ĠNorfolk":10561,"Ġadap":10562,"Ġmainstream":10563,"ãĥ¡":10564,"Ġunions":10565,"ĠCool":10566,"awi":10567,"awk":10568,"Ġyach":10569,"ansk":10570,"roscop":10571,"Ġacting":10572,"ĠBlood":10573,"ĠCenters":10574,"ĠTeleg":10575,"Ġprepaid":10576,"urgery":10577,"ĠPlaza":10578,"Ġ78":10579,"tek":10580,"Ġprofiles":10581,"ĠÐ·":10582,"Ġartificial":10583,"Ġbrewer":10584,"ĠQuest":10585,"ĠQuant":10586,"ĠMalta":10587,"ĠHarold":10588,"gling":10589,"Ġsigning":10590,"Ġscheme":10591,"ĠMinato":10592,"Ø§ÙĦ":10593,"Ð½Ð°":10594,"Ġgeneric":10595,"ĠEmploy":10596,"Ġresponsibility":10597,"ĠGray":10598,"ĠTransportes":10599,"Ġremov":10600,"à®®":10601,"Ġ170":10602,"ĠTurin":10603,"ĠBroadcast":10604,"Ġregularly":10605,"ĠLibya":10606,"Ġprincip":10607,"Ġimported":10608,"Ġrecognised":10609,"ttemberg":10610,"olidated":10611,"Ġtextbooks":10612,"Ġsynthetic":10613,"ãĥ¼ãĥ«":10614,"ĠiPad":10615,"Ġfriendly":10616,"Ġgrade":10617,"Commerce":10618,"ĠSumitomo":10619,"Ġdescribes":10620,"Ġneighbour":10621,"Ġadults":10622,"ĠPeruvian":10623,"ĠNorton":10624,"Ġbroadcasters":10625,"ĠButler":10626,"ĠJewish":10627,"ĠCustomer":10628,"Quest":10629,"ĠScandinavian":10630,"ĠVehicle":10631,"Ġcutting":10632,"Ġvertically":10633,"Ġscholarly":10634,"ĠÐŀÐĲÐŀ":10635,"onymous":10636,"Ð°Ð²Ð¾Ð´":10637,"ĠIntelligence":10638,"ĠAberdeen":10639,"Headquartered":10640,"ĠNichol":10641,"ĠStafford":10642,"produced":10643,"ĠAÃ©reos":10644,"ĠMorocco":10645,"Ġadjacent":10646,"Ġweapons":10647,"Ġspeakers":10648,"ĠGuinea":10649,"¦Ļæ¸¯":10650,"5000":10651,"Ag":10652,"BN":10653,"Br":10654,"Euro":10655,"Go":10656,"Hz":10657,"IV":10658,"KK":10659,"Met":10660,"Re":10661,"Trad":10662,"UL":10663,"case":10664,"cope":10665,"din":10666,"iop":10667,"life":10668,"pite":10669,"teen":10670,"them":10671,"wire":10672,"íķ":10673,"Ġur":10674,"Ġtact":10675,"Ġtill":10676,"icom":10677,"Ġbrain":10678,"Ġfra":10679,"Ġwing":10680,"Ġpian":10681,"ioni":10682,"iones":10683,"ĠCed":10684,"ĠCay":10685,"ĠTap":10686,"ĠTek":10687,"Ġdark":10688,"uru":10689,"urer":10690,"ĠBil":10691,"ĠBish":10692,"ĠBott":10693,"ĠBody":10694,"ĠBetter":10695,"irus":10696,"ĠPent":10697,"idance":10698,"Ġhunting":10699,"Ġprob":10700,"ĠLanguage":10701,"ĠLakes":10702,"ĠGat":10703,"ĠGun":10704,"ĠRights":10705,"ĠFantasy":10706,"esto":10707,"Ġreport":10708,"Ġretain":10709,"ĠNak":10710,"ĠNathan":10711,"ĠEg":10712,"ĠEt":10713,"eca":10714,"ĠHum":10715,"ĠHarm":10716,"Ġgrand":10717,"otech":10718,"ĠWend":10719,"ĠWrestling":10720,"ĠKap":10721,"ĠStam":10722,"Ġconj":10723,"ifts":10724,"ibl":10725,"ĠChicken":10726,"plus":10727,"Ġrecomm":10728,"Ġexported":10729,"Ġexerc":10730,"Ġsubstant":10731,"Ġplug":10732,"ourney":10733,"Ġparties":10734,"ĠAlso":10735,"italia":10736,"Ġuns":10737,"Ġyet":10738,"Ġcouncil":10739,"Ġretired":10740,"iversary":10741,"ahl":10742,"Ġflow":10743,"Ġnewly":10744,"Ġequival":10745,"ĠPhone":10746,"Ġcommercialization":10747,"ĠCarr":10748,"ĠCarac":10749,"ĠClothing":10750,"Ġupper":10751,"Ġreligious":10752,"ylinder":10753,"ĠItalia":10754,"ĠMonro":10755,"195":10756,"Ġlaws":10757,"Ġpassed":10758,"ĠEditor":10759,"Ġblock":10760,"Ġadvertisements":10761,"ĠHeights":10762,"Ġbackground":10763,"Ġhandles":10764,"ÐµÐ»":10765,"ÑĢÐ°":10766,"ĠRedwood":10767,"ĠMilk":10768,"ĠLauder":10769,"ĠPrec":10770,"Ġphotograph":10771,"ÐºÐ°":10772,"ĠChel":10773,"Ġextension":10774,"ĠCycle":10775,"Ġ1876":10776,"ĠAutomation":10777,"ĠAutomobiles":10778,"ĠStevens":10779,"Ġcontaining":10780,"ÉĻr":10781,"Ġconcerts":10782,"Ġresulted":10783,"Ġlasted":10784,"Ġsuburban":10785,"Ġcosts":10786,"Ġcivilian":10787,"Ġdetection":10788,"Ã¼rttemberg":10789,"Ġå¤":10790,"Ġgraduates":10791,"Ġfrag":10792,"Ġframes":10793,"Ġstartups":10794,"ÐĲÐ":10795,"Ġreaders":10796,"Ġsheet":10797,"ĠTerra":10798,"Ġpanel":10799,"Ġpanels":10800,"ĠÄ°":10801,"ĠHartford":10802,"ĠAdditional":10803,"ãĥ³ãĤ°":10804,"Ġathletes":10805,"Ġstarring":10806,"Ġvenue":10807,"Ġfacilitate":10808,"ĠTraining":10809,"Ġseats":10810,"ĠSocieties":10811,"Ġcorner":10812,"Ġpossible":10813,"ĠVeolia":10814,"ĠBavaria":10815,"estrial":10816,"ĠGuitars":10817,"ĠHousing":10818,"ĠFriends":10819,"ĠLansing":10820,"ĠForeign":10821,"Ġchalleng":10822,"ĠVincent":10823,"Ġappointed":10824,"Ġpumps":10825,"Ġrubber":10826,"Ġvintage":10827,"Ġprestigious":10828,"ĠNottingham":10829,".'":10830,".;":10831,"48":10832,"Card":10833,"FD":10834,"Im":10835,"Is":10836,"Mon":10837,"NN":10838,"OP":10839,"RF":10840,"TP":10841,"UM":10842,"bred":10843,"cre":10844,"die":10845,"fi":10846,"jiang":10847,"lot":10848,"mand":10849,"mid":10850,"oil":10851,"venture":10852,"wind":10853,"wyn":10854,"´Ø±":10855,"Â°":10856,"Äĩ":10857,"Ñĩ":10858,"çĻ":10859,"èı":10860,"éĩ":10861,"éī":10862,"Ġtag":10863,"orial":10864,"orrow":10865,"atically":10866,"Ġog":10867,"aris":10868,"aling":10869,"Ġsan":10870,"icies":10871,"Ġbeta":10872,"Ġfestival":10873,"Ġpistol":10874,"ĠChem":10875,"ĠCIS":10876,"ĠSv":10877,"ĠSus":10878,"ĠSut":10879,"ĠSuc":10880,"ĠSind":10881,"ĠSelf":10882,"ĠSleep":10883,"ĠTE":10884,"ĠTb":10885,"ĠTul":10886,"ĠTarget":10887,"ĠTyne":10888,"uster":10889,"ĠMiz":10890,"ĠMiy":10891,"ĠBetween":10892,"ĠPB":10893,"ĠPon":10894,"ĠPic":10895,"ĠPlym":10896,"amar":10897,"Ġtouch":10898,"Ġ(âĢľ":10899,"ĠLan":10900,"ĠLov":10901,"ĠGill":10902,"ĠGamb":10903,"ĠRound":10904,"ĠFa":10905,"ĠFel":10906,"sted":10907,"Ġforce":10908,"ĠED":10909,"Ġnan":10910,"ĠDal":10911,"iguation":10912,"ĠHew":10913,"ĠHob":10914,"ĠHÅį":10915,"oco":10916,"ĠUM":10917,"imum":10918,"ĠWag":10919,"ĠWald":10920,"Ġste":10921,"ession":10922,"ĠKle":10923,"ĠKarn":10924,"ĠStars":10925,"Ġvary":10926,"oshi":10927,"ewoo":10928,"Ġprinter":10929,"illar":10930,"ĠChocolate":10931,"Ġlocomotive":10932,"egov":10933,"Ġshown":10934,"ĠYÇĴuxi":10935,"ĠBridg":10936,"Ġplastics":10937,"ologne":10938,"anco":10939,"eyer":10940,"Ġspecialists":10941,"ĠAlumin":10942,"ependence":10943,"Ġ30000":10944,"ĠShort":10945,"ĠShah":10946,"shirts":10947,"Ġyogurt":10948,"encer":10949,"ĠThough":10950,"prof":10951,"prov":10952,"ĠBanks":10953,"Ġ58":10954,"riel":10955,"Ġassurance":10956,"elsk":10957,"Ġ450":10958,"ferred":10959,"ĠPhot":10960,"ickers":10961,"Ġcommercially":10962,"ĠScan":10963,"ohl":10964,"ĠTransmission":10965,"Ġupload":10966,"Ġ66":10967,"Ġmerge":10968,"Ġ72":10969,"Ġ76":10970,"Ġ737":10971,"ĠGreens":10972,"Ġnonfiction":10973,"ĠÐł":10974,"ambers":10975,"ambiguation":10976,"yder":10977,"Ġaccessible":10978,"spec":10979,"Ġparatransit":10980,"ĠHarbour":10981,"Ġmonitors":10982,"ĠBarr":10983,"ĠAbout":10984,"Ġleased":10985,"Ġcompetes":10986,"Ġpolicies":10987,"ĠGlen":10988,"Ġdealers":10989,"Ġlegend":10990,"ĠMontgom":10991,"2013":10992,"ĠDouble":10993,"Ġinstant":10994,"ĠConsolidated":10995,"Ġrepresentation":10996,"Ġpressure":10997,"ĠTwin":10998,"ĠDirectors":10999,"Ġcompletely":11000,"ophone":11001,"ä¸ī":11002,"Ã¤r":11003,"Ġpaperback":11004,"à¦¾":11005,"Ġskin":11006,"ĠRelations":11007,"DSL":11008,"Ġreplacement":11009,"ĠGroc":11010,"Ġparking":11011,"ĠColombo":11012,"Ġpasta":11013,"ĠSummer":11014,"Ġlaboratories":11015,"Ġliquidated":11016,"ĠMultimedia":11017,"ĠPopular":11018,"Ġcompilations":11019,"brook":11020,"ĠKyoto":11021,"Ġconferences":11022,"Ġcorrespond":11023,"ĠFuji":11024,"Ġeditorial":11025,"ĠLowe":11026,"Ġdispos":11027,"Ġfrequently":11028,"ĠSomers":11029,"Ġathletic":11030,"ĠWelsh":11031,"ĠBombay":11032,"ĠNapa":11033,"ĠFootball":11034,"gorith":11035,"Ġcaters":11036,"Ġtherapy":11037,"ĠGazprom":11038,"ĠMonster":11039,"Ġtrailers":11040,"governmental":11041,"ĠSebast":11042,"ĠCraig":11043,"ĠSunnyvale":11044,"Ġreggae":11045,"Ġbehavior":11046,"Ġultimately":11047,"ÃŃneas":11048,"Ð¿Ð°Ð½Ð¸Ñı":11049,"ĠNissan":11050,"ĠMontenegro":11051,"ĠMercedes":11052,"ĠReykjavÃŃk":11053,"namese":11054,"Ġequivalent":11055,"ĠMontgomery":11056,".).":11057,"44":11058,"76":11059,"Af":11060,"CS":11061,"Cent":11062,"CEO":11063,"Cont":11064,"Dutch":11065,"FJ":11066,"HC":11067,"LS":11068,"OM":11069,"RG":11070,"SSE":11071,"Up":11072,"direct":11073,"hand":11074,"hall":11075,"kar":11076,"liam":11077,"oS":11078,"pass":11079,"posed":11080,"rin":11081,"uv":11082,"yu":11083,"Ãµ":11084,"Ø¯":11085,"Øµ":11086,"âĨĳ":11087,"æī":11088,"Ġicon":11089,"anmar":11090,"Ġtre":11091,"Ġtarg":11092,"Ġtennis":11093,"esb":11094,"esco":11095,"isch":11096,"Ġcy":11097,"Ġcred":11098,"Ġcandy":11099,"Ġcotton":11100,"Ġbespoke":11101,"Ġface":11102,"Ġwa":11103,"Ġpoll":11104,"ĠCul":11105,"ĠCode":11106,"Ġmall":11107,"ĠSid":11108,"ĠSelect":11109,"ĠSector":11110,"elines":11111,"Ġlands":11112,"Ġlives":11113,"Ġletter":11114,"ĠMI":11115,"ĠBor":11116,"ĠBond":11117,"ĠBath":11118,"ĠPip":11119,"Ġhired":11120,"ĠLiv":11121,"ĠLost":11122,"ĠLah":11123,"ĠLamb":11124,"ĠLump":11125,"ĠLCD":11126,"ĠGlob":11127,"ĠGurg":11128,"ĠRoh":11129,"ĠRiga":11130,"ĠFargo":11131,"ĠFras":11132,"ĠFighting":11133,"Ġnurs":11134,"ĠDennis":11135,"abeth":11136,"ĠHers":11137,"ĠWyn":11138,"ĠWalth":11139,"eves":11140,"ĠJob":11141,"ĠKuala":11142,"oped":11143,"acc":11144,"ewhere":11145,"ublabel":11146,"owner":11147,"ibe":11148,"ĠCherry":11149,"plate":11150,"ighth":11151,"Ġspirit":11152,"egel":11153,"ĠBrat":11154,"ĠAli":11155,"ĠAlger":11156,"electronics":11157,"Ġentry":11158,"ĠThorn":11159,"Ġtransm":11160,"Ġ50000":11161,"azi":11162,"ĠSouthwest":11163,"riott":11164,"anna":11165,"anne":11166,"ĠScar":11167,"Ġsellers":11168,"Ġammunition":11169,"Ġrelating":11170,"Ġbuilders":11171,"Ġgovernmental":11172,"Ġprocessed":11173,"ĠStudent":11174,"ĠJaneiro":11175,"ĠMidland":11176,"ĠMidwestern":11177,"ĠAngola":11178,"ĠXi":11179,"ĠSuite":11180,"Ġblood":11181,"iji":11182,"Ġfranchis":11183,"ĠMaced":11184,"à¤°":11185,"à¸Ń":11186,"Ġplaying":11187,"ĠBroadway":11188,"Ġ1892":11189,"borg":11190,"adeshi":11191,"Ġcollapse":11192,"ĠRocket":11193,"ĠLouisville":11194,"Ġ1888":11195,"Ġcasino":11196,"ĠCrystal":11197,"ĠIPTV":11198,"Ġ1870":11199,"ĠÃħ":11200,"ĠMoz":11201,"ĠKhan":11202,"Ġpurposes":11203,"Ġdetect":11204,"ĠReview":11205,"Ġintelligent":11206,"Ġtheaters":11207,"ĠSeveral":11208,"Ġauthorized":11209,"Ġsilicon":11210,"Ġproposed":11211,"ĠCharlie":11212,"Ġrapper":11213,"Univers":11214,"Ġstructured":11215,"ĠLegend":11216,"Ġclinics":11217,"Ġviewers":11218,"ĠApplied":11219,"Ġcharging":11220,"ĠFarmers":11221,"Ġachieve":11222,"Ġveterans":11223,"ĠIrving":11224,"Ġbroadcasts":11225,"Ġpotato":11226,"Ġsnacks":11227,"à¥į":11228,"Ġfinally":11229,"Ġbelonging":11230,"ĠPenins":11231,"ĠStarted":11232,"ĠProcessing":11233,"edding":11234,"Ġdominant":11235,"ĠBosnia":11236,"Ġforums":11237,"Ġreissues":11238,"ĠAgricultural":11239,"ĠInnovation":11240,"ĠAlbania":11241,"ĠKelly":11242,"Ġearned":11243,"Ġserial":11244,"Ġefficient":11245,"nolds":11246,"Ġprototype":11247,"ĠSlovenia":11248,"ĠATMs":11249,"Ġconcession":11250,"ĠBeyond":11251,"Portug":11252,"growing":11253,"ĠHerzegov":11254,"ĠWarehouse":11255,"Ġacclaimed":11256,"Ġhectares":11257,"Ġloyalty":11258,"Ġprocurement":11259,"ĠEcuador":11260,"ĠDeutsch":11261,"Ġtargets":11262,"ĠGurgaon":11263,"ĠWaltham":11264,"ĠHerzegovina":11265,"1000":11266,"83":11267,"Benz":11268,"From":11269,"Rec":11270,"Su":11271,"Us":11272,"VI":11273,"WÃ¼rttemberg":11274,"bn":11275,"company":11276,"coun":11277,"gas":11278,"garde":11279,"home":11280,"iors":11281,"non":11282,"oj":11283,"since":11284,"size":11285,"wal":11286,"zon":11287,"zone":11288,"Ø·":11289,"åº":11290,"å½":11291,"çī":11292,"éĵ":11293,"Ġtask":11294,"atial":11295,"ando":11296,"icia":11297,"omi":11298,"Ġboots":11299,"Ġfellow":11300,"Ġwin":11301,"ĠCG":11302,"ĠCT":11303,"ĠCater":11304,"ĠCafe":11305,"ĠCologne":11306,"Ġmy":11307,"Ġmechan":11308,"ĠSet":11309,"ĠSide":11310,"ĠAj":11311,"ĠAOL":11312,"Ġlobby":11313,"Ġlearn":11314,"ĠMO":11315,"ĠMint":11316,"ĠMoor":11317,"Ġdial":11318,"ĠBj":11319,"utory":11320,"Ġhar":11321,"Ġhim":11322,"Ġherb":11323,"ĠGT":11324,"ĠGain":11325,"ĠGay":11326,"ĠGang":11327,"ĠRT":11328,"ĠRab":11329,"ĠRÃ©":11330,"ĠFX":11331,"ĠFur":11332,"ĠFinal":11333,"Ġrehab":11334,"ivan":11335,"ĠInst":11336,"ĠInner":11337,"ĠEye":11338,"ĠEUR":11339,"emy":11340,"abil":11341,"ĠHem":11342,"ĠHank":11343,"ĠHey":11344,"ĠHaven":11345,"Ġthirty":11346,"ĠWik":11347,"agne":11348,"Ġstable":11349,"Ġstainless":11350,"essed":11351,"essors":11352,"ĠSteak":11353,"ĠOMX":11354,"acon":11355,"acre":11356,"Ġaltern":11357,"Ġalgorith":11358,"ĠVill":11359,"ĠVice":11360,"obi":11361,"illon":11362,"ugos":11363,"ĠChong":11364,"ĠChrysler":11365,"Ġchap":11366,"quarters":11367,"Ġbeef":11368,"Ġaccept":11369,"Ġexists":11370,"oves":11371,"Ġshot":11372,"Ġsubmarine":11373,"ĠBright":11374,"abling":11375,"ourmet":11376,"oyd":11377,"Ġcompact":11378,"enswear":11379,"tainer":11380,"ĠCoaches":11381,"ĠShand":11382,"forming":11383,"eeing":11384,"Ġjack":11385,"Ġcrew":11386,"process":11387,"Ġcoatings":11388,"Ġrelevant":11389,"issue":11390,"rior":11391,"Ġautonomous":11392,"ĠTram":11393,"Ġlistings":11394,"ĠWestminster":11395,"Ġpowerful":11396,"Ġautomaker":11397,"Ġ95":11398,"Ġminutes":11399,"ĠKongsberg":11400,"glasses":11401,"æłªå¼ıä¼ļç¤¾ãĤ":11402,"ĠDrive":11403,"ije":11404,"ĠWho":11405,"China":11406,"Ġ15000":11407,"Ġ1400":11408,"Ġdealership":11409,"ĠScotts":11410,"Ġturned":11411,"Ġrepresentatives":11412,"ĠContent":11413,"Ġload":11414,"ĠIPO":11415,"Ġredirect":11416,"Ġtypical":11417,"Ġstationery":11418,"ĠÃĸ":11419,"ĠAccount":11420,"ĠHerbert":11421,"Ġdistingu":11422,"Ġelement":11423,"dular":11424,"ĠWalker":11425,"onnell":11426,"Ãłng":11427,"Ġvirtualization":11428,"ĠCopper":11429,"RAM":11430,"Ġraising":11431,"ĠCasino":11432,"ĠBangladeshi":11433,"Ã¼rk":11434,"Ġtaxi":11435,"ĠJosÃ©":11436,"ĠColombian":11437,"ĠPeace":11438,"ĠTrue":11439,"ĠSynd":11440,"Ġcomposer":11441,"ĠMachinery":11442,"ĠHaiti":11443,"ĠArmstrong":11444,"Ġcontinuing":11445,"ĠChampion":11446,"Ġvendors":11447,"ĠSpringfield":11448,"ĠMurphy":11449,"ĠBulgarian":11450,"ĠTobago":11451,"Ġaggregates":11452,"Ġ9001":11453,"ĠJacksonville":11454,"Ġä¸Ńåľĭ":11455,"Ġfabrication":11456,"Ġlinking":11457,"Ø§Øª":11458,"Ġreturned":11459,"ĠTheatres":11460,"Ġturbines":11461,"ĠZhÅįng":11462,"ĠHitachi":11463,"ĠLagos":11464,"Ġseeks":11465,"ĠZambia":11466,"ehrs":11467,"ĠHelicopter":11468,"ĠCollective":11469,"ĠLotus":11470,"ĠSofia":11471,"Ġarrang":11472,"Ġambulance":11473,"ĠFilipino":11474,"ĠFriday":11475,"ĠUruguay":11476,"focused":11477,"Ġloudspe":11478,"themed":11479,"ĠPlymouth":11480,"ĠLumpur":11481,"36":11482,"41":11483,"55":11484,"89":11485,"AK":11486,"During":11487,"Gold":11488,"Med":11489,"ND":11490,"New":11491,"Over":11492,"OTC":11493,"UC":11494,"VS":11495,"Ware":11496,"YS":11497,"ZSE":11498,"bin":11499,"four":11500,"guns":11501,"hill":11502,"hua":11503,"kÅįng":11504,"lock":11505,"mobile":11506,"tion":11507,"wise":11508,"walk":11509,"wheel":11510,"ËĮ":11511,"ÏĦ":11512,"à³":11513,"æ´":11514,"éĥ":11515,"anal":11516,"Ġtemporary":11517,"heed":11518,"Ġast":11519,"Ġaka":11520,"ederation":11521,"Ġintern":11522,"ataka":11523,"alon":11524,"aland":11525,"alam":11526,"Ġsizes":11527,"Ġsauce":11528,"Ġsublabel":11529,"oment":11530,"Ġfare":11531,"Ġpermanent":11532,"rown":11533,"ĠCup":11534,"ĠCour":11535,"ĠCock":11536,"Ġmeg":11537,"Ġmatch":11538,"ĠSears":11539,"ĠTD":11540,"ĠAub":11541,"ĠAkt":11542,"usts":11543,"usual":11544,"Ġlenses":11545,"ĠMust":11546,"ĠMats":11547,"ĠMusical":11548,"ĠBec":11549,"ĠBug":11550,"ĠBorough":11551,"ammed":11552,"chin":11553,"Ġhaul":11554,"ĠLuz":11555,"ĠGear":11556,"ĠGren":11557,"ĠGene":11558,"ĠRI":11559,"ĠRus":11560,"ivia":11561,"ĠNOR":11562,"ĠEy":11563,"ĠEasy":11564,"ĠDol":11565,"ĠDim":11566,"ĠDong":11567,"ĠDai":11568,"ĠDry":11569,"igen":11570,"trade":11571,"ĠHir":11572,"ĠHÃ¡ng":11573,"Ġgospel":11574,"ĠUz":11575,"ĠWes":11576,"ĠWed":11577,"ĠWiz":11578,"aga":11579,"ĠJes":11580,"ĠKor":11581,"ĠKras":11582,"ĠKnowledge":11583,"Ġrh":11584,"Ġride":11585,"ĠStory":11586,"Ġheav":11587,"Ġeye":11588,"ewear":11589,"umn":11590,"ifer":11591,"izations":11592,"izable":11593,"izabeth":11594,"Ġchosen":11595,"avi":11596,"avo":11597,"avod":11598,"Ġspelled":11599,"Ġtrip":11600,"Ġtrillion":11601,"ĠYa":11602,"assy":11603,"iku":11604,"peer":11605,"ãĥī":11606,"ĠShield":11607,"ĠShoes":11608,"shaw":11609,"Ġrose":11610,"ĠZe":11611,"ĠZo":11612,"ĠThink":11613,"Ġcoin":11614,"Ġ57":11615,"Ġaged":11616,"ĠUSB":11617,"Ġfilmmaker":11618,"Ġworkshop":11619,"Ġtwin":11620,"Ġimports":11621,"Ġfocuss":11622,"ĠCole":11623,"Ġintention":11624,"Ġperf":11625,"ĠClick":11626,"ĠForces":11627,"ĠOrion":11628,"Ġprofile":11629,"ĠCounties":11630,"ĠAmman":11631,"Ġincub":11632,"ĠGeoff":11633,"Ġanniversary":11634,"Ġpreserv":11635,"Ġadding":11636,"Ġdriving":11637,"ĠGuide":11638,"ĠJane":11639,"olve":11640,"olvo":11641,"Ġmeters":11642,"Ġtitled":11643,"Ġquant":11644,"ĠItaliana":11645,"ĠRobin":11646,"Ġgenerate":11647,"ĠElizabeth":11648,"TAR":11649,"à¸²":11650,"kei":11651,"Ġ1891":11652,"Ġcombining":11653,"Ġ1883":11654,"Ġmaintaining":11655,"iconductors":11656,"ĠWilhel":11657,"Ø±Ø§ÙĨ":11658,"ĠHeritage":11659,"Ġpresented":11660,"Ġhomebu":11661,"banken":11662,"EST":11663,"Ġbeliev":11664,"ĠMillennium":11665,"Ġphysician":11666,"ĠMyanmar":11667,"Ġoriginating":11668,"ĠBasin":11669,"Ġhistorically":11670,"ĠØ¨":11671,"Ġfinanced":11672,"Ġgradually":11673,"Ġframe":11674,"ĠShopping":11675,"Ġcomposers":11676,"Ġmathem":11677,"ĠSpecialty":11678,"ĠMulti":11679,"ĠHospitality":11680,"ĠDaewoo":11681,"åľĺ":11682,"ĠOptim":11683,"Ġimproving":11684,"Ġexecution":11685,"Ġrespective":11686,"eldorf":11687,"Formerly":11688,"Ġinstrumentation":11689,"Ġsalads":11690,"Ġbuyouts":11691,"hibition":11692,"Ġinvolves":11693,"à¹Ģ":11694,"oroughbred":11695,"Ġcelebrated":11696,"ĠReynolds":11697,"ĠLiberia":11698,"Ġrelationships":11699,"Ġlinked":11700,"ĠLincolnshire":11701,"ĠCardiff":11702,"ĠGuangzhou":11703,"éĽĨåľĺ":11704,"Ġeffort":11705,"ĠArchitects":11706,"ĠServer":11707,"ĠBudapest":11708,"ĠBombard":11709,"ĠLisbon":11710,"ĠCertified":11711,"ĠMcDonald":11712,"ĠMaple":11713,"Ġgoverned":11714,"Ġtimep":11715,"ĠLeonard":11716,"Ġfibre":11717,"Ġregistration":11718,"ĠMedicine":11719,"Ġreduced":11720,"Ġencourage":11721,"ĠViking":11722,"Ġcitizens":11723,"released":11724,"Ġwarehousing":11725,"Japanese":11726,"Ġterrestrial":11727,"Ġcrisis":11728,"ĠHirosh":11729,"Ġcopyright":11730,"Ġdisciplines":11731,"éģĵ":11732,"ĠAzerbaijan":11733,"ĠWilmington":11734,"ĠStuart":11735,"ãĥ§ãĥ³":11736,"ĠBenjamin":11737,"ĠLauderdale":11738,"liament":11739,"ĠLahore":11740,"Portuguese":11741,"95":11742,"FP":11743,"Finn":11744,"IX":11745,"JSC":11746,"Lab":11747,"Pol":11748,"RB":11749,"Vo":11750,"Will":11751,"bone":11752,"bird":11753,"corp":11754,"gel":11755,"iper":11756,"kom":11757,"log":11758,"named":11759,"pub":11760,"rated":11761,"rug":11762,"sion":11763,"vol":11764,"Ìģ":11765,"à½":11766,"å¯":11767,"åĬ":11768,"æ©":11769,"éļ":11770,"Ġë":11771,"Ġà°":11772,"inth":11773,"invest":11774,"Ġtrance":11775,"onna":11776,"Ġale":11777,"Ġocean":11778,"enburg":11779,"arr":11780,"ario":11781,"asi":11782,"astr":11783,"asks":11784,"omatic":11785,"Ġbad":11786,"Ġbaby":11787,"Ġfict":11788,"ĠCob":11789,"ĠCrow":11790,"ĠCIT":11791,"Ġmills":11792,"Ġmortg":11793,"ĠSens":11794,"ĠSME":11795,"ĠTir":11796,"ĠToll":11797,"ĠTurb":11798,"ĠAK":11799,"ĠAvi":11800,"ĠAaron":11801,"ĠIsh":11802,"ente":11803,"Ġletters":11804,"ĠMans":11805,"ĠMortgage":11806,"Ġdess":11807,"Ġduty":11808,"urk":11809,"uries":11810,"ĠBing":11811,"ĠBiz":11812,"ĠBeh":11813,"ĠBilly":11814,"ĠPed":11815,"Ġhamburg":11816,"ĠLit":11817,"ĠLing":11818,"ĠLike":11819,"ĠLED":11820,"ĠGMA":11821,"ĠRs":11822,"ĠRust":11823,"ĠRivers":11824,"ĠRica":11825,"ĠFuel":11826,"ĠFolk":11827,"sten":11828,"Ġforces":11829,"ĠEid":11830,"ĠDag":11831,"ĠDover":11832,"ĠDocu":11833,"ĠDÃ¼ss":11834,"emin":11835,"Ġgamb":11836,"Ġgiving":11837,"Ġans":11838,"otion":11839,"Ġsteak":11840,"ĠJar":11841,"ĠKw":11842,"ĠKiss":11843,"Ġcondom":11844,"Ġconstitut":11845,"ĠOvers":11846,"Ġearth":11847,"acom":11848,"osis":11849,"ipl":11850,"Ġserviced":11851,"ogue":11852,"izu":11853,"izers":11854,"ĠChall":11855,"ĠEns":11856,"Ġtrips":11857,"Ġdisk":11858,"anto":11859,"antas":11860,"ultane":11861,"Ġcompat":11862,"Ġcompared":11863,"ffen":11864,"ĠArrow":11865,"ĠArctic":11866,"overeign":11867,"ãĥĲ":11868,"ãĥĽ":11869,"Ġunified":11870,"show":11871,"shoot":11872,"Ġyard":11873,"Ġsupplement":11874,"anny":11875,"ĠSpA":11876,"ĠSpark":11877,"Ã©al":11878,"ãĤ½":11879,"inners":11880,"oha":11881,"Ġsmel":11882,"Ġmerging":11883,"ĠPlanning":11884,"tein":11885,"Ġ8000":11886,"Ġstring":11887,"ĠÐ£":11888,"ĠResort":11889,"Ġprogramme":11890,"Ġdrivers":11891,"loo":11892,"ĠAnglo":11893,"ĠMald":11894,"ĠMalawi":11895,"ĠXL":11896,"ooting":11897,"ĠDeer":11898,"ĠEden":11899,"ĠApollo":11900,"Ġpromotional":11901,"Ġavant":11902,"à¸Ļ":11903,"ĠMiles":11904,"uchi":11905,"Ġclasses":11906,"Ġ2500":11907,"Ġ1894":11908,"Stock":11909,"Ġlegally":11910,"Ġtravelers":11911,"Ġcombine":11912,"Ġissuing":11913,"Ġphotographic":11914,"Ġ1886":11915,"Ġ1887":11916,"Ġdemise":11917,"Ġassociates":11918,"Ġassociations":11919,"Ġcontrollers":11920,"Ġpractition":11921,"Ġobtain":11922,"Ġ1873":11923,"TEL":11924,"ĠOperator":11925,"ĠArtist":11926,"Ġdistillery":11927,"ĠProvident":11928,"weight":11929,"who":11930,"Ġcontainers":11931,"ĠRichardson":11932,"IATA":11933,"Ġfilter":11934,"ĠFunds":11935,"ĠSEHK":11936,"Ġsafe":11937,"Ġliquor":11938,"Ġraise":11939,"ĠBrooks":11940,"Ġmeasure":11941,"ĠSuppl":11942,"Ġpositions":11943,"Ġyounger":11944,"ĠDhaka":11945,"ĠFamous":11946,"Ġagreements":11947,"ĠNigerian":11948,"ĠClassic":11949,"ĠCampus":11950,"Ġmattress":11951,"Ġconcentrates":11952,"ĠLegal":11953,"Ġcritic":11954,"hanol":11955,"ĠSafety":11956,"Ġshuttle":11957,"ĠShipbuilding":11958,"Ġkinds":11959,"ĠNikkei":11960,"ĠHispan":11961,"ĠNickel":11962,"ĠBraun":11963,"ĠPearl":11964,"ĠPearson":11965,"ĠLynch":11966,"ĠProtocol":11967,"ĠBloomberg":11968,"ĠTrucks":11969,"ĠArchitecture":11970,"Ġvolunt":11971,"ĠErnst":11972,"anthrop":11973,"Ġefficiency":11974,"speaking":11975,"ĠOtto":11976,"ĠMargaret":11977,"Ġencompasses":11978,"ĠDollar":11979,"å·¥æ¥Ń":11980,"Ġconceived":11981,"Ġdifficulties":11982,"ĠPrairie":11983,"ĠWoolworth":11984,"ĠAlbany":11985,"called":11986,"ĠMaterials":11987,"songwriter":11988,"Ġpromoter":11989,"Ġoccasional":11990,"ĠSalvador":11991,"Ġelsewhere":11992,"ĠSuffolk":11993,"Ġconjunction":11994,"ĠCaracas":11995,"éīĦ":11996,"ĠKarnataka":11997,"ĠHÃ¡ngkÅįng":11998,"ĠBombardier":11999,"Ġmortgages":12000,"ĠDÃ¼sseldorf":12001,"43":12002,"86":12003,"93":12004,"AZ":12005,"Box":12006,"El":12007,"France":12008,"LO":12009,"Mal":12010,"NB":12011,"NR":12012,"Sch":12013,"UB":12014,"WT":12015,"YX":12016,"bs":12017,"cal":12018,"ii":12019,"iott":12020,"lies":12021,"list":12022,"mons":12023,"mitted":12024,"oqu":12025,"pi":12026,"py":12027,"rite":12028,"zig":12029,"Ã¹":12030,"Ïĥ":12031,"Ð¡":12032,"×ľ":12033,"åĲ":12034,"æĬĢ":12035,"anj":12036,"Ġtech":12037,"Ġtire":12038,"onics":12039,"hey":12040,"Ġaway":12041,"atis":12042,"atts":12043,"Ġcod":12044,"Ġcann":12045,"Ġster":12046,"Ġsurgical":12047,"Ġbid":12048,"Ġbureau":12049,"Ġfutures":12050,"Ġframework":12051,"Ġpow":12052,"Ġpuzz":12053,"Ġpottery":12054,"rex":12055,"ĠCond":12056,"ĠCyr":12057,"ĠCraw":12058,"ĠSF":12059,"ĠSW":12060,"ĠSit":12061,"ĠSerg":12062,"ĠSach":12063,"ĠSax":12064,"elly":12065,"ĠTat":12066,"ĠTosh":12067,"ĠABS":12068,"Ġlib":12069,"Ġlinger":12070,"ĠMud":12071,"ĠMaz":12072,"ĠMCA":12073,"Ġdur":12074,"ĠBI":12075,"ĠBark":12076,"ĠBrans":12077,"ĠBalk":12078,"ĠBuzz":12079,"ados":12080,"ĠPos":12081,"ĠPav":12082,"ĠPte":12083,"ĠPicture":12084,"ĠPsych":12085,"amily":12086,"cha":12087,"Ġhang":12088,"ĠLob":12089,"ĠLook":12090,"ĠLars":12091,"ĠGust":12092,"ĠGoods":12093,"ĠRing":12094,"ĠRotter":12095,"leys":12096,"ĠFC":12097,"ĠFon":12098,"ĠFis":12099,"ĠFifth":12100,"ĠFitness":12101,"strom":12102,"ĠNZ":12103,"ĠNations":12104,"ĠEk":12105,"ĠDad":12106,"ĠDram":12107,"ema":12108,"ĠHend":12109,"ĠHack":12110,"ĠHope":12111,"ĠHappy":12112,"ĠWoods":12113,"Ġstay":12114,"essions":12115,"ĠJen":12116,"ĠKD":12117,"ĠKad":12118,"ĠKids":12119,"Ġrent":12120,"Ġrend":12121,"ulations":12122,"ĠStream":12123,"ĠOR":12124,"arton":12125,"Ġvill":12126,"ĠVul":12127,"ĠVolvo":12128,"ellation":12129,"illance":12130,"aves":12131,"Ġspirits":12132,"allel":12133,"Ġexc":12134,"Ġexporter":12135,"eger":12136,"ĠBrain":12137,"ologist":12138,"ologists":12139,"Ġspecialise":12140,"Ġpartially":12141,"iker":12142,"acher":12143,"ĠAnne":12144,"ãĥ¥":12145,"ĠCoop":12146,"shin":12147,"ĠThird":12148,"Ġcoins":12149,"ĠPreston":12150,"Ġ56":12151,"ĠSpare":12152,"ĠSpencer":12153,"ĠMarin":12154,"operated":12155,"ĠNorthampton":12156,"ĠFranch":12157,"Ġimplements":12158,"ĠSwitch":12159,"Ġprevent":12160,"Ġseller":12161,"phere":12162,"Ġeval":12163,"ullivan":12164,"Ġedge":12165,"Ġeditors":12166,"1970":12167,"Ġstrength":12168,"sea":12169,"ĠÐº":12170,"ĠÐĳ":12171,"Ġannu":12172,"Ġdriven":12173,"Ġbrewed":12174,"Ġdomest":12175,"ĠQuÃ©bec":12176,"ĠLeo":12177,"atti":12178,"Ġcontracting":12179,"ĠBarn":12180,"ĠEstates":12181,"contract":12182,"ieth":12183,"Ø§Ø±":12184,"Ġgenerators":12185,"ĠCompet":12186,"Ġfranchising":12187,"ĠEmerson":12188,"ĠAerop":12189,"ĠInvestors":12190,"verse":12191,"ĠImp":12192,"ĠAtlant":12193,"veillance":12194,"ĠPartnership":12195,"ĠEngineers":12196,"2011":12197,"Ġoption":12198,"âĢĿ.":12199,"Ġcollectible":12200,"Ġcollectively":12201,"ĠSimp":12202,"ĠConnection":12203,"Ã¶n":12204,"ĠContin":12205,"ĠVerizon":12206,"2009":12207,"ĠActivision":12208,"ĠÃĺ":12209,"Ġpioneers":12210,"ROM":12211,"ÉĻËĪ":12212,"ĠDistributors":12213,"Ġ1867":12214,"Ġcasualty":12215,"Ġinstallations":12216,"Space":12217,"Ġbreed":12218,"ĠCreated":12219,"Ġnorthwest":12220,"Ġdistricts":12221,"criptions":12222,"ĠGoodman":12223,"Ġtranslates":12224,"zeug":12225,"ĠCitizens":12226,"ĠWorkshop":12227,"Ġauthorities":12228,"Ġranges":12229,"Ġrevived":12230,"Ġcircuit":12231,"ĠOptical":12232,"Ġmodular":12233,"visual":12234,"ĠDevon":12235,"ĠHarrison":12236,"ĠButter":12237,"çĶµ":12238,"ĠÅĮ":12239,"Ġholidays":12240,"Ġthousand":12241,"Ġmedicines":12242,"ĠCustomers":12243,"Ġradios":12244,"Ġvacuum":12245,"ĠCuban":12246,"Ġforestry":12247,"ĠNoble":12248,"Ġdubbed":12249,"Ġwheels":12250,"ĠReading":12251,"ĠLexington":12252,"Ġdistinctive":12253,"maty":12254,"Ġanalyze":12255,"ĠFalcon":12256,"ĠExperience":12257,"ÉĳËĲ":12258,"ĠMohammed":12259,"amples":12260,"ĠClayton":12261,"ĠHelicopters":12262,"ĠPowell":12263,"ystery":12264,"Ġadvocacy":12265,"Ġreinsurance":12266,"ĠTallinn":12267,"Canada":12268,"ĠHughes":12269,"ĠJamaica":12270,"Ġtemper":12271,"Ġsoutheast":12272,"ĠICAO":12273,"millan":12274,"Ġcandid":12275,"Ġrecruitment":12276,"Ġderivatives":12277,"ĠRafael":12278,"Ġscooters":12279,"Ġnominated":12280,"ĠPersonal":12281,"asketball":12282,"ĠGriffin":12283,"ç§ĳ":12284,"Ġfraud":12285,"ĠYÇĴuxiÃłn":12286,"ĠSomerset":12287,"ĠFraser":12288,"Ġheavily":12289,"Ġfictional":12290,"Ġgambling":12291,"Ġpractitioners":12292,"ĠHispanic":12293,"ĠBranson":12294,"Fl":12295,"KT":12296,"Ltd":12297,"Now":12298,"Time":12299,"VAC":12300,"days":12301,"ghan":12302,"hat":12303,"jord":12304,"lar":12305,"lic":12306,"lie":12307,"length":12308,"mm":12309,"pir":12310,"qing":12311,"ÄŁ":12312,"É¨":12313,"Î¯":12314,"åĪ":12315,"åķ":12316,"æ±":12317,"æ²":12318,"è£":12319,"Ġes":12320,"Ł³":12321,"Ġtoll":12322,"Ġinject":12323,"Ġinaug":12324,"aton":12325,"Ġcinemas":12326,"icip":12327,"Ġfusion":12328,"Ġfuels":12329,"Ġwall":12330,"Ġpool":12331,"reets":12332,"ĠCly":12333,"ĠCod":12334,"ĠCrit":12335,"Ġmob":12336,"Ġmiss":12337,"ĠSU":12338,"ĠSul":12339,"ĠSap":12340,"ĠSee":12341,"ĠSeal":12342,"ĠSino":12343,"ĠSeas":12344,"ĠTM":12345,"ĠTO":12346,"ĠTrom":12347,"ĠTogether":12348,"ĠAP":12349,"entieth":12350,"iley":12351,"Ġlik":12352,"ĠMell":12353,"ĠMik":12354,"ĠMMA":12355,"Ġdam":12356,"iri":12357,"eti":12358,"etics":12359,"ĠPast":12360,"ĠPinn":12361,"utral":12362,"chip":12363,"church":12364,"Ġhors":12365,"ĠLen":12366,"ĠGib":12367,"ĠGiant":12368,"ĠRhe":12369,"ĠFen":12370,"ĠFine":12371,"ĠFay":12372,"ĠFashion":12373,"ĠFidelity":12374,"Ġforec":12375,"ivate":12376,"ĠNI":12377,"ĠNine":12378,"ĠNSE":12379,"ĠNature":12380,"ĠEU":12381,"ĠEarly":12382,"ĠERP":12383,"ecycle":12384,"trading":12385,"ĠHR":12386,"ĠHid":12387,"ĠHors":12388,"ĠHern":12389,"ĠHorse":12390,"owe":12391,"ocon":12392,"oti":12393,"ĠWich":12394,"ĠWomen":12395,"ĠWeather":12396,"quar":12397,"quet":12398,"Ġstamp":12399,"ĠKas":12400,"ĠKill":12401,"Ġrich":12402,"tha":12403,"than":12404,"through":12405,"Ġ200000":12406,"ĠOz":12407,"ervices":12408,"osure":12409,"ogram":12410,"ograp":12411,"ells":12412,"ĠUnlike":12413,"obili":12414,"Ġindoor":12415,"class":12416,"ighty":12417,"Ġacid":12418,"Ġcomed":12419,"Ġcomment":12420,"oked":12421,"Ġtrends":12422,"oven":12423,"Ġshoo":12424,"ĠBron":12425,"Ġenjoy":12426,"Ġplatinum":12427,"Ġspeciality":12428,"Ġresellers":12429,"Ġrescue":12430,"ĠArnold":12431,"ĠAns":12432,"Ġconservation":12433,"ĠSherman":12434,"shops":12435,"ĠZero":12436,"Ġ1850":12437,"ĠPrin":12438,"ĠPrize":12439,"Ġsupplements":12440,"Ã©s":12441,"Ġopin":12442,"Ġprevention":12443,"ĠAdministr":12444,"embly":12445,"Ġ77":12446,"Ġrestoration":12447,"ĠAtomic":12448,"Ġ88":12449,"rowave":12450,"ĠNationale":12451,"Ġdress":12452,"icester":12453,"Ġconsultants":12454,"Ġparents":12455,"ĠQuad":12456,"Ð°Ð»":12457,"Ġmonet":12458,"Ġsimultane":12459,"ĠLeicester":12460,"ĠAcqu":12461,"ĠDrag":12462,"ĠValencia":12463,"ungs":12464,"Ġgenerations":12465,"Ġcontinental":12466,"ĠCompos":12467,"à®¾":12468,"ĠMacmillan":12469,"ÐµÑĤ":12470,"Ġ1300":12471,"Ġ1100":12472,"Ġ1600":12473,"Ġpolice":12474,"century":12475,"ĠSunrise":12476,"Ġguarant":12477,"Ã³w":12478,"ĠChristchurch":12479,"onoma":12480,"ĠShep":12481,"Ã¸y":12482,"ĠAdventure":12483,"Ġexploitation":12484,"Ġvalued":12485,"Ġenvironmentally":12486,"ĠPostal":12487,"Ġassociate":12488,"uzu":12489,"Ġ1879":12490,"Ġdebit":12491,"Ġeconomics":12492,"Ġcollaborative":12493,"Ġcatalogs":12494,"branding":12495,"Ġfinished":12496,"Ġpredict":12497,"ricket":12498,"ãĤ¹æłªå¼ıä¼ļç¤¾":12499,"Ġoversees":12500,"ĠCarlos":12501,"ĠCommittee":12502,"Ġdetail":12503,"Ġdeterm":12504,"werke":12505,"Ġzone":12506,"ĠBreak":12507,"Ġprominence":12508,"ĠEducational":12509,"ĠWorking":12510,"ĠSchools":12511,"Ġmiddleware":12512,"ĠProjects":12513,"ĠLaser":12514,"Ġassisted":12515,"ifying":12516,"Ġrevolution":12517,"ĠJefferson":12518,"ĠHardware":12519,"ĠApplication":12520,"Ġprofitable":12521,"Ġjournalist":12522,"Ġmerchandising":12523,"ĠRenew":12524,"Ġinitiatives":12525,"ĠICT":12526,"ĠLevy":12527,"ĠRapids":12528,"ĠVenezuelan":12529,"Ġprotective":12530,"Ġcelebrity":12531,"ĠAffairs":12532,"Ġbreakfast":12533,"ÑģÑĤÐ²":12534,"ĠEnergi":12535,"Ġradi":12536,"Ġsandwich":12537,"Ġpaints":12538,"Ġprepared":12539,"Ġdominated":12540,"Ġphilanthrop":12541,"finance":12542,"Ġserious":12543,"design":12544,"Ġdiagnostics":12545,"ĠPepper":12546,"Ã©rale":12547,"Ġextraction":12548,"Ġencompass":12549,"ĠCameron":12550,"Ġlooking":12551,"Ġdrama":12552,"Ġsunglasses":12553,"Ġhydraul":12554,"Ġcassette":12555,"Ġswitches":12556,"ĠeBay":12557,"Ġpharmacies":12558,"Royce":12559,"ĠÙĦÙĦ":12560,"ĠKroger":12561,"ĠShadow":12562,"Ð½ÑĭÐ¹":12563,"Ġtelevisions":12564,"Ġvarieties":12565,"Ġdaughter":12566,"Ġensure":12567,"mandu":12568,"Ġpistols":12569,"specific":12570,"Ġlingerie":12571,"31":12572,"Ab":12573,"Ap":12574,"DT":12575,"JR":12576,"KS":12577,"LA":12578,"Mobile":12579,"Network":12580,"Per":12581,"QL":12582,"UI":12583,"Web":12584,"aan":12585,"bie":12586,"bek":12587,"cover":12588,"come":12589,"eans":12590,"hour":12591,"iS":12592,"kel":12593,"master":12594,"nut":12595,"nik":12596,"public":12597,"zi":12598,"à·":12599,"åĭ":12600,"æĶ":12601,"onents":12602,"orama":12603,"Ġcanc":12604,"Ġcrafts":12605,"eners":12606,"arin":12607,"alem":12608,"Ġsend":12609,"Ġsleep":12610,"Ġbrick":12611,"Ġfifty":12612,"Ġpure":12613,"ĠCM":12614,"ĠCork":12615,"ĠCant":12616,"Ġmust":12617,"Ġmother":12618,"Ġmaps":12619,"ĠTang":12620,"ĠTire":12621,"ĠTYO":12622,"ĠAre":12623,"enta":12624,"Ġlittle":12625,"Ġlesb":12626,"ĠMig":12627,"ĠMade":12628,"ĠMurray":12629,"Ġdig":12630,"uras":12631,"ĠBV":12632,"ĠBod":12633,"ĠBillion":12634,"ĠBene":12635,"ĠBald":12636,"ĠBoots":12637,"ader":12638,"ĠPend":12639,"amer":12640,"uten":12641,"Ġtoward":12642,"idges":12643,"ĠLund":12644,"ĠLAN":12645,"ĠFul":12646,"ĠFerr":12647,"ĠFont":12648,"Ġforty":12649,"lying":12650,"ĠEven":12651,"ĠDow":12652,"ĠDaw":12653,"ĠDie":12654,"train":12655,"tridge":12656,"Ġones":12657,"ĠHath":12658,"Ġgives":12659,"imi":12660,"otÃ¡":12661,"ĠWide":12662,"agic":12663,"ĠJR":12664,"ĠKaw":12665,"ĠKyr":12666,"ĠStro":12667,"ĠStyle":12668,"ĠStorm":12669,"Ġeasy":12670,"Ġviol":12671,"osc":12672,"rants":12673,"Ġalways":12674,"ĠVac":12675,"ifa":12676,"ĠChan":12677,"ĠChart":12678,"enders":12679,"avour":12680,"Ġspanning":12681,"Ġacute":12682,"allurgical":12683,"mantec":12684,"ĠNewton":12685,"eby":12686,"Ġtrusts":12687,"ovi":12688,"Ġbusinessmen":12689,"orning":12690,"ĠAlleg":12691,"ĠAlmaty":12692,"Ġbanka":12693,"ĠCanal":12694,"ensing":12695,"ensity":12696,"ĠArena":12697,"Ġartis":12698,"Ġunusual":12699,"ĠShim":12700,"Ġroof":12701,"Ġtransition":12702,"uca":12703,"Ġwellness":12704,"ĠPrest":12705,"Ġengagement":12706,"Ġorganised":12707,"anni":12708,"ĠSpot":12709,"ĠMarath":12710,"ĠMarriott":12711,"Ġflies":12712,"olla":12713,"ixt":12714,"ãĤº":12715,"ohama":12716,"ĠQing":12717,"ĠQantas":12718,"ĠConn":12719,"Ġbrokers":12720,"Ġcenturies":12721,"ĠTelen":12722,"erner":12723,"Ġ62":12724,"Ġ63":12725,"Ġ7000":12726,"aunch":12727,"Ġrelatively":12728,"ĠAfghan":12729,"ynes":12730,"ĠGeo":12731,"Ġbrewpub":12732,"Ġapproval":12733,"ASX":12734,"Ġ93":12735,"spect":12736,"ĠHarbor":12737,"Ġadvance":12738,"ĠSuisse":12739,"ĠSocied":12740,"ĠPerfect":12741,"iscuits":12742,"ËĪb":12743,"Ġbranched":12744,"ÑĢÐ¾":12745,"à¤®":12746,"à¸Ĺ":12747,"Ġcommit":12748,"ĠRouge":12749,"Ġguidance":12750,"Ã¸n":12751,"Ð¾Ð»":12752,"Ġ1880":12753,"Ġ1884":12754,"Ġsemiconductors":12755,"ĠWindsor":12756,"ĠCrest":12757,"ĠActive":12758,"Ġconsumption":12759,"ĠCAD":12760,"ĠFremont":12761,"ĠNeil":12762,"Ġinnovations":12763,"ĠCambodia":12764,"Ġpremises":12765,"ĠWalmart":12766,"ĠRealty":12767,"Ġ1865":12768,"ĠGhost":12769,"Ġreplace":12770,"ĠRhine":12771,"Ġbreast":12772,"Ġroads":12773,"ĠCenturyLink":12774,"Ġeffective":12775,"ĠGrande":12776,"ĠMrs":12777,"ĠØ³":12778,"ĠVietnamese":12779,"ĠCollection":12780,"ĠPeer":12781,"Ġstatutory":12782,"ĠOmn":12783,"ĠAntwer":12784,"ĠBahamas":12785,"ĠMatthew":12786,"ĠÎĳ":12787,"ĠConsultants":12788,"Ġpipe":12789,"Ġsponsored":12790,"elding":12791,"Ġmessages":12792,"ĠRolling":12793,"ĠMississaug":12794,"ĠShipyard":12795,"Ġvineyards":12796,"ĠMenlo":12797,"ĠSymantec":12798,"uggage":12799,"Ġdollar":12800,"Ġvacation":12801,"ĠProtection":12802,"Ġteachers":12803,"ĠKitchen":12804,"CBN":12805,"Ã©nÃ©rale":12806,"ĠDeposit":12807,"ĠBakery":12808,"distribut":12809,"ascular":12810,"ĠWeekly":12811,"Ġethnic":12812,"ĠMerchants":12813,"éĢļ":12814,"Ġepis":12815,"ĠGabriel":12816,"Ġcouple":12817,"ĠGirls":12818,"ĠFriedrich":12819,"ĠSignal":12820,"Ġapartments":12821,"ĠMoldova":12822,"ĠKathmandu":12823,"Ġdiscussion":12824,"friendly":12825,"ĠPrinting":12826,"ĠMotorcycles":12827,"Ġdynamic":12828,"ĠYokohama":12829,"Ġinterviews":12830,"Ġmolecular":12831,"å»º":12832,"ĠCecil":12833,"ĠÐ·Ð°Ð²Ð¾Ð´":12834,"Europe":12835,"ĠCayman":12836,"ĠStamford":12837,"Ġsubstantial":12838,"æīĢ":12839,"ĠCulver":12840,"ugosl":12841,"Ġredirects":12842,"ĠWilhelm":12843,"Ġhomebuilt":12844,"Finnish":12845,"ĠOverseas":12846,"ĠRotterdam":12847,"Ġdomestically":12848,"è£½":12849,"ĠWichita":12850,"ĠMississauga":12851,"/;":12852,"01":12853,"51":12854,"72":12855,"82":12856,"Ac":12857,"Based":12858,"Cal":12859,"Em":12860,"Ele":12861,"Gram":12862,"HF":12863,"Health":12864,"Law":12865,"Market":12866,"Music":12867,"Not":12868,"National":12869,"NET":12870,"PSE":12871,"cia":12872,"develop":12873,"fa":12874,"ked":12875,"look":12876,"pu":12877,"punk":12878,"week":12879,"xa":12880,"zu":12881,"¸ë":12882,"Ã¯":12883,"Î·":12884,"æİ":12885,"erd":12886,"Ġteas":12887,"orge":12888,"Ġintr":12889,"Ġcanned":12890,"arag":12891,"Ġsurgery":12892,"itech":12893,"Ġburg":12894,"Ġborder":12895,"Ġwalk":12896,"Ġpath":12897,"Ġpiano":12898,"Ġpieces":12899,"ingen":12900,"rot":12901,"rolet":12902,"recht":12903,"ĠCage":12904,"ĠSB":12905,"ĠTand":12906,"ĠTran":12907,"ĠTours":12908,"ĠAX":12909,"ĠAker":12910,"entially":12911,"unes":12912,"ilo":12913,"ctors":12914,"ĠMG":12915,"ĠMÃ©":12916,"ĠMersey":12917,"Ġdot":12918,"ĠBA":12919,"ĠBudget":12920,"ĠPod":12921,"utz":12922,"ĠLet":12923,"ĠLTD":12924,"ĠGP":12925,"ĠGir":12926,"ĠRak":12927,"ĠRex":12928,"ĠRight":12929,"ĠRace":12930,"ĠRice":12931,"ĠRidge":12932,"ĠFeat":12933,"ĠFabric":12934,"sta":12935,"Ġforced":12936,"ivo":12937,"ĠNE":12938,"ĠEarl":12939,"ĠDn":12940,"ĠDors":12941,"ĠDash":12942,"ĠDays":12943,"Ġthr":12944,"Ġthings":12945,"Ġgate":12946,"Ġgone":12947,"Ġgross":12948,"Ġguns":12949,"ubric":12950,"quest":12951,"ĠJump":12952,"ĠJiang":12953,"ĠKom":12954,"ĠKate":12955,"Ġrules":12956,"ĠOce":12957,"ĠOsh":12958,"Ġvast":12959,"Ġvans":12960,"aca":12961,"rances":12962,"ĠUnib":12963,"uffer":12964,"owners":12965,"endale":12966,"Ġspac":12967,"oken":12968,"mans":12969,"Ġexceed":12970,"ĠYu":12971,"ĠYak":12972,"ĠBrent":12973,"Ġplanes":12974,"orne":12975,"ĠAna":12976,"overty":12977,"ĠCox":12978,"ĠCohen":12979,"ĠShot":12980,"ĠShuttle":12981,"Ġunderwear":12982,"Ġjeans":12983,"ĠZy":12984,"ĠZÃ¼r":12985,"ĠThunder":12986,"ĠSouthwestern":12987,"Ġtraders":12988,"Ġtradition":12989,"Ġfilmmakers":12990,"ĠSpy":12991,"operatives":12992,"Ġacquires":12993,"ĠFranÃ§":12994,"ãĤ¦":12995,"ĠPhase":12996,"ĠOnly":12997,"oho":12998,"Ġnoteb":12999,"ĠClif":13000,"Ġ68":13001,"Ġinterpre":13002,"Ġintermedi":13003,"ehold":13004,"inkl":13005,"inkÅį":13006,"Ġpursu":13007,"Ġedited":13008,"ĠWeston":13009,"ĠÐ¼":13010,"ĠElectrical":13011,"ĠBeech":13012,"ĠParagu":13013,"ambique":13014,"Ġprescription":13015,"Ġdirectories":13016,"ĠHolden":13017,"Ġnationalised":13018,"Ġexpected":13019,"Ġdriver":13020,"ridor":13021,"AST":13022,"ĠMidtown":13023,"Italian":13024,"atham":13025,"ĠGenesis":13026,"Ð°ÑĤ":13027,"ĠEdwards":13028,"ĠLeaf":13029,"ĠBarcl":13030,"Ġsucceeded":13031,"ĠDrum":13032,"razy":13033,"ĠWholes":13034,"ĠMcM":13035,"Ġgenerates":13036,"Ġcompeting":13037,"Ġactively":13038,"Ġdefined":13039,"ĠLatvian":13040,"Ġaffairs":13041,"ĠHolmes":13042,"ÃŃtu":13043,"celain":13044,"åı°":13045,"Ã¸nd":13046,"ÐºÑĢ":13047,"ĠAdventures":13048,"Ġvalues":13049,"odeon":13050,"Ð¾Ð±":13051,"Ġstaffing":13052,"Ġsouthwestern":13053,"ĠRocky":13054,"Ġreduction":13055,"appa":13056,"ĠUttar":13057,"Ġgoes":13058,"Ġboom":13059,"ĠVictorian":13060,"gesellschaft":13061,"ĠNeo":13062,"Ġvolumes":13063,"schild":13064,"ĠCaptain":13065,"ĠFairfax":13066,"Ġsweet":13067,"Ġvisualization":13068,"Ġjoin":13069,"ĠClean":13070,"daq":13071,"Ġsignificantly":13072,"NCUA":13073,"ĠTyco":13074,"ĠMountains":13075,"Ġidentification":13076,"Ġestablishing":13077,"ĠSounds":13078,"lanes":13079,"ĠMercant":13080,"ORPG":13081,"ĠLighting":13082,"ĠMicros":13083,"ĠFederated":13084,"ĠBolton":13085,"ĠEllis":13086,"Ġdebuted":13087,"ĠEconomy":13088,"Ġlawn":13089,"ĠIslam":13090,"Ġultra":13091,"Ġinvolving":13092,"Ġguitarist":13093,"ĠÅł":13094,"à¥ĩ":13095,"ĠJewel":13096,"ĠPaso":13097,"Ġopportunity":13098,"Ġfabrics":13099,"Ġbaked":13100,"islava":13101,"Ġteaching":13102,"Î¹Îº":13103,"Blue":13104,"ĠTourism":13105,"ĠEntrepreneur":13106,"ĠLuft":13107,"ĠAgriculture":13108,"ĠGrammy":13109,"Ġseeking":13110,"disambiguation":13111,"ĠPersian":13112,"ĠLisa":13113,"Ġnightcl":13114,"Ġcartoon":13115,"ĠJeremy":13116,"Ð°ÑĨ":13117,"Ġreorganized":13118,"Ġexhibition":13119,"Ġbriefly":13120,"Ð²Ð¸Ð°ÐºÐ¾Ð¼":13121,"Ġcompression":13122,"Ġcertificate":13123,"Ġutilizing":13124,"ĠStrategic":13125,"ĠEthiop":13126,"Ġreceivership":13127,"Ġcontroversial":13128,"ĠSuzuki":13129,"ĠAdventist":13130,"Ġtrolleybus":13131,"Ġancient":13132,"ĠAnchorage":13133,"ĠBennett":13134,"Ġanalytical":13135,"Ġtechnological":13136,"×¨×":13137,"ĠLeyland":13138,"ĠTelegraph":13139,"ĠStaffordshire":13140,"ĠWendy":13141,"Ġvarying":13142,"profile":13143,"ĠBratislava":13144,"Universal":13145,"ĠPeninsula":13146,"ĠScottsdale":13147,"Ġvoluntary":13148,"Ġlesbian":13149,"æİ§":13150,"ÃŃtuÃ¡n":13151,"Ð²Ð¸Ð°ÐºÐ¾Ð¼Ð¿Ð°Ð½Ð¸Ñı":13152,".âĢĿ":13153,"67":13154,"900":13155,"Act":13156,"BP":13157,"CRM":13158,"EV":13159,"Lo":13160,"Logic":13161,"North":13162,"SF":13163,"Service":13164,"Thai":13165,"aight":13166,"aÃº":13167,"east":13168,"eaux":13169,"fish":13170,"fold":13171,"fair":13172,"iq":13173,"kn":13174,"lett":13175,"nt":13176,"pun":13177,"ribus":13178,"uwer":13179,"zens":13180,"Å¾":13181,"Ìĥ":13182,"Î¬":13183,"Ïħ":13184,"àµ":13185,"ìĬ":13186,"inition":13187,"Ġtalk":13188,"oral":13189,"edical":13190,"Ġcrop":13191,"arc":13192,"Ġsent":13193,"Ġseal":13194,"Ġsalt":13195,"Ġsugg":13196,"icana":13197,"Ġbound":13198,"Ġbag":13199,"Ġfer":13200,"Ġfun":13201,"Ġwild":13202,"Ġwings":13203,"Ġwinner":13204,"Ġwww":13205,"Ġpizz":13206,"Ġpoker":13207,"ĠCu":13208,"ĠCess":13209,"ĠCase":13210,"ĠCraft":13211,"ĠCebu":13212,"Ġmig":13213,"Ġmax":13214,"ĠShed":13215,"ĠSah":13216,"ĠSave":13217,"ĠSean":13218,"ĠSprint":13219,"ĠSullivan":13220,"eless":13221,"ĠAI":13222,"ĠIA":13223,"usa":13224,"usually":13225,"ilion":13226,"iling":13227,"ilitation":13228,"Ġlay":13229,"Ġlender":13230,"ĠMix":13231,"ĠMins":13232,"ĠMath":13233,"ĠMoss":13234,"ĠMAN":13235,"Ġdual":13236,"uri":13237,"ĠBorn":13238,"ĠBoss":13239,"ĠBotsw":13240,"olulu":13241,"adays":13242,"ĠPok":13243,"ĠPage":13244,"ĠPRO":13245,"idas":13246,"ĠGur":13247,"ĠRug":13248,"ĠRiy":13249,"ĠFitz":13250,"undo":13251,"stop":13252,"stead":13253,"ĠIntern":13254,"ĠInters":13255,"ĠNin":13256,"ĠNom":13257,"ĠNEC":13258,"ĠNTT":13259,"ĠEN":13260,"ĠEck":13261,"ĠDE":13262,"ĠDass":13263,"igion":13264,"iah":13265,"ĠHain":13266,"ĠHeath":13267,"ĠItaÃº":13268,"ĠWhe":13269,"ĠWonder":13270,"essa":13271,"Ġwithd":13272,"ĠJin":13273,"ĠKot":13274,"ĠKod":13275,"ĠKok":13276,"ĠKind":13277,"Ġrates":13278,"opes":13279,"ĠStef":13280,"itya":13281,"Ġeas":13282,"Ġwhisk":13283,"Ġvoted":13284,"Ġvocal":13285,"aciÃ³n":13286,"eworks":13287,"umen":13288,"umph":13289,"ĠVand":13290,"ĠVend":13291,"ibas":13292,"ĠChop":13293,"ĠChÃ¢":13294,"ĠChambers":13295,"angel":13296,"Ġoffshoot":13297,"ĠAirports":13298,"Ġairplane":13299,"Ġairplanes":13300,"okker":13301,"asty":13302,"Ġtrav":13303,"antom":13304,"ĠYuk":13305,"ĠYugosl":13306,"ulty":13307,"Ġenabling":13308,"erground":13309,"oody":13310,"ĠAlg":13311,"ĠAlp":13312,"ĠNorwich":13313,"ensed":13314,"Ġprivacy":13315,"Ġreseller":13316,"shan":13317,"Ġdesignated":13318,"ĠZep":13319,"Ġtransfers":13320,"proof":13321,"producer":13322,"othy":13323,"ĠExp":13324,"Ġoutsourced":13325,"Ġdevelopments":13326,"rique":13327,"ĠMarl":13328,"ĠMarie":13329,"operating":13330,"Ġphon":13331,"ãĤ§":13332,"ãĤŃ":13333,"Ġimpl":13334,"ĠCarbon":13335,"ĠTele":13336,"ificate":13337,"Ġintercity":13338,"umbing":13339,"ĠText":13340,"ĠGeffen":13341,"ĠWarwick":13342,"Ġpresently":13343,"ĠDecca":13344,"Ġsections":13345,"ĠMali":13346,"ĠMalm":13347,"Ġcapitalisation":13348,"Ġdozens":13349,"ĠMinerals":13350,"ijke":13351,"Ġintegrate":13352,"Ð¸Ð¾Ð½":13353,"ĠAgro":13354,"ĠReich":13355,"ĠAerom":13356,"Ã¼ck":13357,"Ġavoid":13358,"ĠMacy":13359,"oei":13360,"ĠFirm":13361,"Ġsurveillance":13362,"Ġclassics":13363,"ĠDenki":13364,"anguard":13365,"apeutic":13366,"2010":13367,"ĠTelecommunication":13368,"Ġarchive":13369,"Ġcollectibles":13370,"Ġcharities":13371,"ĠGreenwich":13372,"ciÃ³n":13373,"ĠASX":13374,"Ġcasinos":13375,"ĠBayer":13376,"gyz":13377,"Ġderives":13378,"ĠBancorp":13379,"ifteen":13380,"Ġeveryday":13381,"generation":13382,"Ġ1869":13383,"Ġantib":13384,"ĠLoan":13385,"Ġconsistently":13386,"ĠKnight":13387,"ĠSupport":13388,"ĠLinhas":13389,"ĠØ´Ø±":13390,"Ġzero":13391,"ĠLogic":13392,"ĠSeventh":13393,"ĠNaval":13394,"Ġperforms":13395,"ugeot":13396,"ĠSnap":13397,"ĠSanto":13398,"ĠCongress":13399,"ĠUltr":13400,"Ġcontributed":13401,"Ġparticipation":13402,"Ġparticipating":13403,"Ġhouseholds":13404,"ĠMemorial":13405,"Ġinstrumental":13406,"ĠHonolulu":13407,"guÃ³":13408,"ĠTemple":13409,"Ġdownloads":13410,"Ġattractions":13411,"ĠLancaster":13412,"Ġturbine":13413,"ĠSyria":13414,"ĠDomestic":13415,"ĠBeverage":13416,"ĠRenaissance":13417,"stadt":13418,"ĠTraffic":13419,"ĠArcadia":13420,"Ġsettlement":13421,"Ġfemin":13422,"ĠMerchant":13423,"Çİng":13424,"ĠTerritories":13425,"Ġstopped":13426,"Swed":13427,"Ġclearing":13428,"ĠKochi":13429,"Ġapartment":13430,"oitte":13431,"Ġmagnetic":13432,"ĠCameroon":13433,"Ġcapture":13434,"Ġdecorative":13435,"Ġbeds":13436,"ĠBogotÃ¡":13437,"ĠDerbyshire":13438,"Ġpersons":13439,"ĠLockheed":13440,"Ġutilizes":13441,"ĠTSX":13442,"Ġcooling":13443,"ĠHoliday":13444,"Ġroyalty":13445,"Ġconditioning":13446,"Ġincorporates":13447,"ĠChengdu":13448,"Ġsourcing":13449,"ĠDundee":13450,"Ġunderstanding":13451,"ĠMMORPG":13452,"ĠTreasury":13453,"Ġneighbouring":13454,"Ġcredits":13455,"ĠAlgeria":13456,"å½±":13457,"ĠChongqing":13458,"æ©Ł":13459,"ĠChallenge":13460,"Ġvillages":13461,"Ġbreeding":13462,"Ġmobility":13463,"ĠTroms":13464,"ĠPinnacle":13465,"ĠPrincess":13466,"ĠAntwerp":13467,"æİ§èĤ¡":13468,"ribusiness":13469,"ĠBotswana":13470,"98":13471,"CR":13472,"Col":13473,"Ed":13474,"HR":13475,"IO":13476,"Ro":13477,"Reg":13478,"Some":13479,"Source":13480,"TF":13481,"VP":13482,"bags":13483,"bucks":13484,"dorf":13485,"distance":13486,"eus":13487,"fo":13488,"gers":13489,"group":13490,"hin":13491,"jee":13492,"jÃ¸":13493,"kut":13494,"mu":13495,"mad":13496,"oose":13497,"pm":13498,"pired":13499,"rim":13500,"rish":13501,"rington":13502,"square":13503,"vue":13504,"wald":13505,"Ù¾":13506,"à¶":13507,"æ¨":13508,"Ġorders":13509,"anet":13510,"inated":13511,"oning":13512,"onstr":13513,"isu":13514,"Ġinput":13515,"Ġouter":13516,"aly":13517,"Ġsights":13518,"Ġshel":13519,"asma":13520,"Ġfan":13521,"Ġfanz":13522,"Ġfifteen":13523,"Ġpod":13524,"ĠCompan":13525,"ĠCum":13526,"ĠCities":13527,"ĠCrew":13528,"ĠCres":13529,"ĠCott":13530,"ĠCancer":13531,"Ġmind":13532,"ĠSeng":13533,"ĠSporting":13534,"ĠSustain":13535,"ĠTR":13536,"ĠTab":13537,"ĠTup":13538,"ĠTank":13539,"ĠTaco":13540,"ĠTroy":13541,"ĠAthlet":13542,"unner":13543,"iler":13544,"Ġlith":13545,"Ġlists":13546,"ĠMT":13547,"ĠMull":13548,"Ġda":13549,"ĠBran":13550,"ĠBatt":13551,"ĠBoca":13552,"irk":13553,"irth":13554,"ircle":13555,"ĠPu":13556,"ĠPors":13557,"ĠPens":13558,"ĠPoll":13559,"ament":13560,"idents":13561,"chapp":13562,"ĠLaz":13563,"ĠLomb":13564,"ĠLotte":13565,"ĠLuke":13566,"ĠGan":13567,"ĠGol":13568,"ĠRiv":13569,"ĠRental":13570,"ĠFiction":13571,"ĠFuku":13572,"undi":13573,"esty":13574,"ivic":13575,"ĠEB":13576,"ĠEM":13577,"ĠEsc":13578,"Ġongoing":13579,"ĠHook":13580,"Ġgave":13581,"Ġgath":13582,"ĠWels":13583,"evier":13584,"agar":13585,"quin":13586,"ĠJive":13587,"ĠJaw":13588,"ĠJensen":13589,"ĠJorge":13590,"ĠKell":13591,"Ġrom":13592,"Ġriders":13593,"Ġratings":13594,"ĠStav":13595,"ĠStato":13596,"ĠOcc":13597,"ishings":13598,"Ġear":13599,"Ġvice":13600,"ĠVoy":13601,"ĠChamber":13602,"istical":13603,"akk":13604,"Ġchair":13605,"Ġoffline":13606,"Ġspaces":13607,"Ġdisorders":13608,"anti":13609,"ultan":13610,"Ġcompound":13611,"Ġpartly":13612,"Ġadhes":13613,"ĠAssurance":13614,"atern":13615,"ãĥį":13616,"shasa":13617,"sharing":13618,"ieu":13619,"ĠZim":13620,"ĠProdu":13621,"ĠAustralasia":13622,"Ġ550":13623,"Ġago":13624,"Ġoutstanding":13625,"ĠEuropa":13626,"riers":13627,"Ġorgans":13628,"ĠComedy":13629,"Ġauthen":13630,"ĠTril":13631,"ĠSwan":13632,"ĠCarp":13633,"ĠCarriage":13634,"Ġactors":13635,"Ġnotes":13636,"Ġprep":13637,"ĠFlag":13638,"ylene":13639,"Ġpurs":13640,"ĠMontr":13641,"umberland":13642,"ĠÐ¢":13643,"ĠParibas":13644,"Ġcolour":13645,"Ġexpensive":13646,"loud":13647,"ĠPhilips":13648,"Ġpopularly":13649,"ĠMalay":13650,"Ġadvantage":13651,"uctures":13652,"atta":13653,"ĠMinh":13654,"Ġhelm":13655,"Ġelectronica":13656,"ĠDeloitte":13657,"ĠWharf":13658,"atschapp":13659,"Ġadvertisers":13660,"ĠAndreas":13661,"Ġdecline":13662,"CAT":13663,"à®°":13664,"Ġsuperv":13665,"ÑĢÐ¸":13666,"à¤²":13667,"raduate":13668,"ĠDavidson":13669,"ĠChristmas":13670,"ĠHoff":13671,"Ġrocket":13672,"ĠGoldman":13673,"ĠBlackB":13674,"Ġcapable":13675,"ĠPCC":13676,"Ġcollaps":13677,"Ġcolloqu":13678,"Ġcombat":13679,"2012":13680,"Ġpattern":13681,"Ġprotocol":13682,"Ġoptic":13683,"Artists":13684,"Ġ1882":13685,"ĠSlim":13686,"polis":13687,"Ġtests":13688,"ĠLibyan":13689,"Ġdemonstr":13690,"2006":13691,"skie":13692,"Ġanywhere":13693,"Ġdepot":13694,"ĠMaintenance":13695,"uffs":13696,"Ġ1871":13697,"Ġseparated":13698,"ĠSurvey":13699,"ourself":13700,"ĠInfin":13701,"ocolates":13702,"Asia":13703,"Ġresulting":13704,"headquartered":13705,"Ġcrystal":13706,"Ġphysics":13707,"Ġfiling":13708,"Ġmassively":13709,"Ġgroceries":13710,"Ġmeasuring":13711,"Ġ300000":13712,"banen":13713,"ĠRosen":13714,"FCU":13715,"REIT":13716,"ĠLogan":13717,"ĠBremen":13718,"Ġ1853":13719,"Ġassembled":13720,"Ġgeograph":13721,"Ġcategor":13722,"United":13723,"Ġvessel":13724,"Ġcruises":13725,"ĠSoutheastern":13726,"Ġcharged":13727,"Ġclientele":13728,"Ġcontinuous":13729,"Ġmeetings":13730,"Ġsponsors":13731,"ĠElliott":13732,"Ġtherapeutics":13733,"Ġtherapeutic":13734,"Ġjournalism":13735,"ĠSirius":13736,"ĠCornwall":13737,"Ġsustainability":13738,"Ġcompliant":13739,"Ġdownloadable":13740,"Ġcelebrities":13741,"ĠOxfordshire":13742,"ĠÄĮ":13743,"ĠStarting":13744,"ĠGallery":13745,"ĠClarke":13746,"TML":13747,"houses":13748,"ĠNagoya":13749,"ĠBuckingham":13750,"Ġcalc":13751,"Ġpilots":13752,"Ġundertaking":13753,"patient":13754,"ĠNASCAR":13755,"Ġspeech":13756,"Ġflavors":13757,"ĠMongolia":13758,"ĠArmenia":13759,"ĠBellevue":13760,"ĠUnderground":13761,"ĠNederland":13762,"Ġinfluence":13763,"ĠNOK":13764,"ĠRFID":13765,"ĠHokka":13766,"Ġassessment":13767,"ĠRothschild":13768,"Ġquestions":13769,"Ġfertilizer":13770,"åŃĲ":13771,"Ġnortheastern":13772,"Ġperipherals":13773,"ĠAhmedabad":13774,"Ġvolunteer":13775,"ãĥĩãĤ£ãĥ³ãĤ°":13776,"Ġimagery":13777,"ĠGuardian":13778,"Ġsoundtracks":13779,"Ġcultivation":13780,"Ġeuros":13781,"ĠExtreme":13782,"Ġalumni":13783,"ĠVentura":13784,"ĠTherapeutics":13785,"Ġmeals":13786,"ĠBordeaux":13787,"Ġprinciples":13788,"ãĥ¼ãĥ«ãĥĩãĤ£ãĥ³ãĤ°":13789,"Ġuranium":13790,"Ġtactical":13791,"Ġpianos":13792,"ĠPrecision":13793,"ĠMacedonia":13794,"ĠZhÅįngguÃ³":13795,"ĠJesus":13796,"Ġtimepieces":13797,"éļĽ":13798,"ĠWoolworths":13799,"ĠToshiba":13800,"ç§ĳæĬĢ":13801,"ĠMellon":13802,"Ġhydraulic":13803,"ĠHathaway":13804,"ĠKyrgyz":13805,"ĠDorset":13806,"ĠZÃ¼rich":13807,"inklijke":13808,"ìĬ¤":13809,"ĠCessna":13810,"ĠChÃ¢teau":13811,"ĠFukuoka":13812,"52":13813,"61":13814,"78":13815,"84":13816,"Bev":13817,"Cre":13818,"DE":13819,"Del":13820,"East":13821,"Elect":13822,"FF":13823,"Film":13824,"KO":13825,"Mer":13826,"News":13827,"SH":13828,"Sky":13829,"Turk":13830,"base":13831,"court":13832,"eon":13833,"feld":13834,"hn":13835,"hal":13836,"hia":13837,"jah":13838,"kai":13839,"lass":13840,"mal":13841,"mile":13842,"mount":13843,"pit":13844,"plex":13845,"rase":13846,"rÃ©":13847,"seat":13848,"tex":13849,"vy":13850,"vil":13851,"viv":13852,"wig":13853,"Ã½":13854,"ÄĽ":13855,"ÊĴ":13856,"Î¸":13857,"Ð¶":13858,"×ĳ":13859,"åĩ":13860,"eros":13861,"oney":13862,"atus":13863,"Ġcold":13864,"alis":13865,"Ġsetting":13866,"itos":13867,"Ġbench":13868,"Ġped":13869,"Ġpub":13870,"Ġpapers":13871,"ionics":13872,"roke":13873,"rej":13874,"ĠCB":13875,"ĠCurt":13876,"ĠCandy":13877,"ĠSSE":13878,"ĠSonoma":13879,"ĠTC":13880,"ĠTT":13881,"ĠTon":13882,"ĠTet":13883,"ĠTowers":13884,"ĠAN":13885,"ĠAust":13886,"ĠAco":13887,"ĠAichi":13888,"ĠADSL":13889,"unt":13890,"ilk":13891,"Ġlumber":13892,"Ġlique":13893,"Ġlottery":13894,"Ġluggage":13895,"ĠMec":13896,"ĠMang":13897,"ĠMick":13898,"ĠMush":13899,"Ġdepend":13900,"ĠBot":13901,"ĠBuild":13902,"ĠBicy":13903,"olian":13904,"added":13905,"ĠPam":13906,"ĠPine":13907,"ĠPied":13908,"ĠPOS":13909,"chron":13910,"ĠLiz":13911,"ĠLav":13912,"ĠLaf":13913,"ĠLTE":13914,"ĠGon":13915,"ĠGoth":13916,"ĠGerald":13917,"ĠRip":13918,"ĠRank":13919,"ĠRide":13920,"ĠReb":13921,"ĠRican":13922,"levard":13923,"ĠFunk":13924,"stores":13925,"ĠIntr":13926,"ĠIniti":13927,"ĠNiag":13928,"ĠEis":13929,"ĠEffect":13930,"Ġnature":13931,"ĠDivers":13932,"ĠDana":13933,"ĠDestin":13934,"eme":13935,"emen":13936,"ĠHed":13937,"ĠHad":13938,"ĠHass":13939,"ĠHood":13940,"ĠHaz":13941,"Ġgifts":13942,"occer":13943,"otten":13944,"ĠWWE":13945,"quer":13946,"quency":13947,"Ġstep":13948,"ĠJedd":13949,"ĠKnown":13950,"ĠKens":13951,"ĠKraft":13952,"ĠKole":13953,"Ġrig":13954,"Ġrum":13955,"ulpt":13956,"ĠStear":13957,"ĠOP":13958,"Ġheight":13959,"Ġvit":13960,"apur":13961,"ipse":13962,"ĠVit":13963,"ĠVil":13964,"ĠVale":13965,"elles":13966,"ĠUnic":13967,"ĠChu":13968,"Ġheadphones":13969,"ako":13970,"closed":13971,"Ġkids":13972,"alla":13973,"Ġ2015":13974,"ĠBrick":13975,"ulton":13976,"ancement":13977,"Ġsubscriptions":13978,"ĠAlitalia":13979,"ĠNorge":13980,"acker":13981,"ĠCanyon":13982,"ĠAsk":13983,"Ġarena":13984,"ateral":13985,"ãĥĢ":13986,"ãĥģ":13987,"Ġunif":13988,"ĠShore":13989,"ĠShizu":13990,"shares":13991,"ĠZhe":13992,"ĠExport":13993,"Ġstored":13994,"rien":13995,"Ġbuys":13996,"ĠSpec":13997,"Ġassumed":13998,"ĠMaria":13999,"indi":14000,"cool":14001,"ĠTraction":14002,"ĠSweet":14003,"ĠPhoto":14004,"Ġopposed":14005,"ĠOnce":14006,"innings":14007,"ĠTransdev":14008,"ĠCentro":14009,"Ġperforman":14010,"ernsey":14011,"Ġ650":14012,"ecommerce":14013,"Ġscal":14014,"ĠAdobe":14015,"Ġfoundations":14016,"umble":14017,"Ġ87":14018,"ĠMonitor":14019,"chedel":14020,"ĠÐĹ":14021,"ĠBeaver":14022,"ermo":14023,"ĠAssets":14024,"Ġ9000":14025,"Ġpurchases":14026,"ĠPolice":14027,"Ġsigns":14028,"Ġaccident":14029,"ĠLease":14030,"Ġ121":14031,"elfare":14032,"ĠTorrance":14033,"Ġpromotions":14034,"ĠDavies":14035,"ĠComplex":14036,"Ġhandle":14037,"ĠReport":14038,"Ġdecisions":14039,"CAM":14040,"à®ª":14041,"Ġdiscs":14042,"Ġ175":14043,"ÑĢÐµ":14044,"à¸´":14045,"fields":14046,"Ġlogic":14047,"Ġbiology":14048,"ĠMotown":14049,"ĠHoly":14050,"omba":14051,"ĠHeadquarters":14052,"Ġvisited":14053,"Ġpayroll":14054,"onomy":14055,"Ġrefurb":14056,"Ġreceives":14057,"ĠMeta":14058,"Ġoptics":14059,"Ġvaluation":14060,"ĠPalmer":14061,"Ð¾Ð³":14062,"ĠVerlag":14063,"espa":14064,"ĠVictory":14065,"ĠNoida":14066,"ĠBurton":14067,"ĠSolid":14068,"Ġconfigur":14069,"ĠSurf":14070,"Ġintroduce":14071,"ĠOffshore":14072,"ĠBoat":14073,"Ġshareholding":14074,"Ġlandline":14075,"Ġlandmark":14076,"ĠWaterloo":14077,"ĠErik":14078,"Ġ2600":14079,"ĠKhal":14080,"Ã¨n":14081,"Äģng":14082,"ĠLoop":14083,"Ġmeant":14084,"ĠIdent":14085,"ĠBasic":14086,"ĠComputers":14087,"ĠReven":14088,"ĠiPod":14089,"Ġidentified":14090,"ormal":14091,"Ġ1856":14092,"ĠPeugeot":14093,"ĠAnnual":14094,"Ġtrademarks":14095,"ãĤ¤ãĥ³":14096,"ĠSummit":14097,"Ġmatches":14098,"Ġconcentrate":14099,"ĠWiMAX":14100,"ĠJeffrey":14101,"Ġsubsequent":14102,"Ġcomprise":14103,"ĠDevices":14104,"Ġsmartphone":14105,"Ġgeared":14106,"Ġconferencing":14107,"ĠFujitsu":14108,"Ġgarments":14109,"working":14110,"à¹Į":14111,"Express":14112,"ãĤ¸ãĥ£":14113,"ĠDorado":14114,"Ġinventor":14115,"ĠVineyard":14116,"Ġprivatization":14117,"Ġdeployed":14118,"Ġconcerned":14119,"ĠIvan":14120,"Ġdonations":14121,"ĠWhitney":14122,"ĠEmbassy":14123,"Ġinsurer":14124,"ĠCertificate":14125,"ĠNicarag":14126,"ÙĥØ©":14127,"Ġenhance":14128,"åľĭéļĽ":14129,"ĠNASA":14130,"ĠCircuit":14131,"Ġchampionship":14132,"ĠKinshasa":14133,"ĠRobertson":14134,"ĠRanch":14135,"Ġfunctionality":14136,"Ġvegetables":14137,"Ġbearings":14138,"ĠGardens":14139,"Ã«n":14140,"Ġwanted":14141,"ĠHolidays":14142,"ĠTunisia":14143,"ĠChevrolet":14144,"ĠChandler":14145,"Ġdropped":14146,"ĠElsevier":14147,"Ġlegislation":14148,"ĠUtilities":14149,"Ġmandate":14150,"ĠHertfordshire":14151,"ĠRoute":14152,"Ġdestroy":14153,"ĠNunav":14154,"Ġyachts":14155,"ĠNicholas":14156,"ĠCedar":14157,"Ġrecommend":14158,"Ġå¤§":14159,"Ġchallenges":14160,"ĠTbk":14161,"ĠAluminium":14162,"elskap":14163,"ĠGreensboro":14164,"åºĹ":14165,"ĠShandong":14166,"ĠSyndicate":14167,"ĠAuburn":14168,"Ġrhythm":14169,"ĠHiroshima":14170,"ĠDocument":14171,"ĠMaldives":14172,"ĠNickelodeon":14173,"ĠVulcan":14174,"åķĨ":14175,"quarie":14176,"Ġsimultaneously":14177,"ĠBarclays":14178,"ĠRiyadh":14179,"atschappij":14180,"ĠBlackBerry":14181,"ĠNiagara":14182,"ĠJeddah":14183,"ĠShizuoka":14184,"Ġperformances":14185,"68":14186,"69":14187,"92":14188,"ABC":14189,"Ass":14190,"CG":14191,"Care":14192,"Ds":14193,"Direct":14194,"FG":14195,"FW":14196,"HO":14197,"Life":14198,"Mac":14199,"Par":14200,"Rom":14201,"SK":14202,"Serv":14203,"SZSE":14204,"Tec":14205,"Tamil":14206,"];":14207,"bound":14208,"bital":14209,"both":14210,"corn":14211,"cology":14212,"cylinder":14213,"del":14214,"dec":14215,"fall":14216,"family":14217,"gets":14218,"hist":14219,"hwa":14220,"iary":14221,"ienne":14222,"jas":14223,"lab":14224,"mall":14225,"music":14226,"oum":14227,"pin":14228,"qi":14229,"rent":14230,"rag":14231,"rud":14232,"rian":14233,"rak":14234,"sec":14235,"sburg":14236,"uations":14237,"yte":14238,"Ã²":14239,"ÉĴ":14240,"Ðĺ":14241,"Ñį":14242,"áº":14243,"ä¹":14244,"å¸":14245,"åł":14246,"æĪ":14247,"éĸ":14248,"Ġecommerce":14249,"eri":14250,"Ġtom":14251,"Ġtube":14252,"Ġtaste":14253,"hetic":14254,"isan":14255,"Ġcinem":14256,"Ġcycling":14257,"Ġcrown":14258,"Ġov":14259,"enabled":14260,"aren":14261,"itarian":14262,"aso":14263,"Ġbin":14264,"Ġbike":14265,"Ġbasketball":14266,"ĠfÃ¼r":14267,"Ġfixt":14268,"Ġwarg":14269,"Ġways":14270,"reats":14271,"ĠCe":14272,"ĠSG":14273,"ĠSR":14274,"ĠSeed":14275,"ĠSenior":14276,"ĠSultan":14277,"ĠTag":14278,"ĠTac":14279,"ĠTaj":14280,"ĠTerr":14281,"ĠTrop":14282,"ĠTraf":14283,"ĠAE":14284,"ĠAw":14285,"ĠAar":14286,"ĠAIM":14287,"uson":14288,"Ġlubric":14289,"ĠMeh":14290,"ĠMason":14291,"ĠMÃ¼n":14292,"Ġdiet":14293,"Ġdiction":14294,"ĠBO":14295,"ĠBag":14296,"ĠBour":14297,"ĠBase":14298,"ĠBurb":14299,"olar":14300,"ĠPut":14301,"ĠPeak":14302,"ĠPKP":14303,"ĠPleas":14304,"Ġtoo":14305,"chard":14306,"Ġhuge":14307,"Ġprogress":14308,"ĠLil":14309,"ĠLad":14310,"ĠLuk":14311,"ĠLiter":14312,"ĠLNG":14313,"ĠGov":14314,"ĠGTE":14315,"ĠGÃ©nÃ©rale":14316,"ĠRush":14317,"ĠRox":14318,"ĠRiley":14319,"lease":14320,"ĠFI":14321,"ĠFan":14322,"ĠFol":14323,"ĠFut":14324,"ĠFac":14325,"ĠFokker":14326,"Ġreform":14327,"Ġreward":14328,"Ġreprint":14329,"stand":14330,"lys":14331,"ĠNant":14332,"ĠEL":14333,"ĠER":14334,"ĠEX":14335,"ĠEar":14336,"ĠEur":14337,"ĠESP":14338,"Ġnations":14339,"ĠDy":14340,"ĠDin":14341,"ĠDut":14342,"ĠDock":14343,"ĠDuty":14344,"abis":14345,"ĠHod":14346,"ĠHerb":14347,"ĠHache":14348,"ĠHTML":14349,"Ġgy":14350,"ubble":14351,"owitz":14352,"ĠUT":14353,"ĠUk":14354,"ĠUFJ":14355,"oting":14356,"ĠWang":14357,"ĠWein":14358,"eve":14359,"evis":14360,"agawa":14361,"Ġstars":14362,"ĠKash":14363,"Ġrug":14364,"Ġrigs":14365,"ĠSteph":14366,"ĠStoke":14367,"udio":14368,"Ġopera":14369,"ĠeCommerce":14370,"arts":14371,"artan":14372,"artner":14373,"apy":14374,"tsville":14375,"ipts":14376,"ĠVanguard":14377,"oded":14378,"ibo":14379,"ĠChad":14380,"ĠChÅ«":14381,"ĠChiy":14382,"akehold":14383,"Ġindirect":14384,"Ġchurch":14385,"places":14386,"avan":14387,"avity":14388,"Ġkios":14389,"Ġknow":14390,"mant":14391,"ĠNewman":14392,"ĠEnix":14393,
[...]
